#version: 0.2 - Trained by `huggingface/tokenizers`
Ġ d
Ġ e
Ġd e
Ġ l
o s
Ġ p
Ġ c
e n
e r
Ġ a
e s
a r
a s
o n
c i
Ġ s
o r
a n
a d
u e
a l
Ġl a
Ġ m
Ġe n
Ã ³
q ue
u n
r e
t i
i n
Ġ que
Ġ y
t e
Ġe l
t a
t r
Ġe s
Ã³ n
t o
Ġc on
Ã Ń
Ã ¡
Ġ h
i d
Ġ un
Ġ n
i s
o m
i c
ci Ã³n
Ġs e
Ġ f
Ġ v
Ġl os
r o
d o
ad o
Ġp ar
Ġde l
Ġ re
l e
a m
Ġs u
Ġ in
Ġ o
Ã ©
o l
t u
Ġ C
Ġh a
r es
i en
Ġp or
Ġc om
Ã ±
i m
Ġl as
r a
Ġa l
e c
i l
a ciÃ³n
Ġ g
Ġpar a
Ġ P
i o
Ġ b
t er
ÃŃ a
Ġ A
ci on
a b
Ġn o
Ġ M
Ġun a
Ġ E
l a
t os
t en
e m
Ġp ro
en te
q u
t ar
Ġ S
i a
c u
l o
. .
i g
i r
u s
e d
Ã¡ s
id ad
Ġ tr
Ġc u
ad a
ci a
Ġde s
Ã º
c h
Ġp er
e l
t es
i er
t or
p a
i z
ti v
c a
Ġl o
i ci
t an
u r
i b
Ġa c
Ġ L
Ġ to
t as
m a
d a
Ġe x
E l
i v
cion es
Ġp r
u es
Ġ "
al es
Ġ D
o b
Ġ G
u l
Ġ R
Ġcom o
Ġm Ã¡s
c o
Ã¡ n
ic a
id o
Ġ B
Ġ (
o d
t al
tr a
ad os
g o
m p
Ġ 2
Ġ 1
Ġ T
s e
a j
an do
Ġ ti
Ġ j
tr o
er a
m o
p o
i os
Ġ I
Ġa n
Ġm u
L a
i Ã³n
ta m
Ġs er
Ġ F
e z
Ġ res
Ġm e
c e
u d
er o
g u
r an
Ġs i
Ġ te
ic o
Ġes t
i f
Ġes ta
or m
Ġ V
ien to
b l
Ġp re
p ar
ad or
.. .
p or
p e
Ġ r
Ġ J
b i
pa Ã±
Ġsu s
Ġd is
u c
Ġl e
Ġes te
o ci
0 0
t re
id a
Ġa Ã±
E s
p er
a v
Ġ im
Ġcon s
en d
Ã© n
E n
ĠE s
Ġp res
u m
Ġm a
en cia
n o
Ġa s
Ġ N
Ġ qu
r i
an te
d i
n a
d os
Ã© s
c on
Ġ ten
i on
c er
en ta
ue v
Ġp ue
g a
Ġp a
ar a
b r
em os
t ado
ob re
Ġc a
ad as
l os
g un
Ġs in
tr os
Ġa r
Ġ tu
Ġ H
Ãº n
p on
r u
Ġs obre
en s
Ġm an
c l
al iz
p l
d ad
an a
Ġp as
Ġc as
Ġd i
s on
Ġe mp
g r
am os
z a
Ġ U
g ar
c es
ci as
Ġ O
or a
l as
Ġin ter
Ġpar ti
l es
p os
v en
ÃŃ s
Ġp od
u er
Ġen tre
Ġin f
Ġpue d
Ġc am
Ġper o
er s
i t
Ġm ed
or es
Ġa d
e g
b a
Ġl le
ti c
Ġh an
is ta
Ġti en
Ġn uev
is mo
am ente
ar io
Ġpr im
m ente
Ġper son
l an
Ġs on
en to
b re
Ġy a
Ġ2 0
i e
re c
Ġ or
al idad
Ġn ues
Ġm ar
Ġf in
ti n
ĠI n
Ġs ol
ti ca
tiv o
i as
bi Ã©n
Ġc ar
Ġv er
Ġto do
en tes
p res
ec h
" ,
Ġc o
" .
b le
ĠaÃ± os
or ma
tr as
d uc
Ġs al
a c
l ar
Ġcom p
tu ra
en a
Ġn os
Ġa p
ÃŃ n
an o
Ġo b
Ġp os
Ġc re
o c
ti l
Ġc or
es ti
ÃŃ as
m in
ab aj
o y
Ġest Ã¡
Ġmu ch
Ġin s
r as
paÃ± a
Ġ t
Ġa m
Ġtr abaj
e b
Ġdes d
j e
Ġme j
Ġ -
Ġdesd e
Ġ tam
L os
p u
ci o
Ġ 3
Ġa u
Ġa b
Ġ tan
Ġde b
cion al
ec es
in a
Ġd os
i ta
Ġo f
Ġmu y
m as
Â ¿
as ta
ĠC on
ic os
Ġha y
j o
c om
ig u
Ġm i
Ġtam biÃ©n
on a
Ġp ol
id os
p ues
u ro
en tar
Ġha b
en er
Ġ us
ue l
Ġes c
d as
g an
Ġs oci
v er
o g
on es
c ar
d es
j er
Ġ20 1
Ġn i
Ġm un
tiv a
en ti
Ġg ran
m os
ud ad
i tar
Ã± o
Ġ ter
Ġre g
ĠA l
ien do
ci p
Ġ '
i udad
ĠM ar
e o
Ġp o
ic aciÃ³n
e a
on d
Ġm o
p i
Ġto dos
Ġm en
Ġpar te
P or
m i
j a
Ġin d
Ġma y
ici o
l am
Ġl u
Ġemp res
Ġh asta
ĠS an
i ciÃ³n
ien te
s o
ti co
ad r
em p
Ġinf orm
ion es
qu ier
Ġc an
ĠEs paÃ±a
Ġcon tra
er v
idad es
m an
il l
Ġac tu
is tas
Ġtr a
Ġin v
ĠD E
Ġtien e
ti tu
Ãº l
ob ier
ab a
ar Ã¡
p ec
ador es
ci al
ed ad
qu i
ar ios
d u
ĠR e
u b
ĠaÃ± o
Ġpued e
N o
Ġre f
Ġd a
ic as
Ġmej or
Ġc ol
f ec
Ġser v
g en
Ġcu ando
Ġtr as
Ġf ue
) ,
Ãºl ti
cu r
ch a
v o
Ġha cer
t Ã³
Ġde ci
tor ia
z o
v e
ĠL a
Ãº bl
Ġdi rec
c an
er os
ĠU n
obier no
tu r
ĠC om
Ġn eces
Ġd if
d er
Ġf u
iv ers
ti r
t on
Ġn a
ĠA n
O S
un to
is te
t ados
ter i
Ġg ra
Ġc al
E R
C on
Ã± a
Ġp u
ur ante
n os
g Ãºn
Ġ Ãºlti
Ġf orma
ond e
adr id
Ġcu al
u en
c n
Ġcon f
or d
Ġc os
Ġp la
Ġc en
a y
E S
Ġm is
Ġv is
tan te
Ã³ m
Ġ w
Ġf un
Ġl ib
v is
c al
ar ro
e le
paÃ± ol
Ġc l
ib le
ab le
Ġd ÃŃa
Ġpor que
Ġ 4
tiv os
x im
Ġel ec
Ġa cu
i es
e t
Ġal gun
d en
c ed
ÃŃ cu
Ġd ic
Ġc iudad
Ġd onde
Ã© r
an os
am a
Ġv ez
Ġre aliz
e ci
il idad
in o
Ġpol ÃŃ
Ġti em
) .
Ġa h
ta ciÃ³n
c as
Ġ Â
ĠE l
Ġre ci
Ġm es
y ec
ici os
Ġc ada
S i
em Ã¡s
Ġperson as
Ġcom un
Ġb ien
Ġes pe
ÃŃ an
S e
Ġse c
Ġa y
e f
id as
Ġp e
r Ã¡
ar on
Ġ 5
Ġs ido
Ġas ÃŃ
Ġes tu
e p
â Ģ
Ġc r
Ġlle v
an tes
Ġha ce
Ġf orm
al mente
an s
ar se
Ġim por
Ġh is
ic ado
i to
ĠM adrid
Ġpro f
Ġj u
Ġun o
Ġc er
Ġg ener
g os
en do
Ġc h
Ġm od
v i
Ġin cl
le c
Ġs ig
te l
Ġo p
m iento
ci l
Ġ W
en tos
is tr
Ġv al
u ciÃ³n
ur os
L as
Ġ |
E N
a ciones
u y
ti s
Ġp Ãºbl
Ġmay or
Ġe m
Ġ id
A S
Ġse gu
Ġde n
Ġpro p
Ġde re
Ġ ro
Ġtiem po
Ġpro duc
Ġ u
Ġes paÃ±ol
c el
A R
ĠE uro
arro l
il la
Ġp ues
Ġs ab
Ġde f
C I
Ġ Ã©
Ġv iv
Ġd urante
A l
am iento
tic as
Ã± os
Ġ1 9
Ġe qui
ĠA r
id ente
al a
Ġest Ã¡n
Ġw eb
mp l
Ġen tr
Ġcas o
m e
Ġh ech
ci n
Ġf al
in cip
Ġh or
Ġm ismo
g ur
O N
Ġnuev o
i Ã³
Ġo tros
Ġpu bl
Ġm om
tor es
U n
ien tos
Ġmun do
Ġv ida
un que
ĠC ar
ĠG obierno
Ġen cu
Ġn e
Ġp lan
p ul
ch o
Ġm in
Ġes tar
Ġpa ÃŃs
er n
Ġpro yec
ien tes
Ġv a
Ãº s
Ġf uer
emp re
om o
Ġcon ten
en o
ar d
r ib
tam iento
P ara
pu Ã©s
Ġp on
Ġm ill
D e
ic ar
Ġtan to
Ġpr incip
Ġmen os
g res
Ġtr es
Ġqu ier
im iento
Ġa f
ci os
Ġv e
Ġprof es
Ġcu enta
Ġ #
Ġto da
Ġtrabaj o
A L
ar es
Ġ Y
Ġlu gar
Ġg ru
Ġcon tr
Ġdes arrol
iz aciÃ³n
ĠV al
Ġex pres
Ġb as
Ġ 6
Ġcual quier
Ġde j
Ġl es
Ġ @
Ġc ab
ĠC a
Ġtr ans
Ġf r
Ġ ra
in e
ĠC as
tic os
Ġb aj
ec e
Ã³ lo
A N
c or
tam ente
Ġprim era
r end
Ġe uros
Ġes tos
Ġac tiv
ti do
00 0
Ġinform aciÃ³n
Ġan te
z ar
am il
ĠL e
Ġprim er
Ġor gan
O R
ar ia
i al
Ġsu b
Ġa par
ces o
Ġe v
Ġ K
ĠB ar
Ġres ul
te g
Ġv o
Ġnues tro
un d
Ġsi tu
Ġpro gr
j os
m en
Ġe j
c re
an d
b ar
Ġsi empre
ch e
Ġv ol
con tr
in g
Ġdif er
ta c
tr uc
m ar
Ġmill ones
c en
Q u
t ad
tan tes
Ġmuch o
Ġmu jer
Ġencu en
Ġah ora
Ġpas ado
om bre
ez a
ĠP ar
D es
Â »
Ġsol o
aj e
Ġo tro
Ġsu per
Ġm er
Ġu til
Ġl lam
em bre
is ten
Ġno ti
Ġto das
Ġse gun
Ġpod er
tam os
Ġ tar
Ġ Ã¡
Ġres pon
t Ã¡
w it
Ġe ra
I n
Ġg an
Ġob je
qu ÃŃ
f er
u ra
! !
Ġ z
Ġnues tra
Ġd ÃŃas
Ġtr av
Ġmom ento
Ġhech o
Ġh er
Ġpod r
Ġex per
Ġin ten
Ġp l
Ġ Z
Ġpro ble
r os
ol og
A D
ec u
Ġsoci al
Ġc ele
Ġe con
Ġ ta
l aciÃ³n
Ġre d
Ġ2 00
Ġcomp le
Ġcu l
ĠE n
ĠA s
2 0
Ġ [
Ġex pl
Ġre la
Ġen contr
pos iciÃ³n
ĠC h
er ÃŃa
Ã© cn
Ġdes puÃ©s
Ġun os
p ro
Ġs igu
Ġb uen
om in
Ġse m
tan do
ig o
f ici
A s
ier on
Ġh oy
Ġpr Ã³
Ġan tes
s a
Ġs iste
Ġm on
wit ter
us o
Ġp es
Ġ 7
Ã ģ
Ġten er
er g
Ġempres a
y o
Ġes e
Ġb us
Ġ X
o cu
t t
Ġreci b
Ġf amil
Ġo tras
Ġinv esti
Ġtrav Ã©s
v a
se gu
Ġes o
Ġper mi
Ġda tos
S O
Ġse gÃºn
y a
P ero
Ġj ue
Ġqu ien
gu a
Ġcon v
Ġh i
Ã³ mo
ien cia
f r
h o
i or
Ġa unque
Ġhor as
tiv as
Ġes to
ĠP ro
te c
ci dad
Ġcon tin
ab or
a tro
Ã³ g
ar ias
Ġparti do
u da
U na
ĠprÃ³ xim
Ġqu Ã©
Ġse a
Ġof re
le g
Ġ ir
Ġser Ã¡
Ġal go
Ġequi po
w w
t ada
Ġv en
Ġm as
Ġpres idente
que l
c ado
ici p
Ġap ro
Ġnuev a
c os
Ġ 8
tur al
Ġcom entar
Ġte mp
Ġti po
Ã¡ c
Ġque d
o to
Ġmed io
v an
ĠP a
Ġpo co
Ġd ar
Ġcam b
b o
g ra
is iÃ³n
Ġtien en
Ġpued en
Ġo tra
ĠP P
/ /
Ġten d
Ġcons id
ĠM a
Ġg u
A d
Ġg us
Ġhis toria
Ġcu r
ens a
Ġcomp r
ĠN a
us tr
ĠS e
Ġau tor
Ġto tal
om b
er do
lo g
z as
tt p
Ġ tal
Ġp el
Ġse Ã±
ar an
Ġes tas
Ġserv icio
Ġs Ã³lo
ÃŃ o
: //
Ġpre v
Ġam b
h a
.. ..
g ado
Ġa pl
ce p
Ġre cu
teri or
Ġad emÃ¡s
Ġel los
ien tras
Ġgru po
pi tal
âĢ ĵ
ci s
Es te
Ġm al
un ci
Ãº m
cu l
i cia
Ġv i
ĠEuro pa
ĠC o
Ġh um
Ġar t
ch os
Ġa po
ol a
Ġfin al
Ġes p
ĠÂ «
or n
I C
Ġempres as
un tos
tor io
Ġutil iz
ica ciones
Ġ 9
Ġsem ana
v il
ar ra
ĠD i
Â ¡
Ġ Ãºn
Ġb a
s os
Ġhab ÃŃa
ti dad
ĠJ os
Ġ1 0
ĠJ u
C u
Ġcom par
Ġt Ã©cn
ĠC an
ar i
ter a
Ġm il
Ġn in
Ġre pres
Ġc ier
Ġs enti
Ġa quel
Ġ Â¿
Ġes a
Ġn ada
an za
Ġpro v
ĠA y
Ġn av
Ġespe cial
d al
Ġha bl
Ġcom er
ĠM an
Ġhab er
Ġest ado
Ġserv icios
Ġy o
en t
Ġa g
e x
Ġcon oci
Ġm ad
Ġs ÃŃ
Ġinter es
Ġp ens
Ġre con
ĠIn ter
Ġproyec to
du ci
av or
id e
un tamiento
Ġe di
ĠG u
g e
Ġsin o
im os
Ġprofes ion
SO E
b an
Ġe fec
Ġn Ãºm
b ol
un ta
Ġus u
Ġcas a
cu lar
el l
Ġs an
Ġc in
Ġcom paÃ±
Ġs im
Ġsiste ma
enta ciÃ³n
r is
Ġd ir
Es ta
Ġa ten
Ġrespon s
L o
iv el
ÃŃ f
tu ras
Ġle g
Ġdeci r
ab an
om e
ÃŃ d
ĠD e
Ġgener al
en cias
Ġcon o
pues to
Ġp al
t Ã³n
ĠC or
c ri
d ida
Ġ1 5
Ġb an
Ġman era
Ġb ar
p re
Ġparti cip
iv a
ig a
Ġp i
Ġmun icip
Ġ k
ĠF ran
Ġesta ble
Ġf avor
Ġel lo
Ã¡ g
Ġin m
Ad emÃ¡s
Ġmuch os
Ġus o
Ã¡ l
Ġelec tr
T A
Ġpe que
ivers idad
un idad
Ġf a
i tos
Ġca pa
Ġla b
Ġespe ci
Ġh e
Ġre v
pues ta
p le
us iÃ³n
Ġman ten
Ġan ti
esti Ã³n
Ġl ar
Ġ tor
Ġv uel
u al
Ġau to
Ġn ivel
al l
Ġa quÃŃ
Ġc Ã³mo
Ġc ara
Ġecon Ã³m
ĠO r
Ġcen tro
ĠP ol
Ġg as
ĠEs tado
c ol
' ,
Ġ igu
ab les
ĠpolÃŃ tica
qu il
Ġ i
e ta
Ġju g
Ġprogr ama
cel ona
is is
Ġlo c
t witter
ĠP res
Ġes pa
er as
Ġmes es
Ġcu atro
ir m
Ġ Ãģ
r im
Ġm ientras
Ã³ r
Ġv ia
g on
ĠP SOE
ĠN av
Ġestu d
le o
ib ilidad
Ġ os
ĠÃ© l
Ġconten idos
Ġpos ible
I S
Ġs en
Ġtu r
ĠnÃºm ero
ĠC am
Ġacu erdo
Ġha bi
Ġalgun os
Ġdis pon
en e
Ġh o
Ġes pec
na cional
ÃŃcu lo
tan cia
ar Ã¡n
ĠS oci
Ġes per
cion ales
Ġmed i
ĠAy untamiento
f orm
Ġdis tin
Ġde cl
olog ÃŃa
ador a
Ġb o
ti f
en ci
Ġs a
ĠG ener
re o
Ġorgan iz
Ġb u
ici al
ĠL u
Ġl ÃŃ
ĠM on
g aciÃ³n
Ġcos as
Ġnoti cias
o tros
h ib
s iÃ³n
Ġne go
Ġs o
in as
Ġden tro
Ġa br
o k
f ru
Ġay ud
d ic
b er
Ġdir ig
Ġcontin u
Ġins tal
I N
Ġg ente
por te
Ġimpor tante
Ġdere chos
l u
Ġte cn
Ġle y
an ci
c ÃŃa
Ġre c
Ġnues tros
Ġc las
e as
Ġdeb e
Ġsegu ir
T am
R E
ra ciÃ³n
Ġc lar
ed ia
ci miento
Ġesc ri
Ġgran des
Ġconsid er
Ġsitu aciÃ³n
ĠJos Ã©
Ġcon di
Ġcom pe
ĠS al
Ġref er
p as
tr an
Ġcom en
re a
ib u
j as
Ġval or
g as
Ġtemp or
ci d
is o
ier a
ch ez
Ġcas i
ep end
ue la
ĠpÃºbl ico
ĠL A
Ġse gur
Ġim a
tu d
Ġc alidad
Ġun as
Ġlle gar
Ġver dad
t Ã¡n
im o
Ġej emp
b ado
Ġh ttp
ti m
Ã© c
Ġ ur
ues tra
ad i
Ġmu er
Ġcamb io
Ġe uro
in os
Ġh emos
Ġsec tor
om a
Ġp ed
Ġpre gun
ĠBar celona
Ġqu er
ĠS u
on o
Ġp unto
ĠCon s
T E
Ġlle g
Ġa se
Ġfu era
Ġm Ã¡
Ġfun cion
te d
Ġa mpl
Ġd omin
ĠÃºlti mo
Ġz ona
A n
S u
gra f
Ġ1 8
Ġmis ma
un a
Ġigu al
As ÃŃ
Ġper io
ers iÃ³n
Ġd ig
Ġre par
Ġsol ici
Ġcele br
Ġdis fru
Ġdifer entes
Ġem bar
n es
ĠM un
Ġmujer es
Ã± as
Ġv enta
ter io
h e
pec to
tar io
Ġp ad
pos i
Ġpres en
t ÃŃn
ĠA d
ĠCa tal
Ġor ig
Ġp Ã¡g
Ġl im
ĠGener al
l ado
Ġd ocu
Ġtra ta
es ta
c tu
Ġs ue
ol u
i ar
Q ue
Ġfr ente
t s
ĠJu an
Ġ âĢĵ
z ado
un ca
Ġtu s
ti o
Ġproduc tos
Ġcontr ol
im a
ĠG ar
ol Ã³g
an to
Ġcon segu
20 1
R A
Ġo bl
Ġd in
ec er
M e
om ÃŃa
Ġre cur
Ġobje tivo
Ġel la
e lo
Ġmuch as
Ġsoci edad
Ã ĵ
U E
Ġfal ta
Ġdis e
ĠE x
Ġh ora
Ġcu mpl
es iÃ³n
Ã¡ m
n e
Ã¡n chez
I I
Ġte le
Ġgra cias
or te
br as
Ġre co
gres o
ĠN o
Ġj unto
Ġa fec
Ġ1 2
ci do
ol uciÃ³n
til la
Ġlab or
Ġor den
iv il
Ã¡ r
Ġex p
Ġreg istr
Ġdesarrol lo
ĠG ran
om os
ĠRe al
Ġcono cer
Ġdes p
Ġbaj o
ter o
Ġsegur idad
Ġejemp lo
ÃŃ tu
Ġfin anci
Ġf oto
Ġpar ece
ĠM ed
Ġfun d
n et
Tam biÃ©n
Ġcam bi
i re
Ġpro ceso
z Ã³n
m Ã¡
Ġha cia
Ġp an
Ġre un
ĠC en
p el
is tro
Ġin ici
Ġperson al
ib les
Ġmej ores
Ã± ana
Ġmer cado
pon e
Ġman if
por t
duc aciÃ³n
Ġob s
od emos
Ġdes a
Ġpro ced
Ġform aciÃ³n
Ġa gua
ib uciÃ³n
Ġperson a
Ġa um
ĠA g
Ġal um
I L
S in
Ġtar d
res pon
Ġdic e
par a
u la
f a
Ġp uer
Ġactu alidad
Ġmin u
H a
Ġg obierno
Ġn ombre
p ic
g ue
ue go
Ġm os
Ġac ep
l or
tu ro
Ġsoci ales
Ġpon er
Ġv eces
is tra
Ġparti r
uy e
ĠNa cional
ic h
Ġd iv
Ã³ s
Ġpro hib
Ġco lec
Ġa le
Ġg aran
Ġc ir
Ġcol abor
Ġdirec tor
ien e
ĠC iudad
di al
Ġf ran
aj es
ten d
M A
Ġ3 0
Ġdes cu
il lo
l v
Ġal can
Ġm Ãºs
Ġase gur
Ã¡ f
Ġcin co
Ġde m
ĠS Ã¡nchez
Ġcan dida
ic e
Ġj us
ĠÃºlti mos
Ġind epend
Ġproble ma
Ġe jer
ta ciones
Ġnuev os
Ġproble mas
ĠprÃ³xim o
Ġnuev as
Ġpues to
i tas
Ġac ab
ĠA m
Ġesta ba
Ġf or
Ġlib er
Des d
Desd e
Ġg ol
R O
Ġincl uso
Ġembar go
Ġdeb er
r Ã¡n
C omo
Ġdere cho
re d
ĠIn s
Ġp untos
Ġactiv idades
ten cia
r am
l io
u Ã±a
Ġelectr Ã³n
Ġo cas
Ġse x
Ġcon tac
Ġe t
Ġsegun da
ĠM in
Ġm us
Ġse lec
Ġpr Ã¡c
Ġde r
Ġexper iencia
g el
ĠUn iversidad
Ġni Ã±os
Ġter min
L A
I D
Ġins titu
n as
tu al
Ġnos otros
t h
i te
ci er
min istr
ĠCon se
ĠE N
Ġca us
Ġex tra
dos e
pul ar
C om
Ġ il
aliz aciÃ³n
i p
iv o
Ġob ra
r or
p ciÃ³n
b e
Ġn unca
iz o
Ġ1 1
od os
Ġpal ab
Ġa Ãºn
Ġj orn
Ġbu ena
Ġprov in
r on
Ġl ado
v es
Ġan im
ech a
Ġpas o
Ġab s
ic ul
pues tos
Ġpr omo
Ġe d
Ġal cal
b lo
Ġna cional
Ġm Ã©
Ġ on
Ġactiv idad
Ġre com
ĠP er
ir ma
- -
ci endo
Ġten emos
Ġv an
z os
ter min
Ġsegun do
Ġb log
Ġl ÃŃn
aj o
Ġs iendo
Ġpr ue
Ġdic ho
Ġre alidad
p ti
Ġmayor ÃŃa
I A
g les
Ġdef in
Ġma Ã±ana
Ġca tal
Ġestu di
Ġof er
Ġl i
ĠpaÃŃs es
m ento
Ġcon j
Ġeuro pe
Ġelec ciones
per aciÃ³n
ed ro
ĠEuro pe
v ÃŃa
duc ciÃ³n
Ġcen tr
ĠF ern
Ġca pital
Ġlo gr
R e
if icaciÃ³n
Ġfu turo
Ġa gr
Ġvi ol
Ġf il
Ġsenti do
ÃŃcu los
Ġh ombre
iz a
Ġb en
Ġcor respon
Ġsal ud
ici dad
Ġrealiz ar
r era
Ġencontr ar
Ġal l
ĠI s
Ġcon ven
Ġmed ios
Ġhay a
r ar
ab ilidad
Ġfuer on
Ġ2 5
Ġnav eg
ir Ã¡
ĠaÃ± ad
if ic
en as
in d
S eg
Ġna tural
b ra
Ġfamil ia
Ġac er
j ar
Ġ1 3
Ġm ens
Ġp in
ĠseÃ± al
t bol
Ġactu al
T O
Ġcondi ciones
ton ces
Ġde p
i k
Ġalgun as
Ġmos tr
ÃŃ c
Ġmi em
Ġpr iv
T o
c k
ĠmÃ¡ xim
es a
Ġcomun icaciÃ³n
r ado
Ġp ob
ul ar
Ġre cor
Ġf i
ĠT or
Ġac ceso
Ġv arios
Ġre laciÃ³n
Ġpre m
Ġj un
Ġquier e
Ġlar go
Ġob ten
ĠLe y
Ġsec re
al e
Ġtard e
in aciÃ³n
Ġr u
Ġop in
Ġen tidad
Ġprogr am
Ġapo yo
Ġcon ver
Ġet c
tÃ³ r
Ġlib ro
Ġpel ÃŃcu
isten cia
f o
Ġn orm
end er
Ġno v
Ġser ie
Ġentr ada
ĠÃºlti ma
E L
Ġel eg
i tal
Ġs os
Ġa van
ed or
Ġmo v
en da
Ã¡n d
vis iÃ³n
Ġjue go
ul io
o p
Ġman o
Ġart ÃŃculo
g er
Ġha br
ĠE S
Ġcons ul
re z
Ġm ul
Ġ /
le x
Ġres to
Ġpre cio
Ġparti ci
Ġparti dos
Ġf Ã¡
b as
im en
Ġin te
Ġd ici
Ġm or
dal uc
s i
Ġcu er
Ġ 0
cur so
Ġo bras
ic ÃŃa
ta gon
ier nes
c ter
Ġclar o
ic amente
Ġe r
oci aciÃ³n
Ġcon te
re g
Ġcomentar ios
O M
Ġdeci d
Ġusu arios
ĠE L
Ġdirec ciÃ³n
Ġf on
Ġ1 4
Ã į
ar ÃŃa
Ġres erv
omb res
Ġde por
Ġdin ero
3 0
Ġv eci
Ġdecl ar
ti ene
l er
Ã³ p
ĠespaÃ±ol a
qu es
Ġsigu iente
ti z
Ġcal le
Ġencuen tra
Ġim pl
Ġre pro
Ġes ti
Ã¡ p
Ġab ier
ig n
ien da
. -
Ġ Q
u g
ĠlÃŃ der
Ġca p
Ġin icia
Ġg en
ĠB a
Ġsi tio
Ġtempor ada
Ġpued es
Ġo port
Ġespa cio
Ġc ri
Ã© is
ĠP odemos
Cu ando
Ġedi ciÃ³n
Ġima gen
Ġde ba
Seg Ãºn
Ġma teri
Ġpodr ÃŃa
Ġemp ez
Ġben ef
ad ie
ed er
Ġ1 6
er on
edad es
... ]
ĠMar ÃŃa
aliz ar
o f
ig os
an as
Ġrela cion
Ġc la
Ġl ec
ĠP u
Ġsig ue
ien t
Ġde termin
Ġ2 4
ĠL os
Ġs ac
Ġo cur
Ġno che
br os
Ġincl u
Ġinvesti gaciÃ³n
ti cia
Ã ¼
Ġalgun a
Ġcam paÃ±a
ch ar
Ġcon se
ĠpÃºbl ica
tr u
Ġpro tagon
truc ciÃ³n
v illa
Ġprim ero
ĠpÃ¡g ina
Ġes cu
b al
Es tÃ¡
Ġnin gÃºn
Ġpre par
in ar
Ġmedi ante
Ġid enti
ven es
Ġan terior
Ġres pecto
Ġs or
Ġen erg
Ġ1 7
ĠR a
ti na
Ġcor reo
ĠP r
Ġestud io
il i
Ġa tra
Ġprop io
Ġsab er
Ġofre ce
O L
Ġac om
Ã³ vil
Ġpas ar
il ar
1 9
tec ciÃ³n
er ra
Ġdej ar
iz ar
Ġg estiÃ³n
A h
Ġmed idas
il las
ti a
Ġen fer
g n
Ġpres id
ĠP o
Ġre al
Ġprofesion ales
ĠCom unidad
ÃŃtu lo
am b
ĠP la
ĠM o
bl es
ion al
Ġr ies
ÃŃd eo
ton io
ĠA c
x to
Ġf e
tar Ã¡
aj a
tor ial
Ġparti cular
Ġan unci
qu is
Ġesc rib
ab r
Ġti tu
e te
Ġb lan
Ġcas os
Ġas es
Ġresul tados
Ġfa cil
Ġsig lo
Ġsu r
T I
Ġrecon oci
Ġv iernes
Ġve h
Ġminu tos
un es
Ġpod emos
Ġa por
os a
Ġen car
Ġrec ord
ra g
Ġmod elo
ĠA u
Ġpa tr
Ġnin gun
Ġdis tr
ĠLu is
Ġev itar
min istra
v al
uer ra
Ġes tr
Ġcr isis
ĠmÃºs ica
Ġap rend
Ġpubl ic
Ġ Ã©s
Ġex ig
c end
ad io
Ãĵ N
ww w
Ã³ venes
o ven
Ġre l
Ġpa pel
ĠC al
H ay
iz quier
Ġpos i
Ġte ma
t adas
end e
ĠP or
i Ã©n
Ġind ustr
P ue
daluc ÃŃa
ĠP edro
r ÃŃ
Ġg al
U N
ab lo
if ica
Ġprohib ida
ĠP re
Ġf o
Ġo cu
as e
Ġde mo
im on
ĠAg encia
ĠD es
gen es
Ġcu ar
Ġr om
Ġim p
ven ciÃ³n
Ġs Ã¡
Ġper d
en se
Ġmo do
ĠE mp
Ġv as
Ġpre cios
Ġperio d
Ġd ivers
Ġd ado
Ġpr ensa
is terio
Qu Ã©
Ġen tonces
Ġdisfru tar
ĠC l
f orma
Ġcons titu
Ġmar cha
Ġl an
Ġpermi te
Ġs esiÃ³n
Ġma ter
Ġb al
i x
ĠR eg
a p
Ġh izo
tr od
e os
Ġex cl
r ido
ti Ã³
Ġcu anto
Ġobl ig
Ġnues tras
Ġper fec
ctu bre
an cia
uev a
l Ã©
Ġel las
i ado
Ġten ido
Ġter cer
ĠL as
Ã ĥ
Ġ izquier
Ġten ÃŃa
Ġin cre
duci r
Ġcab o
cu lo
Ġay er
ĠR o
Ġde tal
aj oy
Ġresul tado
em or
P ro
ĠG al
Ġdes tac
ĠNav arra
E C
pues tas
Ġes tamos
Ġmed ia
Ġmay o
Ġrecib ir
h t
vo ca
Ġcon cre
Ġ[ ...]
ador as
ĠCatal uÃ±a
il a
Ġjun io
Ġpres entar
ci ales
Ġl l
Ġh ub
ies ta
Ġal im
Ġjorn ada
Ġpla zo
d ica
ĠG o
ta vo
is cal
Ġcapa cidad
i ra
Ġj Ã³venes
Ġimpor tantes
Ġe dad
Ġc oci
Ġcer ca
ĠÃºn ico
r io
Ġprincip ales
Ġde ten
Ġcol or
Ġbas e
Ġay uda
Ġpres u
Ġes tra
ĠPres s
Ġaten ciÃ³n
Ġpue blo
m ientos
Ġproyec tos
Ġse is
Ġ tes
Ġprincip al
ĠespaÃ±ol es
Ġcur so
Ġa ud
Ġdomin go
Ġes os
on os
Ġcara cter
Ġv ig
ÃŃ tica
ministr aciÃ³n
Ġen vi
i ano
Ġrepres en
er ia
Ġcorrespon d
Ġun ivers
u ales
Ġcu en
Ġf ac
ĠS erv
cion ar
Ġinter nacional
ĠC ul
Ġs ens
Ġe ven
ĠAn dalucÃŃa
Ġal gÃºn
Ġllev ar
e v
Ġdes ta
Ġejer ci
âĢ Ķ
Ġprop ia
ĠJ unta
Ġllev a
Ġr Ã¡p
en tal
Ġdici embre
tu ri
ĠRe y
Ġan un
Ġprev io
Ġim pres
pti embre
ĠF a
Ġad el
Ġn adie
ĠÃ© x
Ġj oven
tor a
Ġtien es
Ġconsegu ir
Es to
E D
i le
Ġlib re
Ġin cor
Y o
ĠJ o
Ġten go
ĠCar los
Ġsu fr
or ÃŃa
in al
Ġ5 0
Ġneces ario
ĠelectrÃ³n ico
Ġv ari
es tiv
Ġdis posiciÃ³n
tor al
Ġres ta
Ġac ced
no v
on as
ĠcompaÃ± ÃŃa
ĠCon greso
Ãº a
ec en
Ġsig n
Ġh os
Ġdemo c
Ġd o
Ġdi jo
ĠVal encia
ar e
tor no
ĠAn tonio
c to
l ine
Ġpl ante
ma il
T ras
Ġse ptiembre
Ġhis tÃ³r
uev es
ch es
Ġen can
Ġgru pos
Ġal ter
ĠGar cÃŃa
ĠS a
Ġcier to
ĠP e
Ġv arias
ĠP al
Ġha cen
t Ã©
1 0
Ġtend rÃ¡
vi embre
Ġemp leo
Ġcre o
L e
Ġo ctubre
Ġcam po
d ico
Ġpue da
Ġl uego
er ic
Ġal ta
ti no
Ġvis to
Ġacom paÃ±
ĠsÃ¡ bado
j ero
Ã¡nd ez
ĠUn idos
u mo
ĠEs tados
ĠDi rec
Ġcons enti
c rib
Ġpres enta
T odos
Ġprofesion al
i tan
Y a
ÃŃs tica
Ġres pe
Ġinf orma
is la
Ġl unes
ch as
Ġvol ver
Ġloc alidad
tor ios
Ġinter Ã©s
ĠfÃ¡ cil
Ġalcal d
da p
Ġj ur
Ġa do
En tre
j es
Ġfund am
Ġconten ido
Ġed if
Ġver ano
Ġpes ar
k e
Ġemp le
Ġre des
t ÃŃa
ig uel
ĠtÃ©cn ico
Ġv ir
Ġb r
Ġp ud
ard ia
U R
Ġcl ientes
T e
ÃŃc ti
cion ado
ĠI gles
ĠMar tÃŃn
ĠC ol
f il
Ġm ir
Ġid ea
Ġa ta
Ġgus ta
Ġj ulio
Ġciudad anos
Ã ī
Ġpres ente
Ġapo y
P A
Ġconj unto
ĠJ av
Ġtr i
t ales
Ġ1 00
Ġv ic
lam ento
ĠC ON
Ġmar ca
Ġtrabaj adores
Ġhabl ar
ĠSan ta
Ġenfer m
Ġam or
Ġof ici
Ġofre cer
CI ON
Ġ +
or o
Ġre cl
ĠSoci al
Ġincor por
Ġpas a
Ġ2 1
Ġ201 8
Ġn eg
Ġconsenti miento
Ġque da
id eo
tin g
ĠlÃŃn ea
Ġliber tad
a u
_ _
m bi
Ġpod rÃ¡
ĠT o
ĠT er
Ġparticip aciÃ³n
Ġm ÃŃn
Ah ora
Ġse man
ob er
Ġencuen tro
Ġest re
ĠB o
Ġexpres amente
tar ia
ÃŃs ticas
ĠÂ ¡
A r
f e
Ġprim eros
em a
Ġ201 7
m on
Ġpos ibilidad
ord in
m entos
itar io
Ġper man
g l
Ġm uestra
Ġorgan izaciÃ³n
Ġcan tidad
il idades
Ġel em
R ef
Ġ ib
un al
ĠI N
Ġprovin cia
ol o
ĠCen tro
Ġpro ces
Ġquien es
Ġusu ario
Ġdes car
Ġv ÃŃcti
Ġac to
Ġter ri
Ġa dap
Ġacu s
I O
du ca
Ġid e
Ġmuer te
ir se
Ġo lv
Ġcon ce
el os
Ġm Ã³vil
Ġinte gr
Ġmed ida
ĠB an
Ġcuer po
M Ã¡s
Ġpalab ras
ĠM or
Ġproduc to
Ġmiem bros
ur al
Ġd oc
ĠD ÃŃa
ĠCas tilla
Ġmar zo
Ġtu vo
om as
ĠT ur
id ar
Ġac og
Ġt Ã©r
Ġres puesta
Ġp ic
e ja
Ġlo cal
ra c
ÃŃ amos
A M
Ġto m
ĠÃ¡ mbi
ar o
ĠMin isterio
Ġabr il
Ġser ÃŃa
ĠP lan
ĠpolÃŃ ticos
Ġpla ta
Ġno viembre
Ġdif ÃŃ
Ġapl icaciÃ³n
Ġcon cl
Ġtoda vÃŃa
Ġk il
Ġsigu ientes
Ġpartici par
ĠSe villa
ti on
gr Ã¡f
Ġel im
Ġel abor
ient ÃŃf
Ġlu z
ĠpolÃŃ tico
ĠM er
Ġes f
ĠR ajoy
Ġj ueves
Ġtr adi
Ġrespons able
Ġcen tros
br ero
Ġres id
Ġcom ien
ĠConse jo
z Ã³
p rend
Ġdi pu
Ġau ton
ru po
Ġf el
Ġv ista
Ġcar rera
Â» .
tiv idad
Ġmejor ar
Ġm ÃŃ
' .
ĠAn d
Ġc ad
Ġl en
Ġmanten er
Ġalum nos
k a
ram ien
Ġcontac to
ĠpelÃŃcu la
Ġser Ã¡n
Ġen fr
f ica
s u
H oy
Ġcolabor aciÃ³n
Ġentr en
Ġl ista
Ã³ d
Ġcab eza
aliz ado
Â» ,
Ġdeci siÃ³n
Ġf echa
ec re
Ġex isten
gu ien
Ġcons erv
on z
Ġde man
Ġries go
Ġdes tin
Ġp oc
Ġpres encia
Ġ ub
ĠC ris
Ġrecur sos
Ġcar go
Ġa segu
Ġmen or
Ġs ir
Ãº tbol
ed a
ĠC ivil
Ġha ciendo
Ġcam ino
ĠM us
Ġmay ores
tal la
Ġgra tis
Ġcos a
ar lo
v ista
tor ias
R es
ĠÃ©x ito
form aciÃ³n
Ġal to
Ġalcald e
al o
Ġh om
Ġaquel los
ra b
tar on
v ech
Ã¡c ter
Ġcre ar
ĠC u
Ġa tr
Ġim pul
Ġcl ub
Ġd om
und aciÃ³n
N os
Ġ201 6
col es
en os
Ġd uda
ru z
Ġ2 2
e la
Ġc ine
Ġningun a
Ġof icial
j us
o co
b ro
Ġcomun idad
Ġse an
E x
Ġcar Ã¡cter
di Ã³
Ġb ol
Ġesp era
Ġv ersiÃ³n
Ġpr on
Ġen ero
Ġ19 9
ĠA le
ib lio
Ġpo ten
Ġsol u
Ġsegu ro
ig ue
le z
ĠT rib
ĠpolÃŃ ticas
Ġen v
Ġpob laciÃ³n
ci Ã³
Ġdig ital
Ġme tros
Ġinter na
tiv amente
Ġgra tu
istr ibuciÃ³n
Ġam igos
cis co
Ã¡l isis
Ġcom b
Ġexpres o
ĠH er
u t
tur ales
c ados
Ġpues ta
teri ores
Ġneces idad
imon io
p an
ens o
trod u
ĠR od
Ġ4 0
Ġcul tura
ien das
ci ma
Ġh ombres
Ġincl uy
Ġtrabaj ar
v ia
ĠP ablo
Ġen se
ĠM iguel
Ġmad re
Ġex tre
estiv al
Ġad ecu
Ġmuch a
irm ado
ech o
C O
Ġpro por
ti endo
Ġcor r
Ġp is
Ġpre ocu
Ġar te
Ġinter ior
Con s
ĠIns titu
ĠM u
A unque
ĠIn d
Ġvis ita
Ġest Ã©
Ġte mas
b ier
c am
Â «
Ã© m
2 00
Ã¡n do
Ġar tis
Ġher ramien
Ã³n ica
Ġv iene
Ġde mos
ĠÃºn ica
Ġg r
Ġasegu ra
ue lo
Ġj ud
if usiÃ³n
Ġac on
Ġdeb en
Ġca teg
il los
Ġa gu
Ġpre vis
ter ÃŃa
ĠPol icÃŃa
Ã©r coles
i ro
bo ok
Ġim Ã¡
Ġpa ci
te ca
ĠInter net
Ġab and
Por tal
Ġsal ida
ten der
ĠCom un
uer to
Ġhi jos
ĠMan uel
Ġdise Ã±o
Ġd ob
im ientos
Ġofer ta
Ġespecial mente
p r
os o
Ġbus c
Ġred istribuciÃ³n
ĠEs paÃ±ol
Ġcompe ti
ac ciÃ³n
ĠM ur
es e
Ġviol encia
Ġpro puesta
tavo z
Ġpued an
r ÃŃa
tar se
E M
ien cias
Ġcompr om
Ġmar tes
ĠEurope a
Ġsen cil
ĠimÃ¡ genes
tar ÃŃa
Ġa ire
I T
Ġrecu er
ĠtÃ©r min
CI ÃĵN
iv os
Ġpro du
mi te
Ġp ier
Ġes truc
Ġn um
Ġmod er
Ġv amos
5 0
it ada
Ġf ÃŃs
gos to
Ġus ted
Ġveci nos
l y
ĠG onz
Ġ Qu
w e
ol ver
Ġred ifusiÃ³n
Ġtr ad
ente mente
iv id
ier ra
Ġc iento
m ad
ur as
id ores
Ġ2 8
b ilidad
ed ores
Ġle er
C A
ĠÃ¡ rea
l ad
Ġes ca
ĠeconÃ³m ica
i tado
Ġg uerra
ic al
M u
Ġd Ã©
Ġlabor al
Ġdem Ã¡s
Ġgaran ti
Ġcre aciÃ³n
Ġlle ga
ĠU N
Ġah ÃŃ
Ġregistr ado
ie do
Ġprue ba
on e
v ar
ĠT witter
Ġdes con
Ġcons ecu
Ġdirec to
Ġvol un
ita t
Ġp en
Ġamb os
Ġdeba te
Ġ \
ĠDE L
ĠInter nacional
aliz a
Ġes as
v in
M a
Ġal guien
Ġdere cha
Ġmanif es
Ġrecu per
Ġrecom end
Ġagr ad
par tam
Ġpel ig
Ġman os
ĠE ducaciÃ³n
s iones
To do
ĠdifÃŃ cil
â Ĥ
Ġcon cier
Ġv end
âĤ ¬
Ã¡ tico
Ġcambi ar
i anza
ita ciÃ³n
C H
Ġen torno
br ia
P ar
tic amente
ĠE j
Ġcon voca
Ġpodr Ã¡n
Ġexpl ica
ĠU r
Ġsu pone
Ġco leg
Ġcon tar
ĠS eg
Ġopin iÃ³n
ĠF undaciÃ³n
Ġcons um
Ġapro b
Ġt ÃŃtulo
im ismo
ta ba
Ġinform e
Ġmi Ã©rcoles
Ġdes e
Ġdi ez
Ġesc en
Ġe duca
Ġe ran
Ġapro vech
Ġdefin i
Ġd ud
ĠCiudad anos
Ġequi pos
M ar
Ġe mo
Ġsu ced
Ġbas tante
Ġinicia tiva
Ã¡m ara
Ġmater ia
Ġbuen o
Ã© l
ĠL o
ĠP Ãºbl
Ġo posiciÃ³n
ĠH a
la ga
itar ia
ĠDi pu
C ar
Ġmis mos
il es
Ġesto y
Ġfo tos
Ġ2 6
Ġpad res
O D
Ġgran d
Ġv ÃŃa
ĠLe Ã³n
Ġpre cis
ÃŃ do
ÃŃs tico
p ir
Ġa z
Ġop era
Ġdemos tr
Ġexcl us
Ġconte mp
ĠH o
Ġ2 3
h ttp
ra cia
Ġprov oc
iz ado
Ġter c
r ig
Ġac ciÃ³n
Ġl id
eci do
Ġcon cep
esti on
Ġe ducaciÃ³n
Ġizquier da
ĠN e
Ġrepro ducciÃ³n
ĠÃ© po
Ġdef ensa
Ġestud ios
Ġseman as
Ã©c tr
Ġcor rec
Ġsim ple
graf ÃŃa
Ã³p ez
Ġb eb
ta bria
ĠR es
Ġc ivil
Ġf abr
Ġs Ã©
Ã¡n dose
P re
Ġimpor tancia
Ġpermi tir
ĠpÃºbl icos
Ã³m e
Ġfuer za
lar es
Ġlib ros
ti da
on so
d em
Ġco che
Ġho tel
D is
Ġdis posi
Ġb el
lo go
ce book
Ġre cha
i que
ĠMun dial
ĠJ a
ĠFran cisco
am ientos
to do
Ġv ideo
Ġabs olu
Ġse d
ra cias
Ġc ientÃŃf
Ġmo tivo
Ġgan ar
Ġsab e
gue z
Ġc if
Ġpo pular
Ġind ivid
âĢ ¢
ve la
Ġsal ir
Ġz onas
i an
Ġte xto
Ġju gar
Ġap ues
g ada
T en
Ġproduc ciÃ³n
Ġpon e
l ic
Ã©r ica
ĠAs ociaciÃ³n
ĠB en
f es
Ġcomentar io
ĠM e
ĠJ es
Ġpre tend
ĠL OS
w s
Ġter ror
Ġto mar
Ġanti gu
Ġrel ig
Ġn orma
ĠmÃ¡xim o
Ġesf uer
Ġen la
Ġmunicip al
ĠG rupo
j al
cri pciÃ³n
cion a
V A
g re
end as
Ġsu fici
Ġp ul
ic ante
Ã¡ laga
Ġacced er
Ġc ic
Ġtecn ologÃŃa
n gel
og le
Ġoport unidad
ĠB il
Ġsuper ior
Ġr en
Ġpad re
Ġdeb ido
Ġex iste
Ġpor tavoz
Ġb Ã¡s
Ġpres entaciÃ³n
Ġobs erv
Ġro d
Ġden unci
Ġde dic
Ġop ciÃ³n
un cia
Ġen cima
tam ientos
Ġcons trucciÃ³n
Ġprincip io
ĠÃ¡mbi to
S on
Ġinter pre
pon er
ic an
Ġefec tos
in es
Ġorig en
u do
Ġp ide
Ġs omos
titu d
tia go
es te
Ġutiliz ar
Ġa gosto
Ġrecon o
ĠÃºlti mas
Ġvia je
Ġs oy
Ġim pa
Ġper ten
Ġconsid era
Ġrealiz ado
Ġfe brero
Ġin nov
Ġneces idades
Ġmom entos
C E
Ġde ja
ĠL Ã³pez
m er
el as
Ġcomp ra
Ġde mas
Ġbus ca
h er
Ġbus car
al d
Ġfuer te
ĠJav ier
Ġb lo
1 2
C as
Ġv in
Ġin gres
Ġd an
Ġad ministra
D urante
ĠCas a
Ġcre cimiento
Ġnego cio
ic ada
Ġ201 0
Ã© di
Ġpla za
if icar
Ġper der
an ÃŃa
ĠO l
Ġon line
Ġcon duc
Ġtra tamiento
Ġr eno
Ġinstal aciones
titu ciÃ³n
Ġinm edia
Ġelec toral
mp oco
en cial
Ġhacer lo
Ġhi jo
ĠS ol
Ġreun iÃ³n
Ġnoti cia
Ã³ l
Ġdise Ã±
ri Ã³
ĠFern Ã¡ndez
Ġb on
Ġecon omÃŃa
Ġesti lo
Ã¡ lez
Ã ĳ
Ġcamb ios
a pa
ara go
Ġbaj a
ad amente
Ġsi ete
Ġc ob
Ġfun ciones
Ġpa gar
ĠeconÃ³m ico
Ġlu cha
Ġno ta
Ġam ena
Ġpro tecciÃ³n
ĠP as
ĠCom isiÃ³n
re mos
Ġidenti f
Ġneces ita
Ġv ÃŃdeo
ru mp
Ġ >
Ġof rec
tr on
Ġense Ã±
Ġej ecu
Ġcele bra
Ġsu puesto
Ġestra teg
ar te
us k
ĠS E
Ġ201 1
Ġprogram as
S an
Ã©n ero
Ġobten er
P u
Ġcons umo
ca pa
i el
Ġdis co
Ġpro b
U S
Ġvuel ta
Ġper m
Ġrespons abilidad
Ġ201 9
Ġinvesti g
Ġp il
Ġta mpoco
Ġap un
Ġhab ÃŃan
Ġtrabaj os
Ġ201 5
Ġte lÃ©
Ġac ciones
in s
Ġsos ten
S us
qui tec
Ġsign ifica
ĠUn iÃ³n
ĠtelÃ© f
Ġpro pi
Ġf em
Ġfamil ias
cid ente
Ġviv ienda
am pl
ĠD er
j ud
Ġmateri al
Ġcl iente
ez as
ĠF er
p s
ĠH is
Ġcom Ãºn
ĠV ic
Ġper s
ĠPre m
z an
ti dos
Ġalter na
an til
Ġa ver
ĠV er
Ġpeque Ã±o
dal u
AR A
Ġcr is
Ġh as
Ġcoci na
Ġestre l
ay a
Ġf ra
Ġan Ã¡lisis
Ġescri to
ĠC Ã¡
p ol
Ġrefer encia
Ġcons tru
orm e
lam entar
Ġtr an
quil er
ĠR u
Ġall ÃŃ
Ġdesa par
Ġtr am
Ġn orte
Ġacu d
cia ciones
Ġti erra
Ġe mail
Ġcentr al
te les
tar ios
ĠSu per
ter as
Ġejerci cio
Ġ x
T R
Ġfun ciÃ³n
er Ã¡
Ġsor prend
ier e
al u
k o
ic Ã³
Ġdistin tos
D i
Ġjug adores
v ers
ĠE con
n er
Ġf Ãºtbol
Ġfu entes
Ġel Ã©ctr
ĠTrib unal
Ġcaus a
que da
Ġd io
Ġprem io
it ad
Ġ2 7
i ales
ĠL ib
Ġmin istro
D E
Ġpro teg
ĠC ab
Q U
ĠÃ©po ca
Ġloc ales
. ,
Ġde v
Ġreco g
Ġenerg ÃŃa
Ġs uel
alidad es
Ġcla ve
on da
Ġconver tir
ĠGonz Ã¡lez
I M
Ġmun dial
Ġal ma
ĠUn ivers
des a
en tro
Ġentidad es
Ġsu m
Ġconoci miento
Ġp id
i j
ĠCul tura
men es
Ġocas iones
ur idad
ĠV il
Ġcele b
Ġcre a
!! !
Ġd ura
ĠC U
p ia
G racias
id or
Ġamb iente
um en
I B
jer os
ic k
ĠÃģ ngel
arago za
al la
Ġdesarrol lar
ĠCan tabria
ĠF eder
Ġdescu br
Ġra z
ĠPar tido
Ġgrand e
L E
s as
Ġten ga
Ġfal le
Ġcr ÃŃ
Ġmon ta
re as
Ġdistin tas
Ġex posiciÃ³n
Ġg lo
ĠJ us
aliz ada
Ġm itad
IC A
Ġhech os
Ġinv ersiÃ³n
a g
Ġcomprom iso
ĠB er
ca ciones
Ġqu in
Ġa vis
Ġviv ir
ĠR ed
Ġf ir
re cu
Ġ Ã³r
gl Ã©s
Ġen s
av id
N ues
ies tas
Ġd ia
Ġdecl ara
Ġentre ga
ĠFran cia
tan a
Ġpos iciÃ³n
ĠR am
c Ã©s
cu los
Ġconv oc
ĠAs turi
Ġnego ci
Ġactu aciÃ³n
Ġclas e
Ġclas es
1 1
ĠQ UE
Ġnum eros
Ġsiste mas
Ġg ri
R ec
Ġpresen tado
emor ia
I EN
Ġcul tural
ĠP rim
Ġcon cen
Ġar ch
Ġdi ario
Ġdesarrol l
Ġvic toria
igu ra
ĠC os
enti s
Ġl ig
Ġquier en
Ġincl uye
Ġcontr ario
ĠM Ã©
p aciÃ³n
Ġsed e
Â Ń
Ġra zÃ³n
ĠL oc
Ġhabr Ã¡
Ġm ol
ier te
ĠA ud
Ġfon do
v ieron
ier an
el la
Ġpi el
Ġveh ÃŃculos
Â ©
Ġ201 2
Ġin icio
tan cias
Ġc ora
ĠMur cia
Ġp ien
ic ados
ul as
Ġtras lad
Ġselec ciÃ³n
Ġreg iÃ³n
Ġcu mp
Ġp un
ĠD is
ĠSan tiago
Ã© rez
cri p
Ġin teg
Ġj ef
Ġmens aje
Ġcu yo
Ġpa go
Ġd Ã©c
Ġsa tis
Ġma tr
p era
Ġdep end
ie go
Ġfin ales
Ġcre e
Ġe ta
ĠSeg uridad
Ġo cho
ĠM ay
L O
ob ern
ad al
Ġespec ÃŃf
ios o
ĠGu ardia
Ġocas iÃ³n
Ġreg res
Ġpro duci
Ġcom pl
Des puÃ©s
qu Ã©
ĠInstitu to
Ġter r
Ġdeb es
As imismo
Ġen tender
Ġvis i
ĠA t
Ġreg ul
Ġcomer ciales
v esti
o x
qu ir
Ã³d igo
Ġpar tes
ĠW eb
Ġpubl icado
Ġtiem pos
Ã¡ tica
e tas
Ġc ita
Ġmej ora
Ġmunicip io
Ġall Ã¡
ri que
ĠM Ã¡laga
ĠD ios
Ġval ores
Ġtele visiÃ³n
Ã©n d
ran tes
Ġau tÃ³n
ĠA L
le v
Ġelem entos
Ġlle gado
Ġh ici
or k
is a
m entar
g enti
tr al
it ales
d an
partam ento
Ġcandida to
Ġciudad es
Ġima g
Ġkil Ã³me
ĠFern ando
Ġjug ador
Ġag entes
er te
Ġvo tos
ĠAd ministraciÃ³n
ĠD a
es truc
rÃŃ guez
d el
Ġcontra to
Ġsol uciÃ³n
Ġmen ores
Ġah or
Ġcomple to
Ġpar eja
Ġem b
Ã ļ
Ã ł
Ġper fil
m ed
ĠAl ber
Ġmov imiento
Ġefec to
ĠJ or
Ġimpul s
c la
Ġllam ada
Ġart ÃŃculos
ampl ona
ĠprÃ¡c tica
Ġg o
Ġd im
Ġayud ar
Ġmil itar
v iv
ĠS er
Ġ6 0
ĠR iv
Ġsecre tario
ĠA b
Ġdom ici
? ?
Ġcer r
Ġcal les
lan o
Ġcar re
Ġlleg Ã³
Ġcu estiÃ³n
Ġedif icio
m b
Ġinstitu ciones
Ġcompr ar
Ġfr on
Ġinv ers
Ġb Ãºs
Ġju icio
Ġcon oc
p ero
Ġexpres a
ĠvÃŃcti mas
E MA
Ġobje tivos
Ġhab la
Ġpro puestas
ru pciÃ³n
h ab
Ġh on
D O
Ġesc ol
Ġencuen tran
A c
Ã³n d
Ġid eas
Ġestar Ã¡
P ues
Ġnatural eza
ĠPar lamento
Ġdob le
Ġpuer ta
Ġ is
id ado
Ġprofes or
di rec
is iones
Ġref orma
Ġco in
ÃŃ os
Ã© g
i ter
ĠM as
Ġsue lo
r ue
Ġvo to
Ġcomple ta
Ġban da
Ġfundam ental
Ġcompar tir
ar ial
Ġpl eno
ĠSoci edad
Ġform as
ti que
Ġreno v
Ġentr ar
Ġf amos
Ġrepres enta
tr es
Ġl uc
Pue des
ĠR E
P er
tel ig
Ġprimer as
Ġle van
ĠU E
1 5
Ġpoc os
ĠR io
Ġs il
Ġpens ar
Ġg Ã©nero
Ġal red
Ġauton Ã³m
Ġmar co
Ġdirec tamente
es o
Ġpregun ta
Ġ200 9
Ġcam pe
Ġre tir
Ġprue bas
Ġcol oc
Ġcomun icado
ĠRod rÃŃguez
ĠPo pular
V I
ĠP Ã©rez
Ġd ol
ĠH os
Ġmes a
Ġin trodu
Ġrecib ido
Ġcon curso
t Ã¡s
Ġrecl am
man ia
AD O
Ġp s
z ada
Ġb or
Ġel ev
Ġcons igu
ed ra
ĠEmp res
Ġib a
Ġconf lic
ĠE E
1 8
ĠJes Ãºs
Ġnaveg ador
s an
t ador
Ġre almente
Ġex cel
Ġquer emos
f f
Ġquier es
Ġcuen tas
ĠV i
A quÃŃ
Ġperio do
Ġ tre
Ġnoti f
ĠGo ogle
C Ã³mo
Ġinform ado
C a
p h
ti les
ĠX X
ĠFa cebook
orm ente
Ã³nd e
rag Ã³n
is mos
Ã© tica
Ġprop ie
cep ciÃ³n
Ġv ac
Ġf iscal
Ġex tran
ĠGal icia
Ġobl iga
Ġf ru
Ġcu ales
ĠAsturi as
Ġhttp s
Ġprev ia
Ġf iesta
c ciÃ³n
j u
Ġquier o
I G
Ġg es
ic es
Ġllam a
on t
Ġv oy
Ġtal ler
od as
Ġdistr ibuciÃ³n
Ġ ÃŃn
Ġexpl icado
Ġar gu
j ado
gen ier
Ġrela ciones
is tir
Ġus ar
ci dos
Ġde porte
Ã©g imen
Es tos
Qu ier
Ġni Ã±o
h or
Ġconoci do
itar ios
ien tal
Ġe res
Ġpeque Ã±os
ĠB r
com o
olÃ³g ico
ĠT ele
Ġ200 8
Ġmod elos
Ġl ic
Ġdifer encia
Ġpre fer
Ġa v
ci den
tel l
qu er
ĠEj ecu
Ġeven to
Ġe qu
T u
ĠN ueva
ĠB lan
an es
if icado
Ġve lo
Ġc ru
Ġde d
x ico
k i
Ġterc era
Ġperson ales
Ġf an
ĠZ aragoza
Ġref le
Ã¡f ico
A T
Ġmil es
Ġpos ib
Ġma g
i ados
ĠT he
w are
Ġsocial ista
fici al
iv al
ci to
Ġref lex
ĠPol ÃŃtica
Ġpuer tas
Ġver d
ar ca
ran s
m entaciÃ³n
ĠB uen
Ġjue z
Ġtrans porte
Ġas um
Ġr ue
M i
z ca
Ġ19 8
g al
ĠIgles ias
ĠtÃ©cn icos
Ġdirec ta
Ġdis pu
Ġd u
tr um
Ġpe or
Ġf irma
Ġanim ales
teri ormente
U U
C h
ĠI I
Ġf recu
Ġaum ento
Ġactu aciones
Ġlugar es
% ,
Ġaband on
Ġpeque Ã±a
Ġa ven
Ġsu erte
g ul
Ġr ad
c un
ÃŃ m
Ġcu ya
ri tÃ¡n
Ġb re
Ġpues tos
Ġin au
Ġac ces
Ġ tas
Ġre b
ba o
e ga
Ġbien es
Ġt Ãº
Ġdeb erÃŃa
un id
Ġcomer cial
Ġvo z
Ġ8 0
Ġlim pi
ĠC ruz
a f
Ġ q
Ġcl Ã¡s
con s
e e
ĠtelÃ©f ono
Ġprincip ios
im as
Ġm ec
Ġleg al
Ġgener ales
ĠV en
ĠP S
Ġdif icul
ĠEspaÃ±ol a
Ġp ie
ĠDe por
R ES
P res
Ġhum anos
Ġ ul
in ado
m enta
tal ia
Ġtotal mente
Ġpod ÃŃa
Ġcu an
Ġblan co
Ġh u
ĠkilÃ³me tros
Ġabier to
Ġplata forma
Ġqu iÃ©n
ÃŃ r
jer ÃŃa
ti g
Ġinici ado
Ġcon ec
Ġmar cas
y as
Ġemp i
an da
S al
Ġo per
Ġcora zÃ³n
Ġa jus
om br
EMA IL
ĠEs c
Ġtradi cional
Ġrepar aciÃ³n
d ar
Ġg obern
4 0
Ġcateg orÃŃa
Ġsu pon
ter ios
Ġtur ismo
tu ales
Ġpretend e
Ġs ob
Ġfin es
ĠP ala
Ġescen ario
es tre
ĠR os
le ta
cion ados
CI A
Ġsen tencia
on ia
Ġorig inal
do ba
Ġaf irma
r al
pec tos
Ġinteres es
Ġad quir
Ġconv ers
p ed
c ad
A C
Ġm ues
Ġentre vista
we et
Ġped ir
Ġdel eg
Ġcir cu
Ġv ino
Ġsus p
Ġcomp ro
Ġconvoca toria
Ġho gar
Ġ2 9
l id
Ġpubl icidad
Ġayud as
ĠbÃºs queda
Ġf ich
ĠMed io
Ġman tiene
Ġtercer os
Ġinten tar
Ġpod ido
ĠMun icip
t Ã©n
Ġemp rend
ĠGeneral itat
ĠE di
bi Ã³
ĠMartÃŃn ez
Ġobje to
Ġvuel ve
am ble
Ġtitu lar
id encia
ĠEs ta
Ġac tos
A B
Ġp Ã©r
Ġar quitec
Ġestado unid
ĠGran ada
Ġpue do
ĠSal ud
Ġdemoc racia
Ġh uel
ti en
Ġal quiler
tan der
o o
Ġf ase
ĠIn f
Ġso f
Ġadel ante
un o
Ġdemas iado
Ġto ma
Ġfon dos
ĠDipu taciÃ³n
Ġcom pa
Ġtri un
Ġim pos
ĠseÃ±al ado
ĠServ icio
r en
ĠN O
Ġhub iera
ĠÂ »
ens iÃ³n
mad ura
quier a
Ġcumpl ir
Ġhos pital
Ġva caciones
H ab
Ġterri torio
Ġder ro
ĠI b
Ġc Ã¡n
Ġfamil iar
Ġin cend
ra y
Ġped ido
olog ÃŃas
ĠPa tr
Ġado p
D eb
Ġpos t
Es o
arrol lo
ĠB el
Ġcompr ome
Ġo c
Ġform ul
T ER
Ġpas e
ĠP amplona
Ġinteres ante
ĠD avid
Ġap enas
ĠA na
d io
Ġpresu puesto
Ġprop ios
Ġcon ci
Ġb ritÃ¡n
Ġtr Ã¡fico
M an
Ġam igo
Ġasegur ado
Ġv esti
Ġres pec
Ġm ala
Ġestudi antes
Ġvis itar
Ġjur ÃŃd
Ġpos ibles
m ano
Ġcapa z
ĠAl m
Ġutil izaciÃ³n
ech os
Ġespa cios
Ġe fica
Ġf igura
or t
Ġqu iz
V E
am eric
Ġsac ar
iva cidad
Ġa gres
Ġpe lo
ĠD an
ĠJus ticia
Ġinter venciÃ³n
Ġas pectos
tu s
Ġconf ianza
Pu bl
gr am
Ġpar cial
Ġcompe ten
Ġdej ado
c Ã³n
ec n
Ġfuer zas
ĠprÃ³xim a
Ġinter net
Ġlleg ada
gen cias
1 6
Ġcon tras
ĠpÃºbl icas
Ġpalab ra
ad e
ĠMus eo
Ġn ie
tera tura
Ġtor no
ĠB al
Ġacer ca
Es tas
Ġindepend entis
ĠÂ ·
d icos
Ġreserv ados
Ġar ti
Ġa t
Ġleg isla
Ġop ciones
u ta
Ġdomici lio
u tr
Ġcir cun
Ġo jos
Ġev alu
Ġr enta
ĠPla za
Ġesfuer zo
Ġsu f
ĠS ec
Ġpa is
U M
ĠEx tre
ĠV as
ĠpÃ¡g inas
Ġresul ta
Ġcu adr
Ġw ww
la z
Ġc m
ti ble
ice pres
Ġm ic
T OR
Ġesta ban
Ġsus titu
Ġde tec
c enso
Ġf iestas
C ada
Ġfinanci aciÃ³n
ri le
Ġj a
ti d
Ġcontinu aciÃ³n
Ġcar ta
on g
Ġfuncion amiento
Ġenferm edad
Ġv ie
Ġex ten
Ġsigu en
Ġo l
Ġcomun idades
Ġpes o
Ġceleb raciÃ³n
el i
Ġac ord
Ġdocu mento
Ġdes tino
Ġin glÃ©s
ti cias
Ġcaracter ÃŃsticas
ĠB ur
ĠR ec
ĠP l
i ares
Ġpar lamentar
Ġviv iendas
iblio teca
Ġrecuer da
R eci
Ġindustr ia
ĠA ragÃ³n
Ġse par
% .
Ġcatal Ã¡n
.... ....
Ġconver tido
Ġbar rio
Ġdeman da
am e
Ġinterna cionales
ĠJ un
Ġmanten imiento
Ġp ena
Ġma es
Ġpo pul
d iz
mÃ¡ tica
Ġvelo cidad
Ġam ar
Ġsatis f
Ġac aba
Ġan teriores
il o
or ca
Ġdel ante
Ġti pos
Ġ ido
Ġjue gos
Ġ *
du ra
Ġden uncia
Ġconcre to
ĠC OM
Ġmo da
Ġre pe
Ġexper tos
ð Ł
mi tir
Ġm iedo
m l
un da
Ġsal a
ra estruc
ec uciÃ³n
Ġi tal
ĠS em
ĠprÃ³xim os
ta ble
Ġsin dica
Ġm emoria
if e
Ġm ez
Ġ19 7
olÃ³g ica
ar ma
P E
Ġjus tif
Ġcur sos
Ġden omin
Ġdeclara ciones
ĠcompaÃ± eros
Ġper iÃ³
Ġestrateg ia
l l
ĠV I
Ġar ro
ĠE r
Ġne ga
Ġlan z
Ġin telig
ĠT e
Ġre ducir
ig les
am p
ÃŃs imo
Ġpan talla
ĠRio ja
Ġblo que
ar la
Ġre ce
od er
Ġa di
Ġr end
Ġpe ti
ar do
Ġexp lo
Ġtar je
Ġcon den
Ġcr Ã©di
P a
Ġmunicip ales
la ciones
tr iz
2 5
Ġsocial istas
Ġpla zas
r y
Ġmis mas
G T
uen cias
Ġab og
Ġreg ional
Al gun
Ġcos te
Ġobs tante
Ġtemp era
Por que
it Ã©
Ġplan ta
Ġtrabaj ando
is tros
ĠO N
it y
id amente
Ġapar ece
Ġllam ado
y os
Ġd on
Ã §
Ġre y
Ġcom e
Ġrespe to
Ġaz ul
Ġur b
Ġgol pe
Ġgan as
til lo
Ġprem ios
im e
ra f
ĠR om
Ġconsecu encia
t x
Ġ7 0
Ġf as
ab el
Ġapues ta
Ġtr ib
ĠTur ismo
Ġneg ro
Ã³r doba
Ġmar c
Ġconcen tr
T U
on te
in ales
Ġmateri ales
Ġe p
ĠL eg
g Ã¼
Ġautor izaciÃ³n
Ġfran ces
Ġcircun s
ĠT Ã©cn
V er
ĠEjecu tivo
Ġalcan zar
Ġjef e
Ġan dalu
Es paÃ±a
Ġdifer ente
B A
Ġdestac ado
ĠAl f
Ġveh ÃŃculo
S S
Ġpr om
Ġ201 3
Ġhum ano
C o
Ġofer tas
Ġpas ada
ÃŃ da
Ġcon cur
ci ente
Ġev oluciÃ³n
ĠH um
Ġespec tÃ¡
Ġcon ced
V ÃŃdeo
ĠtÃ©rmin os
Ġpregun tas
ter os
un ya
Ġas isten
d rÃ¡
Ġh arÃ¡
ĠCl ub
able mente
Ġqued ado
Ġeta pa
Ġampl ia
Ġrev ista
Ġeleg ir
Ġf om
ĠTor re
Ġap re
Ġhabi tual
ue gos
Ġpr isiÃ³n
ĠV ir
Ġcuar to
ti go
Ġf er
ĠDÃŃa z
y e
Ġ201 4
I ER
Ġju z
ĠC er
Ġal er
ci mientos
Ġpro tes
Ġconcier to
ib er
1 7
ĠPu ig
Ġescrib ir
ĠA z
Ġtra tar
Ġdeber Ã¡
ona to
Ġnaveg ando
Ġa per
Ġha c
Ġcom por
ĠBil bao
Ġdes can
ĠA N
tien en
Ġpropi edad
Ġdispon ible
ĠT ecn
Ġdic ha
F ue
esti ones
Ġins trum
Ġre to
enci ana
Ġconsegu ido
m Ã¡n
Ġex terior
Ġlogr ar
Ġle jos
Ġperson ajes
Ġparticip antes
ĠRe ino
Ġcer tif
ent ales
eb as
p Ãºbl
1 3
ĠÃ©s te
Ġur g
Ġha ga
Ġesc uela
Ġ igles
vi Ã³
Ġexp ed
Ġactu almente
ĠAle mania
Ġalred edor
mi tes
ĠCom er
Ġa us
H asta
Ġbuen as
ific ados
p es
aliz ados
Ġf is
Ġpubl icaciÃ³n
capa cidad
ven ciones
e Ã±a
k ing
Ġherramien tas
Ġpr ior
Ġcon ex
Ġres oluciÃ³n
Ġhi po
Ġref orm
Ġigual dad
Ġcol ores
Ġpa c
Ġcualquier a
Ġv ers
Ġas oci
Ġ3 5
Ġbenef icios
Ġpresid enta
Ġabr ir
ten ciÃ³n
gr ama
Ġdesta ca
a t
Ġdef end
o j
Ġestruc tura
Ġdel ito
Ġm ur
Ġ9 0
Ġcons ol
ĠCons tituciÃ³n
Ġ &
ĠlÃŃn eas
Ġtam b
ĠhistÃ³r ico
Ġta ma
Ġnivel es
Ġcom ida
ĠO b
or ÃŃas
Ġder iv
ĠPa ÃŃs
Ġrespons ables
en ado
Ġmad rile
Ġun idad
g ados
ci r
i ana
Ġsufici ente
Ġdic en
ios a
Ġpes e
Ġcam pos
Ġr adio
, ...
p al
amble a
Ġte x
lan d
it ados
Ġd ibu
Ġ3 1
A y
Ġcolec tivo
Ġfoto graf
Ġrepresen tantes
Ġr ural
Ġlar ga
Ġ âĢĶ
ĠPro vin
Ġprevis to
Ġim par
Ġcon d
ĠE usk
L u
Ġdeclar aciÃ³n
ti ma
Ġpar que
am an
bl os
ĠF u
ĠExtre madura
Ġfacil itar
ĠDes arrollo
Ġdocu men
ĠtÃ©cn ica
Ġas ociaciÃ³n
Ġcom pon
ero p
en aje
ĠL iga
Ġs ome
Ġimpa cto
Ha ce
Ġo peraciÃ³n
Ġhay an
ob ili
Ġg estion
Ġgaranti zar
Ġi leg
Ġm s
Ġgas tos
ĠF iscal
Ġindepend encia
ar emos
ci na
Ġrecor rido
Ġer r
ĠPrem io
Ġposib ilidades
Ġmo tor
Ġinstal aciÃ³n
ti os
ĠVal le
Ġten iendo
l ada
Ġtien da
Ġd ando
Ġr Ã©gimen
Ġp rac
Ġa pos
EN T
Ġac e
ĠP en
ĠT ea
Ġcump le
Ġpron to
ĠmÃŃn imo
p ado
Ġacu er
Ġal tura
ĠD on
M ientras
U L
Ġd Ã³nde
Ġdificul tad
Ġar ran
Ġestu vo
Ġop tim
Ġdivers as
Ġp end
Ġdivers os
Ġl is
Ġest Ã¡s
m ana
ĠS i
Ġatr Ã¡s
Ġno vela
Ġpromo ciÃ³n
ay o
Ġsuper fici
el lo
ĠCan arias
Ġher man
J os
uev o
Ġentr adas
ien en
Ġhabr ÃŃa
Ġd Ã³
Ġac cidente
ĠB e
Ġpaci entes
dem ont
ÃŃtu los
Ġperd ido
ĠMan cha
Ġdetal les
ĠMÃ© xico
or g
cin d
Ġconf orm
C or
Ġbenef ici
Ġinten ciÃ³n
Ġre iv
ĠB ol
) ;
ec ÃŃa
Ġd orm
Ġb omb
Ġapl icaciones
tr Ã¡s
Ġb io
Ġinf antil
tu des
Ġnov edades
b il
Ġmus ical
Ġata que
S erv
Ġfin almente
ĠC O
Ġoport un
ĠEurope o
a a
rig ht
k er
__ __
Ġproced imiento
Ġc Ã³digo
Ġproces os
Ġjus ticia
ĠIgles ia
j an
ĠD el
y s
Ġre ac
Ġfamil iares
j era
Ġdi Ã¡
Ġalgun o
pu bl
Ġer ror
Ġf irm
eci Ã³
Ġten gan
B ar
Ġsolu ciones
e Ã±o
Ġempez ar
Ġan d
ĠV illa
ĠS ER
ue las
D I
Ġac re
ĠC AS
Ġdemoc rÃ¡
on do
pl es
ĠG a
Ġatra c
6 0
Ġincluy endo
qu ina
Ġfran cÃ©s
ĠServ icios
ĠtÃ©cn icas
Ġautor idades
Ġpol icÃŃa
Ġdes em
ĠmÃ¡xim a
Ġcomp rend
Ġconcep to
Ġte atro
pÃºbl ica
Ġacu m
Ġde uda
b amos
ĠInd ustr
Ġc Ã¡r
Ġnuev e
Ġe fici
Ġma gn
Ġrealiz a
i aciÃ³n
posi ciones
Ġcontin Ãºa
ĠAm b
Ġingres os
ke ting
Ġar m
Ġsenti r
el es
Ġsec ciÃ³n
ĠO n
ie lo
Ġrespon d
O r
1 4
Ġtend rÃ¡n
ti mos
Ġt on
Ġjud icial
Ġas o
ien es
ab ora
ĠP OR
Ġllev ado
g ran
Ġneces aria
ĠAu tÃ³n
Ġhi ja
Ġcorrespond iente
Ġmul ti
Ġartis ta
Ġsec tores
@ @
Ġ Ãº
ĠSan tander
l le
Ġdis curso
Ġad ministraciÃ³n
Ġnorm al
Ġconce jal
ht ml
Ġindepend iente
g na
an zas
Ġvis iÃ³n
al dad
ĠF estival
j or
Ġem pa
Ġbuen os
Ġin ver
Ġdud as
Ġdeci siones
h n
ĠpelÃŃcu las
d is
Ġb ur
Ġdef ender
Ġconv ir
Ġdecid ido
rÃ¡ f
Ġnorm as
t ÃŃ
ci enda
aj as
Ġen tra
Ġref ug
ĠT rans
Ġen ti
ĠT OD
en ar
lado lid
genti na
2 2
Ã¡n ica
Ġapro xim
ĠP ARA
ĠN orte
ĠseÃ± ala
Ġcom ba
Ġcons tante
Ġpodr ÃŃan
Ġfue go
Ġprof und
Pue d
ic ciÃ³n
Pued e
Ġacab ar
to l
In cl
ĠCatal unya
ĠE lec
Ġpu do
tis mo
Ġmiem bro
Ġg obier
D A
p p
Ġres ca
ĠD u
quil ib
v el
le do
Ġcoin cid
Ġpelig ros
Ġamb as
Ġperiod ista
Ġbusc ando
Ġre vis
Ã ¨
ĠM i
Ġanunci ado
log ÃŃa
c ab
iv e
S E
Ġglo bal
Ġaprend er
of ÃŃa
Ġpro gres
Ġr it
Ġex ac
Ġcontemp or
Ġcumpl imiento
ĠS ur
Ġl in
Ġgener aciÃ³n
ĠEs te
o u
Ġre duci
Ġ Ã¡n
r er
ĠUn ido
ĠIn vesti
Ġde c
ĠF or
Ġaquel las
ĠVal ladolid
ĠC E
Ġgen era
Ġrecu peraciÃ³n
der as
II I
id ez
Ġidenti dad
Ġgra ve
y right
t adores
us a
ĠT rab
ĠA C
Ġco ches
ul ta
Ġpla ya
tu m
ĠG re
Ġse g
ĠP RO
2 4
Ġdol or
t Ãºa
Ġsimple mente
Ġre quier
Ġrecuper ar
Ġtr en
Ġsex ual
Ġau tores
Ġedi torial
Ġn ombr
Â¡ Â¡
ĠT h
Ġdocu mentos
ta g
ĠF in
Ġaum entar
M adrid
U no
Ġenla ce
Ġreconoci miento
ĠAl cal
Ġreg al
Ġneces arios
b us
Ġsal v
Ġhabi taciones
ig rantes
Ġpodr Ã¡s
ĠB as
i ores
Ġac ad
u os
Ġa bre
ĠA gu
Ġorganiz aciones
Ġconse jero
Ġrelacion ados
Ġdis tancia
ĠÃ¡ r
o ta
ĠHos pital
Ġgu ard
ĠM ic
Ġlen gu
ĠM os
Ġcier re
Ġcad ena
Ġverd e
Ġconf er
Ġas istencia
Ġmar av
ĠespaÃ±ol as
Ġllev an
Ġk m
E mp
an e
ul l
Ġcas as
u a
Ġrecur so
ech as
A ctu
yec to
Ġor ien
ĠMunicip al
Ġinf er
ĠprÃ¡c ticas
AD OS
an ce
Ġsu je
ebas ti
Ġres olver
Ġre quis
Ġcor to
ci da
Ġadel an
Ġo tor
Ġin cid
Ġcor rupciÃ³n
ĠRiv era
Ġv icepres
Ġartis tas
que z
Ġdiv er
Ġgas tron
Ġform ar
ĠC Ã³rdoba
ier no
ec uencias
Ġlec tura
Ġsitu ado
Ġil ustr
ta cular
Ġdis par
ĠConse jerÃŃa
Ġc iencia
Ġs es
ue los
Ġqued an
ĠI talia
Ġex cep
Ġcomen z
b ur
Ġcon m
Ġman da
P P
Ġpue blos
Ġsal e
Ġli teratura
ĠRey es
) :
rib a
ĠCo pa
t ware
Ġesper ar
Ġfu tbol
ĠE m
ti mo
Ġsor pres
t z
tu vo
iv amente
Ġdej Ã³
Ġbas es
or ia
Ġhub o
Ġsol a
Ġalim entos
ĠDirec ciÃ³n
ĠI mp
-- --
Ġba Ã±o
ar nos
Ġgal le
Ġplan es
in ter
Ġdefini tiva
us ia
Ġmo vil
Ġr ÃŃo
Ġide al
Ġg rado
Ġf res
Ġnorma tiva
Ġfem en
pre mo
Ġmens ajes
Ġaum en
n i
Ġcre ado
ol ina
i tamos
Ġhom enaje
Ġeven tos
B uen
Ġmunicip ios
Ġhum an
ĠO s
Ġur ban
Ġescu char
ĠM ad
Ġdispon e
ĠAl icante
ac k
ĠS in
ĠPro fes
em ia
. "
Ġgu ar
Ġgas to
v as
E T
Ġpi ezas
Ġreci ente
Ġsu ma
Ġvia jes
Ġanti gua
Ġestadounid ense
le t
Ġinf raestruc
iv as
ĠcÃ¡r cel
O b
Ġsab emos
Ġre ca
Ġan al
ĠL ena
S obre
G u
Ġprop ias
Ã³g ica
Ġcomen zÃ³
ir Ã¡n
Ġcons ecuencias
Ġbo ca
qu ÃŃa
ĠG as
Ã¡ ticos
ĠNav idad
ĠseÃ± or
Ġen orme
ĠT rump
Ġconsul ta
Ġapl ic
Ġaf ron
ĠT a
In s
Ġtama Ã±o
Ġb ici
ĠT r
ĠÃģ lv
Ġcor por
Ġcif ra
Ġpa z
Ġjus to
Ġanun cios
ĠTea tro
Ġrecib e
ĠdÃ³ lares
Ġcam p
ĠR adio
m or
D os
ĠH ern
ĠS ebasti
ĠBan co
Ġantigu o
Ġsitu aciones
Ġor o
Ġquer ido
Ġ200 7
ici ales
pi ra
ti das
eli pe
Ġdef ien
V al
ĠCh ina
Ġp obre
H e
ig na
J u
Ġde trÃ¡s
d ÃŃa
Ġre m
ĠRa fa
Ġprecis amente
Ġad mi
Ġcu estiones
Ġcarre tera
Ġmad era
Ġigles ia
Ġas unto
s al
Ġanun cio
Ġaquel la
Ġesc al
Ġrepres entaciÃ³n
Ġpopul ares
Ġespeci ales
!! !!
Ġaf irm
Ġlid er
Quier es
ĠL ond
Ġ isla
Ġhis torias
Ġviv o
ID AD
Ġf estival
ga ciones
Ġcri tic
Ġextra ordin
ter s
Ġj ard
Ġtr o
Ġherramien ta
P od
Ġimpos ible
ĠS ala
R C
Ġrealiz aciÃ³n
Ġo cul
ÃŃ p
Ġmo tivos
Ġen tend
Ġf ol
ĠY ork
leg io
Ġid i
Ġcic lo
Ġdeb emos
Ġpa g
Ġincre mento
Ġbar r
ĠMar iano
Ġsi quiera
Ġresta ur
Ġrecord ar
ĠCÃ¡ diz
F in
Ġpres iÃ³n
ĠEcon omÃŃa
Ġex istencia
ĠS ecre
Ġau tÃ©n
til las
ĠCar men
Ġraz ones
ĠT ra
Ġcom isiÃ³n
iz ada
n idad
Ġlen gua
Ġb ra
Ġab ord
Ġeurope o
g ica
Ġsolici tud
Ġcomp ues
ĠPar ÃŃs
Ġes tan
Ġeurope os
Ġve in
S ÃŃ
ces iÃ³n
ĠmÃ© dico
u lo
Ġsex o
Ġmod alidad
Ġesc as
ĠIn formaciÃ³n
ÃŃd eos
Ġresta urante
Ġar tes
Ġps ic
lu encia
ĠLoc al
Ġvo tar
H ola
Ġtecn ologÃŃas
Ã¡ is
Ġes co
Ġb ara
ĠFeder aciÃ³n
Ġcolec ciÃ³n
o peraciÃ³n
Ġr os
Ġcan al
Ġr as
Ġv ul
IC O
fer encia
a to
ue bles
Ġre ma
2 1
av era
Ġ za
Ġenfr en
ĠVas co
Ġapar tado
ig ur
ĠL AS
Ġabier ta
Ġreg istro
ĠA p
Ġven tas
Ġcompe tencia
ĠPor tu
G A
Ġju ven
D el
Ġconv iv
Ġaud io
Ġprodu ce
Ġviv e
ĠÂ ©
Ġrev istas
le za
tis ta
Ġd ur
Ġnego cios
ĠrÃ¡p ido
p in
Ġf ras
Ġespec tacular
i Ã±o
ĠR ub
Ġprotagon ista
Ġforma to
ĠEsc uela
uel va
ivers ario
us to
ib uy
ĠSu premo
I V
Ġpubl icar
ĠaÃ±ad ido
Ġmer cados
s en
Ã©m ica
- ,
ĠM al
Ġeurope a
Ġas i
icul tura
ÃŃs ticos
Ġre da
Ġvolun tad
Ġofrec en
Ġconf irm
Ġim puestos
b erg
ĠÃ¡ reas
r Ã¡s
Ġpas os
Ġcelebr arÃ¡
Ġindustr ial
ĠT weet
ĠAl ba
Ġtran quil
p en
Ġtele f
5 00
Ġcon tam
Ġaper tura
in i
I F
Ġim pu
Ġad jud
Ġal oj
Ġf en
Ġfu ente
Ã³r m
u ena
cri to
Ġad v
Ġa erop
Ġv ues
ĠZ apa
Ġcan ciones
Ġpatr imonio
ci pl
Ġmostr ar
Ġescri ta
M P
Ġdistr ibu
Ġl lu
Ġcal or
Ġconflic to
Ġcos ta
Ġcomer ci
ĠPar que
Ġaf i
ĠÃ©s ta
u f
ĠX V
Ġreco ge
Ġc Ã¡mara
Ġcontinu ar
Ġes tim
ul tos
ĠPu bl
Ġac tor
k s
i tor
ĠPuig demont
Ġentren ador
Ġcer c
Ġde cor
Ġexpl icar
Ġas pecto
Ġdef ens
Ġcoleg io
Ġ Ì
G O
Ġgra b
T odas
b la
ec a
Ġreiv ind
erv a
Ġpas ando
Ġgratu ita
iste ma
Ġc el
Ġminu to
AD A
Ã© tico
ir i
Ġciudad anÃŃa
z co
Ġpr os
ĠF orm
Ġru ta
Ġcen ten
ĠS h
Ġvisi tantes
Ġsub ray
Ġplan eta
Ġinvesti dura
Ġdic h
Ã³m ez
Ġutiliz a
ĠJor ge
ĠAl onso
ĠR ES
Ġ %
Es tamos
Ġb and
Ġorganiz ado
Ġh Ã¡
Ġgan ado
Ġp uso
Ġases or
an g
Ġdis cu
G ran
ĠM Ã¡s
' s
Ġ Ã³
amb io
ĠRam Ã³n
Ã©nd um
ĠOr gan
Ġcomer cio
Ġjorn adas
Ġp ond
Ġsue le
ĠAud iencia
ĠG uerra
Ã³s ito
Ġplan tilla
Ġsil en
un do
Ġco ordin
P os
Ġro pa
B us
ĠC ur
Ġhon or
Ġimpl an
Ġencan ta
ĠDer echo
2 3
Ġind ica
Ġpre f
ĠHa cienda
9 9
Ġescu ch
Ġind icado
qu ia
Ġrit mo
Ġcar ga
Ġ5 00
Ġla v
ĠI r
Ġinnov aciÃ³n
Ġinten s
Ġdes ac
Ġcuen tan
aman ca
I R
Ġpar o
Ġencontr ado
C reo
Que da
ĠP A
ĠS il
ĠL O
Ġdispon ibles
Ġcu bier
Ġin direc
Ġha cÃŃa
Ġvin cul
Ġconoci mientos
Ġcomien za
Ġcu ad
Ġemple ados
Ġapl icar
Ġj am
ĠrÃ¡p ida
S A
tique tas
Ġperson aje
Ġdipu tados
ĠLond res
Ġpriv ado
Ġd igo
ĠMu jer
I P
U P
Ġdeten ido
F u
Ġpelig ro
Ġna turales
Ġestable cer
ci ar
ici na
Ġsal vo
uev e
Ġsim ilar
Ġopin iones
Ġcan tante
Ġf l
Ġna cionales
Ġreserv a
ĠT V
ĠC Ã¡mara
Ġv aya
Ġpres entes
ĠS O
http s
Ġconstru ir
C an
Ġ3 00
ĠAlber to
ĠHo tel
ig ital
Ġpa cto
Ġtr im
ĠB or
Ġprofes ores
is os
Ġsuperfici e
Ġca ÃŃda
am ento
ĠP uerto
Ġpeti ciÃ³n
t y
Ġpas Ã³
Ġr ig
Ġen f
ab e
Ġorganiz a
Ġcontra tos
Ġhici eron
Ġind ic
ten a
Ġd uro
7 0
m Ã¡s
C am
Ġformul ario
Ġqued ar
Ġlimpi eza
ĠdiÃ¡ logo
ĠcÃ¡n cer
Ġelim inar
ĠPala cio
Ġs orte
Ġr um
Ġempres arial
ĠtÃ©rmin o
ĠpÃ©r dida
ra el
ĠvÃŃcti ma
Ġar reg
Ġsoci os
ar r
Ġsolici tar
s s
Ġhabl ando
Ġtu v
Ġg ana
Ġpr ome
Ġh id
Ãį A
ĠcompaÃ± ÃŃas
em as
C re
in aria
Ġestable cido
ener ife
te cas
ĠEmp leo
Ġopera ciones
ĠHis toria
2 6
ĠS o
Ġconv ierte
Ġv ender
2 8
r ir
Ã³g ico
Ġacre di
Ġexpres iÃ³n
Ġvis itas
Ġhabi tantes
Nues tro
Ġcris ti
Ġaso ciaciones
ĠJ ul
Ġagu as
Ãºs ica
Ġest Ã©n
iz aje
Ġhum or
Ġtas a
Ã± ar
Ġcomen zar
tis tas
CION ES
Ġactu ales
Ġcl ara
Ġley es
Ġpr ivacidad
Ġb i
Ġrefer Ã©ndum
ĠM el
ti eron
grÃ¡f ica
ĠComun icaciÃ³n
c enta
Ġa un
Ġapro bado
Ġplan tas
Ġdisposi tivo
in do
Ġalma cen
Ġespeci e
Ġpublic ada
Ġar riba
Ġn ombres
O s
ud e
Ġedif icios
Ã© u
ĠespectÃ¡ culo
por ta
Ġacep ta
ĠVal enciana
Ġcan ciÃ³n
Ġcu idado
lec tual
eg as
Ġocur re
Ġdirig ido
Ġterr eno
Ġexper iencias
pe cial
ĠF elipe
ĠS us
ĠPro tecciÃ³n
Ġem erg
Ġsuper ar
T OS
Ġllev Ã³
Ġrue da
Ġten ÃŃan
l d
Ġde cre
ĠM en
Ã§ a
ĠOr den
in ario
Ġen ter
Ġhacer se
Ġperfec to
Ġconex iÃ³n
ĠL av
z z
Ġli ter
ĠEE UU
end ario
Ġgus tarÃŃa
R AN
Ġsu p
Ġil us
ĠAm Ã©rica
S omos
Ġse l
d r
Ġrecono ce
is tido
Ġalterna tiva
Ġescol ar
Ġtrabaj a
Ġcondi ciÃ³n
ven ir
m es
Ġv eo
s ar
Ġtan tos
ĠEs pa
P e
Ġenvi ar
un tamientos
Ġan o
Ġlec tores
ĠCan aria
Ġre lev
al ta
Ġparticular es
Ġdocu mentaciÃ³n
Ġdipu tado
Ġdes en
Ġab ra
hab il
Ġre tras
al iciÃ³n
ĠSuper ior
uc ciÃ³n
Ġqued Ã³
Ġd ro
u p
Ġcon tes
ĠSem ana
Ġmic ro
ĠG ab
Ġs ÃŃn
Ġpre ci
ĠFiscal ÃŃa
Ġhuel ga
s in
Di rec
ĠSebasti Ã¡n
Ġinvestig adores
Ġpermi ten
201 9
Ġconven io
Ġpartici pa
Ġpro pone
Ġoportun idades
Ġsue Ã±o
ĠAmb iente
Ġa j
Ġrecu erdo
ion ales
Ġv ÃŃdeos
Ġampl io
ĠEusk adi
ic ano
Ġvuel to
Ġre p
les c
Ġdis puesto
c rim
ĠH ol
Ġprac tic
Ġtrans par
Ġpl ena
ĠC uen
ĠG Ã³mez
Z A
ĠCam p
fr ica
M O
us os
ÃŃ ri
ĠD ef
Ġcu br
Ġres e
e jas
ĠProvin cial
Ġrecord ado
h am
tiz aciÃ³n
Ġinstitu ciÃ³n
c ra
Ġcons ta
Ġej ecuciÃ³n
mÃ¡ ticas
ĠS ierra
ĠComer cio
ĠI U
Ġleg is
Ġeleg ido
Ġdura ciÃ³n
Ġcar r
if icaciones
ĠMun do
Ġpers pec
Si empre
cion amiento
Ġar mas
Ġan iversario
Ġdeb ajo
Ġe quilib
Ġcono ce
Ġacuer dos
oy a
ĠÌ ģ
4 5
Ġdel an
olÃ³g icos
Ġni Ã±a
ĠRe pÃºblica
o tos
l ica
8 0
S olo
N i
ĠdÃ©c adas
qu en
Ġco ti
Ġqu erÃŃa
Ġcl im
Ġcul turales
P rim
Ġnotif icaciones
Ġpor centa
le tas
Ġrev el
Ġim per
g us
Ġproduci do
ĠE TA
* *
Ġcar gos
ter ia
Ġ âĤ¬
Ġl istas
Ġca u
Ġsan gre
Ġpropie tario
Ġimpres cind
ĠD o
ĠCos ta
Ġm Ãºlti
ĠB ale
Ã¡m ica
Ġ4 5
di cionado
te o
Ġap unta
H emos
Ġtr Ã¡
Ġperfec tamente
Ġref or
Ġv es
I X
al ia
Ġre ducciÃ³n
Ġcelebr ar
Ġprotagon istas
g ano
ĠPer son
R eg
ĠJ er
Ġescri tor
or e
k y
Ġa leg
Ġin cu
em pl
Ġsir ve
Ġsab en
or as
G U
ran o
Ġh ar
Ġpro ve
Ġimpor te
Ġm am
Ġcab al
Ġtrad iciÃ³n
ru p
gr ÃŃa
a te
Ġmanif ies
Ġex am
es os
Ġcandida tos
T RA
ez uela
ĠAd ministra
Ġace ite
Ġre quer
: '
ER O
Ġj untos
g amos
Jos Ã©
r ada
Ġcelebr ado
ÃŃs ima
Ġpresu puestos
tel lano
ĠS erg
Ġm enti
Ġelec tor
Ġcomple tamente
Ġin ven
cu en
ĠeconÃ³m icos
Ġsur g
Ġti endas
Ġpor tal
grÃ¡f ico
Ġpro ducir
i amente
h u
ĠV ox
... )
Ġte j
lÃ© tico
Ġd ue
Ġgus to
Ġdis min
Ġin g
gen da
ens es
Ġpeque Ã±as
ĠTo ledo
Ġpar ecer
Ġs ober
Ġconcier tos
Ġdel itos
Ġmostr ado
Ġep is
Ġlid era
tel la
Ġ3 2
ĠB us
es t
m m
to dos
AL ES
Ġcatal ana
Ġexcel ente
Ġdesarrol lado
Ġpres tig
ic ales
iz aciones
Ġmec an
ol v
Ġesta ciÃ³n
Ġesc ena
Ġest ad
Ġparti da
Ġestudi ar
ĠM il
Ġinici ar
Ġperiod istas
Ġes con
T iene
ĠT enerife
Ġlegisla tura
Ġmanif iesta
Ġ+ ]
Ġb ru
Ġda Ã±os
S Ã³lo
cas o
Ġded icado
ĠT ierra
vis o
Ġcl ima
ĠP i
gna cio
om ento
Ġconte xto
C iudad
gun da
ĠM ir
Ġtarje ta
ĠA R
Ġlle gan
Ġcontr ibu
as h
ĠU P
cul tad
Ġins tan
z go
Ġcri terios
Ġpro l
Ġdes per
Ġtra yec
Ġrequis itos
Ã©r cito
Se gu
Ġvol umen
Ġdirector a
Ġanim al
Ġ ic
Ġgol es
Ġcompeten cias
o od
ĠIs abel
Ġref iere
To da
ĠDi ario
Ġsegun dos
Ġb il
Ġabsolu ta
ĠPÃºbl ica
Ġpos terior
vi amente
Ġor gul
Ġtend encia
ĠcrÃ©di to
t n
Ġestrel las
ci b
ic en
Ġ ran
Ġestrel la
tan o
ri to
ĠG ra
ĠVic ente
ĠlÃŃder es
tar Ã¡n
Ġap ell
ĠprÃ¡c ticamente
Ġc itada
3 6
Ġtrans form
olu cion
Ġdesp laz
Ġex pul
Ġp iso
ĠdÃ©c ada
T M
Ġorden ador
Ġcompeti ciÃ³n
Serv icio
Ġfuncion a
Ġfel iz
c Ã³
Ġmar gen
ĠSe Ã±
ter na
Ġdes eo
am or
Ġsub ida
ven ida
n ar
Ġdescubr ir
ĠF e
ĠT om
Ġempi eza
Ġrecono cer
Ġcatal anes
ĠaÃ±ad ir
Ġocu p
Ġafec tados
f i
ecre to
Ġban cos
Ġfoto grafÃŃa
le y
Ġtele vis
Ġacum ul
Ġun idades
Ġsencil lo
" :
Ten emos
Ġcer can
us e
com un
Ġr ival
mÃ¡ tico
N a
d ia
Ġcomien zo
ĠO ficial
Ġme ta
Ġdar le
Ġpoc as
ĠfÃŃs ica
Ġenferm edades
Ġf echas
Ġrelacion adas
Ġprogram aciÃ³n
P odemos
Ġsi tios
Ġban co
ĠCas tell
Ġt ales
ĠM es
N V
ĠAs amblea
Ġdesta car
Ġe ch
An tes
t Ãº
Ġv Ã¡l
Ġinf l
Ġcor te
Ġreconoci do
ĠB re
ĠE d
c ales
ĠJ im
p la
Ġtaller es
and ro
Ġencontr amos
Ġcaus as
Ġdes emp
Ġhum ana
ĠInvesti gaciÃ³n
Ġan ual
Ġerr ores
Ġdocumen tal
ĠI II
Ġpermitir Ã¡
Ġt ÃŃtulos
Ġal co
Ġalcal desa
Ġdeber Ã¡n
Ġv oc
in t
t ÃŃas
Ġcontra taciÃ³n
a cion
ÃŃri tu
Ġsof tware
Ġro bo
Ġp ista
ĠIn terior
Ġpens iones
Ġam eric
Ġac titud
Ġman e
ĠG e
Ġries gos
t ones
Ġafec ta
Ġinau gur
M o
ĠprÃ³xim as
Ġdis capacidad
Ġpriv ada
C op
ĠTÃ©cn ico
Ġca er
, '
ras il
ĠCen tral
ĠJo hn
enci ales
Ġrend imiento
Ġelec ciÃ³n
Ġcer rar
ĠPres idente
Ġpro pon
Ġequi p
entar ios
Ġsens aciÃ³n
P as
Ġho teles
Ġinicia tivas
ĠhistÃ³r ica
Ġl ech
Ġsos p
Ġbel leza
3 5
ter al
Ġestable ce
Ġaf irmado
Ã©n do
av e
Ġperman ente
Ġado lesc
Ġlic encia
ĠG er
Ġcif ras
ĠD omin
Ġsindica tos
ĠM ac
ce te
Ġlu ch
Ġconce j
ide os
c lo
Ġdecid ir
Ġtor n
Ġefec tu
E se
Ãº menes
Ġventa jas
Ġp ec
ien ta
Ġcompro bar
Ġde cÃŃa
Ġf lu
Ġnumeros os
Ġab ajo
Ġexper im
Ġcapa ces
Ġac triz
dic e
ĠA P
T he
m u
Ġlabor ales
Ġgal ard
Ġ- -
h ol
Ġhac emos
du ce
r Ã³
Ġconoci da
ĠAc ad
ill er
Ġdisposi tivos
ĠSan to
ĠP os
ĠP an
Ġpuer to
ĠAr gentina
ÃŃ mp
ĠL uc
Ġprincip almente
ĠL og
ĠEn rique
Ġconvertir se
e an
V is
Ġsub ir
Ġfac tores
Mu chas
Ġconsul tar
S ab
F ran
ĠCor por
Ġsoci o
Ġfen Ã³m
cion alidad
Ġincend io
N O
ĠRu iz
Ġmov imientos
Ġinclu ido
to col
Ġev idente
Ġrespon der
ĠSan idad
Ġpres ent
ĠD iego
Ġpubl ica
? .
Ġni Ã±as
Ġinvers iones
Ã³m ico
ĠTOD OS
Ġn utr
Ġcl ic
Ġorgan ismo
pres iÃ³n
Ġcar ne
ĠF il
Ġpresen tÃ³
b os
Ġdiv id
og raf
ĠCul tural
ĠGu adal
ĠA ma
Ġad ver
ĠmÃ³vil es
Ġra ÃŃ
ĠA gr
Ġen ca
Ġinfer ior
Ġcandida tura
Ġvul ner
Ġdescan so
ĠR usia
Ġco ord
Ġtempor al
ĠR ib
Ġmuer tos
Ġtrim estre
Ġparticip ado
Ġpil oto
F E
Ġac os
i tud
ĠS on
Ġlogr ado
Ġsal Ã³n
Ġsorpres a
Ġacer car
Ġbre ve
es tas
Ġinstan tÃ¡n
Ġelem ento
Ġsegu idores
re al
Ġsuel en
Ã³lo go
il io
Ġher mos
Ġfotograf ÃŃas
AN T
Ġnegoci aciÃ³n
Ġg ar
Ġan alizar
Ġe mi
Ġreg ular
Ġej empl
ĠF eria
ad er
Ġcier ta
2 9
Ġestra tÃ©
ĠPortu gal
Ġcircuns tancias
ic adas
ĠC iencias
ios os
Ã©n ez
c ada
N av
ĠS am
Ġ19 6
I CI
uc le
Ġempres arios
Ġg ig
Ġbenef icio
Ġfac tura
Ġcu idad
ĠÃº til
Ġc ens
Ġneces arias
if er
Ġreci entemente
ĠR ober
J A
Ġcab e
Ġch ica
. [
Ġt he
Ġmod ern
ĠAr te
ĠEs tud
M ed
r ia
ĠJu ven
Ġap rue
ĠA D
ĠaÃ±ad e
le tÃŃn
Ġg ama
Ġexper imen
m isiÃ³n
Ġperiod ismo
ĠÃºn icamente
Ġinten to
igu raciÃ³n
il ares
Ġofici ales
2 7
Ġrequier e
ER A
Ġperm iso
Ġimp ed
ir mar
Ġmo tiv
Ġmues tran
ĠAt lÃ©tico
Ġmuer to
Ġepis od
Ġc aja
Ġaerop uerto
p ens
Ġesp ero
Ġg e
ĠH oy
Ġvig il
Ġactu ar
Ġma qu
Ġdetal le
Ġma ch
ĠP R
crib ir
ĠCom itÃ©
z on
Ġac lar
Ġsilen cio
Ġolv idar
O tra
ĠM AR
i jo
ĠSal amanca
Ġfran qu
Ġcolec tivos
us elas
Ġin icial
it Ã³
Ġproteg er
ĠA S
ĠD ecreto
Ġhor ario
Ġdes ea
gu ra
Ġbo tÃ³n
ada jo
all orca
Ġza pa
tra to
Ġcons igue
Ġpl Ã¡s
Ġro jo
ici n
ĠhÃ¡ bi
An te
O tro
ĠTrab ajo
Ġaten der
Ġases ina
adajo z
Ġpr Ã©s
Algun os
omb ra
Ġfem in
Ġpen al
Ġalcan ce
Ġpre ten
Ġneces itan
Ġdefien d
Ġgener ar
ĠCris tina
ĠSoci ales
Ã³rm ula
ĠS te
u ma
U C
Ġdefiend e
r Ã©s
Ġsec und
ĠÃ¡r bol
Ã± ez
Ġg rÃ¡f
Ġofici na
a qu
Ġasegur Ã³
ĠC D
ĠVir gen
Ġp ele
A P
ura ciÃ³n
Ġfil os
Ġexig e
Â ·
ĠCam po
Q uer
un g
Ġelabor aciÃ³n
Ġh el
itar ias
h an
cu la
I OS
ĠH ar
ĠCon f
on i
Ġf lo
Ġconsider ado
Ġdes censo
ĠP ara
Ġolv id
a tos
Ġ200 6
Ġex is
Ġacon te
Ġnumeros as
Ġale mÃ¡n
la v
Ġmil i
L le
Ġanun cia
Ġpoten cial
Ġconcentr aciÃ³n
Ġ3 6
Ġamena za
Ġposi tivo
Ġrealiz ada
ĠL or
Ġgobier nos
ĠB ern
Ġtar eas
Ġv io
ĠFran co
Ġman i
Ġeurope as
Ġdesac tiv
um e
Ġg ala
Ġher mano
Ġcr ÃŃtica
Ġm era
m s
on al
Ġcons truc
l i
Ju an
ĠT odos
ĠCo legio
ĠAutÃ³n oma
ĠI gnacio
Ġfuer tes
Ġemb ara
ĠVil lar
Ġan aliz
Ġdesa f
ro Ã±o
Ġco aliciÃ³n
Ġf eria
ĠP in
Ġa pe
Ġtermin ar
3 9
Ġre per
Ġacus ado
Ġen ga
olÃ³g icas
Ġvia jar
Ġg ira
Ġil usiÃ³n
Ġdificultad es
Ġcar tel
Ġa tre
ĠRafa el
Ġporcenta je
on ces
Ã©n dose
Ġ20 20
ĠAlm erÃŃa
Ġsosten ible
Ġesper anza
Ġconcl u
i i
Ġpo tencia
ion ar
c amiento
Ġdesp ed
Ġcos tes
Ġgaran tÃŃa
Ġvari edad
Ġreform as
Ġgu ÃŃa
ĠM Ãºsica
g ues
Ġtu vieron
ĠVal d
Ġform an
tra ciones
Ġexpl icÃ³
ĠCor uÃ±a
Ġdirig ida
ĠRe ina
Ġas turi
3 8
Ġch oc
Ġsu ces
Ġba talla
Ġocur rido
Ġex pec
Ġpron unci
ul os
Ġin genier
ele c
tar a
Ġconse jos
ĠVen ezuela
ad ero
Ġtrayec toria
Ġenfr entar
Ġpro bar
ĠDe partamento
idar idad
am entos
Ġdescon oci
z ando
Ġfor tal
Ġdeci diÃ³
Ġrese Ã±as
Ġcons iste
Ġter ra
Ġcompor tamiento
P al
Ġinv ierno
tr Ã³
tr uy
Ġesper ando
Ġval e
ĠcrÃŃ ticas
Ġg er
ar ez
is as
Ġar ras
end en
Ġdifer encias
Ġmov ilidad
ita ciones
Ġv eg
v iedo
ĠP ue
Ġun iversidad
Ġpon en
Ġv iento
Ġofrec emos
Ġmill Ã³n
Ġviv en
Ġrecl ama
Ġobje tos
Ġtriun fo
RE CH
Ġapoy ar
cer es
ĠD em
Ġform ado
Ġval enci
EN TE
Ġen em
tiv e
Ġpresen tan
Ġdif und
Ġv idas
N A
Ã³m ica
O O
Ġfor o
Ġub icaciÃ³n
Ġpro vis
rÃ¡n eo
Ġmon um
Ġinm obili
Ġgra v
id aciÃ³n
A m
Ġin con
Ġpre venciÃ³n
Ġpor tu
Ġtr ibu
Ġc Ã¡l
ĠlÃŃ mite
ĠP on
cen as
Ġpermi tido
Ġv os
f Ã©
ĠUn idas
ĠF uer
Ġas pir
Ġil um
Es tÃ¡s
ĠperiÃ³ dico
V O
Ġcas tellano
Ġreci biÃ³
Ġevalu aciÃ³n
C ol
Ġestable cimiento
Ġres tos
es per
ĠeconÃ³m icas
Ġaprend izaje
i ten
Ġespeci es
Ġlengu aje
ĠBar Ã§a
op era
Ġdepor tivo
Ġrefer ente
Ġvas co
Ġhab ido
Ġcic l
Ġo cio
form as
ĠmÃºlti ples
Ġt ÃŃp
Ġre Ãºn
Ġgra ves
Ġrel l
N uestra
Ġma te
Ġcl ÃŃn
Ġllam ar
Ġpre mi
di ario
Ġus ando
i ada
T al
ĠDE RECH
Ġcorrespond ientes
Ġcor re
Ġinteg raciÃ³n
Ġaprob aciÃ³n
ĠNa tural
Ã± ado
ĠR ÃŃo
Ġse cu
Ġc ien
ĠmÃ© dicos
Ġbal Ã³n
C las
Ġincluy en
em en
Ġab or
Ġsu ger
ĠnÃºm eros
Ġbici c
Ġn arra
Ġb os
Ġclas ificaciÃ³n
Ġtradi cionales
b um
crib e
Ġempez Ã³
w n
Ġv emos
AR IO
Ġv istas
Ġpens ando
Ġind is
an ta
Ġme tro
Ġlegis laciÃ³n
T er
uer ta
ĠD igital
Ġencontr aba
. )
Ġacep tas
Ġdej ando
Ġv iendo
Ġpriv i
Ã¡n ico
am ora
r ad
P SOE
m uy
ĠSal v
ĠPr incip
Ġcal endario
n al
ĠAr tes
ĠTor res
Ġd ul
Ġmag istr
in ta
el er
ĠEs p
gu en
g Ã³
Ġintegr al
ĠcompaÃ± ero
Ġquier a
vil a
Ġal tas
ter ra
Ġmer ece
Cop yright
ĠPal ma
Ġfin alidad
te ga
ĠL in
Ġlu jo
ĠV iv
Ġac tores
C ON
ĠPres u
ĠV igo
Ġcomun es
Ġpin tura
cion ada
Ġapar ecen
Ġc ed
ĠB u
Ġsim ilares
Ġpromo ver
Ġv ar
Ġcul pa
Ġsub venciones
Ġtempera tura
ĠÃ³r gano
ĠS U
Ġsencil la
Ġin gles
Ġtur istas
Ġd arÃ¡
ĠB rasil
In trodu
Ġes pos
Ġrecomend amos
Ġdes f
Ġre in
ĠES PA
Ġre ales
Ġimpl ica
ic ha
Ġmanifes taciÃ³n
Ġson ido
Ġpol i
Ġv ÃŃas
Ġmin istra
Ġcuar ta
ĠL E
ĠA ir
aj ara
ic ana
Ġam is
ĠA B
Ġofici nas
Nues tros
Ġestar Ã¡n
Ġin com
br ica
Ġmarav illos
Ã³s tico
ĠB os
tr ol
ĠBlan co
bi t
Ġtend rÃŃa
n av
io d
Ġconf iguraciÃ³n
Ġtar if
Ġay untamiento
Ġay untamientos
ÃŃo do
aj aj
para cion
Ġre pas
Ġrestaur antes
Ġsig los
Ġim puesto
me tros
Ġefica z
Reci be
iz ados
Ġtamb ien
Ġcambi ado
j Ã³n
c rÃŃ
Ġca y
od om
ĠCam pe
ĠS ub
ĠEn c
Ġherman os
Ġpar ed
ĠMay or
Ġventa ja
Ġa Ã©
Ġdomin io
Ġfundam entales
Esto y
g ico
V iv
ĠDer echos
Ġcontrol ar
Ġdes pa
Ġp ies
Ġher idos
ĠU su
nov aciÃ³n
Ġcontr ibuy
C al
ĠfÃŃs ico
C ur
Ġocu pa
Ġv ienen
Ġdif usiÃ³n
Ġ15 0
Ġm ente
Ġcond ena
H o
u almente
b ia
Ġf irmado
ci entes
Ġe col
Ġag re
Ġpro cl
Ġtrabaj an
Ġanunci Ã³
Ġos cu
ĠPro grama
Ġdeclar ado
Ġtar ea
ari amente
ĠP NV
Ġ4 00
ĠSan t
ĠR osa
ĠO fici
tam en
Ġconf irmado
Ġcla ves
Ġsol amente
T AS
Ġdis cipl
ĠMor eno
Ġcorrespond e
ĠR oc
Ġarch ivo
Ġcontras eÃ±a
um bre
Ġutiliz ando
Ġto ca
? ,
id er
Ġindirec tamente
cier to
ĠM allorca
ĠHern Ã¡ndez
p ra
Ġprev Ã©
Ġconduc tor
ing Ã¼
Ġrealiz an
Ġtur ÃŃstico
Ġpaci ente
lam en
Ġa is
Ġ7 5
h is
r Ã³n
ud as
9 0
In ter
Ġmen tal
Ġurb ano
Ġbienes tar
Ġgratu ito
ez ca
ĠCam ino
Ġdes pe
Ġn ar
ĠAlf onso
c ambio
ĠF lor
Ġital iano
E ra
ĠcientÃŃf icos
os os
Ġvig or
Ġinteres a
Ġalim entaciÃ³n
mar t
Ġsal ido
Ġll eno
indo ws
M uy
ion a
ĠSerg io
U D
ÃŃf ico
Ġpi edra
Ġabog ado
Ġad ministr
Ġrespons ab
Ġpis cina
ĠForm aciÃ³n
Ġmatr imonio
h i
Ġrealiz adas
Ġad quis
Ġpubl ici
Ġquiz Ã¡s
Ġoblig aciÃ³n
Ġseg uros
Ġinfraestruc turas
ĠL i
Ġacud ir
ĠA ustr
ĠD iv
us iones
Ġrepe tir
i torio
Ġadecu ado
Ġper ÃŃodo
Ġda Ã±o
Ġtr iste
u tas
ĠJ ulio
ĠS enado
Ġinstitu cional
es ÃŃa
id enta
Ġch icas
ĠC el
Ġbaj as
Ġb iblio
Ġsab es
Ġinclu ir
Ġmi ra
Ġmar keting
ion ado
Ġde partamento
ĠB ea
Ġrespond e
Ġecon om
g adas
Ġasisten tes
Ġcam is
Ġcon tiene
Ġelectr odom
QU IER
Ġaus encia
ĠP ER
on ÃŃa
ub il
ĠM c
ĠmÃ© todo
Ġd r
ĠSe gunda
I E
Ġacon se
omb ia
Ġconviv encia
Ġ â
Ġraz on
Ġag encia
Ġ ign
Ġsegu ido
Ġac tivos
p Ã³
Ġconci encia
Ġinm igrantes
Ġesp al
am es
Ġluc ra
Ġper ros
ub e
Ġmis iÃ³n
Ġres tr
em ente
Fin almente
ĠlÃŃ mites
as te
in ados
Ġdeleg ado
Ġas untos
Ġeduca tivo
ĠF oro
gan os
Ġ Que
ci les
Ġmo to
Ġir reg
u x
Ġpublic Ã³
ĠIndustr ia
O C
bier to
Ġaquel lo
ĠO ro
Ġleg ales
Ġmad ru
n ado
en z
ĠBur gos
ĠbritÃ¡n ico
ĠH or
Ġlanz amiento
ĠenseÃ± anza
Ġc ruz
ĠS ab
M on
Ġsegu imiento
Ġavan ces
Ġcar b
ris a
ari ales
ĠG estiÃ³n
Ġentre gar
Ġtex tos
Ġmonta Ã±a
por tes
Ġmir ada
p io
Ġma pa
ĠPÃºbl ico
Ġmoder na
ion s
j ada
er se
te la
ic ol
ĠacompaÃ± ado
ĠP ilar
Ġesp ÃŃritu
Ġins cripciÃ³n
Ġlech e
Ġexclus iva
Ġacad Ã©m
Ġrece ta
j andro
Ġcomp ras
r ente
men tado
Ġaten d
Ġpos teriormente
Ġti er
Ġtan tas
Ġc ielo
Ġmilitar es
3 7
b io
w a
Ġutiliz ado
Ġenv ÃŃo
Ġnav e
Ġejer cer
Ġcu esta
ĠPla ta
Ġapar iciÃ³n
ĠCons titu
Ġvol viÃ³
Ġciudad ano
ar t
l ia
Ġmo ciÃ³n
Ġc Ã¡
Ġimprescind ible
Ġll ena
av ier
Ġadministra ciones
ĠS ch
ER V
te gr
Ġch o
Ġsufr ir
Ġman d
ĠCris to
Ġderro ta
Ġfuncion arios
Ġr ique
ĠM edia
Ġres Ãºmenes
tor i
Ġsol id
Ġdoc tor
Ġdescu ento
Ġh ier
Ġre pi
Ġn aran
Ġdeten idos
Ġconf irma
Ġafi cionados
Ġgaran tiz
mar as
Ġreun iones
or ro
Ġas igna
ĠE X
iz an
ĠJ orn
l Ã³
Ġtrib unal
V amos
Es a
ĠC re
Ġdep ende
Ġdedic ada
ĠU S
ĠÃ¡ l
Ġpier d
Ġindivid ual
Ġex hib
Ġap la
di ciones
Ġaver ÃŃa
Ġampl iar
Ġpierd e
Ġconsum idores
Ġper jud
Ġata ques
Ġja pon
ĠMa g
Ġin jus
Ġsufr ido
Ġins pir
Ġquiz Ã¡
cu erdo
Ġhabi taciÃ³n
Ġar re
L AS
Ġnaveg aciÃ³n
Ġpun tu
Ġser ies
u alidad
ib il
Ġmus eo
aliz adas
ĠG ol
Ġpan or
R a
Ġpar ecen
Ġserv ir
Ġf lex
aliz aciones
ĠMon te
ap Ã³n
Ġv ay
Ġcomple jo
Ġc ientos
Ġsi tÃºa
Ġcampe Ã³n
k et
Ġre le
Ġcon tarÃ¡
ues ca
Ġser io
Ġcom arca
Ġdescar gar
tes is
ĠU R
ver n
Ġrecog ida
Ġres istencia
Ġpi eza
Ġdo ce
Ġfinanci era
ĠDa tos
ĠF omento
Ġmer can
Ġmanifies to
Ã¡ rez
ÃŃ na
ĠJa Ã©n
Ġtorn eo
Ġatr ibu
Ġsal iÃ³
Ġlu char
ĠX IX
Ġso porte
to logÃŃa
m ica
ĠrÃ¡p idamente
ta gram
ĠBr uselas
Ġ )
l ados
qu ie
C OM
Ġre tro
Ġal tos
Ġme ter
l in
r ero
ra gon
Ãº car
m edia
Ġinf luencia
ul aciÃ³n
Ġd ieron
Ġti n
Ġvig ente
Ġal ar
Ġtrad u
tr ado
b log
P ol
ĠCas tro
Ġdemostr ado
Ġper ro
Ġcompl icado
Ġfrances a
ĠC s
ĠA M
Ġgan ador
Ġc Ã³m
Ġinmedia to
Ġfom entar
Ġacab Ã³
Ġrepresen tante
ig raciÃ³n
Ã¡ z
Ġcontinu a
Ġvol v
Ġn erv
4 6
Ġpas eo
Ġf arma
Ġreci Ã©n
ĠV ie
Ġterror ismo
ĠelectrÃ³n ica
Qu iz
Ġha z
ĠM A
Ġre publ
Ġinte lectual
ON A
ĠI z
Ġes encial
ĠZapa tero
ec on
Ġac tiva
Ġrespec tivamente
h ora
Ġac tivo
Ġorig inales
Ġacep tar
Ġverdad ero
Ġcu Ã¡n
Ġband era
habil itaciÃ³n
ier o
gr ad
Ġvis u
Ġex tin
Bar celona
Ġpre d
% )
Ã³n ico
Ġreco ger
Ġdirig entes
ĠJor di
ĠB iblioteca
ĠI gu
ig as
Ġhu bi
ĠclÃ¡s ico
ĠDirec tor
am o
Ġes cul
Ġr in
cis mo
i tes
Ġrefug iados
U ES
ĠE RC
tin os
Ġexpl ic
Ġlib res
Cons ulta
Ġsu mar
Ġvos otros
Ġpas an
Ġinteres antes
s ula
Buen o
201 8
Ġdes n
Ġdej an
Ġcoleg ios
tr ans
Ġon ce
Ġbeb Ã©
Ġas istir
is torio
Ġ3 3
Ġgan Ã³
Ġ6 5
lam ent
Ġelector ales
ĠOrgan izaciÃ³n
ĠPal mas
Ġsab or
Ġimpor ta
Ġclim Ã¡tico
Ġfinanci ero
Ġmal os
ĠAu to
ter r
Ġarquitec tura
Ġhabl amos
ĠIn novaciÃ³n
Ġa mp
Ġfel ici
Ġconstitu cional
Ġcer rado
Ġaler ta
Ġalco hol
Ġexclus ivamente
Ġdem uestra
Ġsin g
Ġ- --
Ġindependentis tas
Ġarch ivos
am as
Ġimpuls ar
Ġprob ablemente
Ġconsider an
gun a
Ġres puestas
Ġahor ro
fici t
Ġ3 4
ĠR ob
ti bles
Ġesp iri
O tros
Ġf eder
e ar
p il
ĠVi toria
ion ante
tac to
Ġj e
B o
Ġexp los
uev os
Ġna ciÃ³
Ġperspec tiva
ĠS ir
P S
ĠMed iter
un as
ĠC ir
Ġbon ito
Ġav iÃ³n
.. ...
paÃ± as
b u
ec as
Ġesta bilidad
Ġapar ecer
ted ral
e y
Ġs iento
ĠH uelva
g ando
201 7
ciden tal
Ġen cab
b y
ĠE du
Ġmor al
Ġconvers aciÃ³n
Ġcontac tar
tif icaciÃ³n
ten te
Ġestu v
Ġtan ta
Ġad ultos
Ġfr ÃŃo
T anto
Ġbus can
Ġra p
Ġto car
Ġg ras
Ġc ober
Ġna cimiento
Ġme x
Ġfras e
Ġcuad ro
Ġpar ecÃŃa
Ġ2 000
Ġconserv aciÃ³n
Ġequ iv
Ġreg alo
ĠAr ch
Ġas is
0 5
Ġpol Ã©mica
eb ro
ĠI ra
x o
Ġ200 5
Ġcan cel
Ġvalor aciÃ³n
f in
er amente
Ġmedio amb
Ġafron tar
ĠCU AL
Ġsecre to
i ciones
ten ido
ĠW ar
Ã¡m ico
Ġapor tar
Ġpid en
Ġresid encia
I Z
ĠR oma
Ġmod ificar
Ġpre para
Ġcu estion
Ġblog s
Ġvo taciÃ³n
l la
ĠM esa
Ġl Ã¡
Ġpud iera
M E
Ġlogr Ã³
Ġpriv ados
Ġf lor
Ġsigu iendo
ĠV ol
ĠIn genier
Ġdis crim
tÃ¡ logo
Ġ4 8
0 9
Ġseguir Ã¡
Ġprovin cial
go via
Ġplante a
gr os
Ġaprovech ar
Ġpobre za
Ġreflex iÃ³n
ĠC e
Ġcu Ã¡l
Ġavis o
Ġsitu ada
Ġenti ende
Ġaven tura
ĠDan iel
pi raciÃ³n
ĠDERECH OS
Ġmar ido
ar me
Ġbas ado
Ġconse jo
Ġel ig
ic antes
OR A
Ġsociedad es
Ġpu ente
Ġmar car
Ġexplo taciÃ³n
Ġd or
ĠP ad
Ġcre en
Ġses iones
ĠDE S
f ra
Ġesper an
Ġor d
Ġpas aj
ĠÃģlv arez
Ġsin dic
i eg
ci das
S ol
ĠAnd rÃ©s
Ġrepar to
Ġpla cer
ĠmÃŃn ima
Ġlec tor
Ġqu itar
Ġsub s
Ġamb iental
Ġ =
Ġreca ud
uev as
ne y
ĠC erv
Ġcam a
ĠPrim era
ĠJ uegos
Ġtal ento
ĠJu z
Ġmod ificaciÃ³n
Ġar que
Ġrealiz Ã³
Ġc erv
Ġadquir ir
Ġponer se
Ġpla tos
Ġespecial istas
Ġdemostr ar
Ġincu mpl
Ġjam Ã¡s
Des cu
P la
Ġde jo
Ġresid uos
Ġley endo
Ġd il
Ġtempera turas
Ġme te
z ados
em po
ec o
AN A
3 4
ĠV o
Ġe char
Ġda to
Ġpens amiento
ĠEn erg
Ġlucra tivos
ĠH en
m bol
Ġp eg
Ġli qu
Ġcoti di
Ġconsider ar
Ġ3 7
Ġtrans formaciÃ³n
g Ã¡nica
N eces
Ġex ter
Ġasegur ar
ĠT i
la ck
ĠO c
Ġpa tro
Ġex ces
Ġconstitu y
Ġcon ta
Ġa go
Ġban car
Ġpo ca
Ġdepor tiva
P r
Ġrique za
ĠReg iÃ³n
S igue
jer on
Ġco operaciÃ³n
Ġcur ios
ĠO viedo
Ġmar cado
olu ciones
Ġsorte o
Ġch ar
it adas
Q UE
Ġso le
Ġadecu ada
ij Ã³n
Ġsol ar
Ġunivers idades
Ġcontin Ãº
Ġa genda
Ġandalu z
Ġningun o
Ġlo g
Ã³ cra
un ciÃ³n
la ve
ĠU na
olog ia
Ġro ck
ĠOr tega
Ġaproxim adamente
Ġmed ie
Ġacog e
Ġprovin cias
S oy
Ġblan ca
ĠCo ok
Ġconfer encia
Ġdesem pe
ĠCUAL QUIER
Ġcateg orÃŃas
ĠCAS O
Ġintelig encia
Ġdeber ÃŃan
Ġdesarrol la
po co
Ġextran jero
am bre
Ġavan ce
ci pe
te mp
Ġa val
in ada
Ã©c ord
ta tivas
I gu
Ġcon tado
ĠJim Ã©nez
Ġqu is
Ġexped iente
Ġser es
Ġag ru
Ġfac tor
Ġfis cales
Ã©s ticos
z can
ier ta
Ġfan tas
ĠCas ado
J D
Ġinten ta
ĠPar lament
ĠP AR
u re
Ġh ol
min istro
ĠD ele
Ġv inos
Ġr onda
Ġileg al
Ġnego ciaciones
z adas
ĠV enta
ĠLog roÃ±o
Ġpla to
Ġexisten tes
ĠBale ares
Ġenla ces
Ġcol abora
Ġte orÃŃa
Ġvicepres idente
Ġdes igu
Ġprepar ado
an ea
Ġprodu jo
ri el
Ġinter ac
uel ve
ĠD ol
Ġconsigu iÃ³
Ġrod e
Ġpresu pues
Al l
I mp
Ã¡ les
g la
Ġinform es
Ġn ucle
of t
ĠIn form
onces to
Ġpor tada
ir re
Ġvir tual
B RE
Ġp Ã¡r
Ġto que
Ġreb el
ĠB B
Ġcorrec tamente
Ġter ap
il lan
Ġcom is
ĠNe w
ĠdÃ© ficit
om bi
Ġcivil es
Ġmal o
Ġpar ecido
Ġllev arÃ¡
Ġfalle cido
Ġpa que
ĠCons ell
Ġrenov aciÃ³n
Ġalum no
ir ona
Ġestu p
gu i
Ġgestion ar
Ġren unci
Ġencar gado
or ld
Ġpod eros
Ġpien sa
tor iales
iv er
Ġmir ar
to p
ĠRES ERV
C U
B L
ĠD om
Ġsolici tudes
ĠBlan ca
ĠÃ¡l bum
Ġdes ign
f u
Ġdesta can
Ġincre ÃŃ
J O
Ġmadru gada
ID A
Ġesc ala
ĠMar ta
Ġcr im
Ġplata formas
Ġfamos o
CO O
ĠseÃ±al Ã³
', '
Ġespeci f
ĠPl eno
Ġmul titud
Ġre iter
Ã¡z quez
ĠfenÃ³m eno
Ġre cal
ĠÃ¡n imo
Ġins pec
Ġtram o
0 8
ĠA ran
Ġbr ill
Ġconsider amos
ĠDe porte
Ġa pa
Ġla menta
Ġcre er
ier en
l amos
ĠLoc ales
L uego
Ġf ues
ĠCor tes
Ġelabor ado
Ġmez cla
Ġre cre
Ġefici encia
H an
T rab
Ġgr ados
Ġpan tal
Ġdis cre
Ġg uer
Ġale grÃŃa
gu ardia
a z
ĠÃģ frica
gr ado
isten te
Ġcre cer
Ġinterpre taciÃ³n
ient ales
ĠCuen ca
ĠF amil
Ġten siÃ³n
Ġval le
it h
S er
Ġinclu idos
Ġco pi
Ġllu via
Ġperm ita
Ġgus te
A V
Ġpis os
or os
ĠJ apÃ³n
Ġcan ales
Ġcap ÃŃtulo
Ġconvers aciones
Ġha gan
Ġclar amente
Ġmas cul
Ġreda c
ĠBuen o
Actu almente
I ON
Ġmen udo
ĠPres idencia
ĠelÃ©ctr ica
g or
Ġveci no
ĠC i
Ġes tancia
Ġesca Ã±os
M I
Ġperfec ta
ĠAcad emia
ro id
Ġdelan tero
ĠB adajoz
es to
Ġsol idaridad
Ġve ter
Ġ âĢ¢
ĠNo ticias
ib ar
ĠRESERV ADOS
Ġpend ientes
Ġcris tal
tor as
ĠDef ensa
Ġper ju
ĠM U
Ġesta tal
Ġgu itar
Ġfir me
ĠM od
Ã¡ bamos
Ġpro tocol
B I
Ġpre ced
Ġins truc
A u
en za
Ġg eo
l ÃŃn
Ãį S
or ra
g ona
ĠM E
ci ta
Ġextran jeros
Ġdig itales
ier ten
0 1
Ġ Ã³p
ĠPatr imonio
Ġac eler
Ġd aba
ograf ÃŃa
Ġvideo j
Ġselec cion
Ġpreocu paciÃ³n
tor nos
Ġba terÃŃa
Ġdirig e
Ġconvir tiÃ³
Ġre mon
ha t
ĠCorpor aciÃ³n
Ġejemp los
Ġ3 8
Ġb ras
v os
e amente
Ġjur ado
man es
Ġpas iÃ³n
Ġs iente
tan as
ĠDepor tes
Ġv ideos
Ġencu esta
C s
a torios
ter ÃŃas
Ġvi tal
Ġqu ÃŃm
Ġre tos
Ġproced entes
Ġhabl ado
ĠCol ombia
Ġampl iaciÃ³n
P edro
cid entes
Ġalterna tivas
ĠC r
Ġpatro cin
Ġc uel
Ġr Ã©cord
EN CIA
Ġintrodu cir
Ġidentif icar
Ġpend iente
ĠGo vern
ĠGener ales
Ġmanifes tado
Ġab on
ĠW ord
Ġem isiones
Ġrealiz ando
un ales
f al
Ġcer ebro
d on
Ġutiliz an
Ġins er
v edra
ĠC aja
ĠW indows
Ġcompon entes
ĠEstud ios
Ġprepar aciÃ³n
v io
Ġ Ãĵ
Ġgaranti za
Ġdia gn
cios o
ĠAlber t
Ġcontac tos
Ġfrecu encia
ic ho
Mu chos
Ġconoci dos
to Ã±o
Ġjue ga
0 7
ĠsÃŃ mbol
amp ions
ĠR ural
Ġb l
e gr
Ġap as
Ġ200 4
Ġte m
v ie
Ġsuper iores
ĠY ou
Ġj ubil
Ġin quie
ĠAl c
Ġcu ento
Ġte la
Ġv uelo
Ġinteres ados
Ġirreg ular
Ġestr eno
ĠAr m
Ġrela to
or ios
Ġens ayo
Ġproced imientos
Ġtecn ico
Ġre visiÃ³n
am ar
tu almente
ĠbÃ¡s icos
@@ @@
S erÃ¡
Ġestable cimientos
Ġle ÃŃdo
p ue
Ġmas a
Ġrecor tes
Ġcircu ito
Ġproduc en
Ġas censo
Ġautor idad
Ġcorr iente
ĠAp ple
i res
19 9
ĠIs la
Ġbal ance
Ġplan o
Ġbol sa
Ġpro te
qu inas
Ġcerc ano
Ġespeci alizada
or cio
lo j
Ġempres ario
ort un
Ġextre ma
Ġtotal idad
Incl uye
0 6
Ġgen ial
Ġpol ic
Ġcubr ir
ĠD oc
den cias
Ġrom per
Ãº c
e j
Ġparticip an
ag s
ĠB log
or ge
P OR
Ġmed ic
Ġven ir
or ar
Ġcon cesiÃ³n
Ġesfuer zos
Ġf es
Ġprim avera
ĠD r
Ġterc ero
ĠBil du
Ġtrabaj ador
Ġespeci alizados
Ġdifer enci
Par ece
Ġmanda to
ens iones
am i
Ġafirm Ã³
Ġsex uales
Ġestr en
Ġlleg ue
Ġmez cl
Ġcam paÃ±as
Ġapar tam
Ġc ero
L OS
ĠC ad
Ġprepar ar
ĠCris ti
Ġelectr icidad
ĠI V
Ġocur r
ĠC S
Ã¡ ticas
Ġlocalidad es
Es pero
Ġocu par
Ġpropor cion
] ,
tar ias
ur ales
Ġidi oma
tim on
ud os
ĠPresu puestos
Qu iÃ©n
Ġaloj amiento
Ġexpres idente
A Ãºn
ĠcientÃŃf ico
Ġcontempor anea
Ġdecre to
Ġdici endo
Ġfel icidad
v istas
ĠSus ana
En tonces
Ġtitu lares
te des
Clas ificados
Ġd iversidad
por tar
ĠC iencia
s er
Ġposi ciones
Ġvein te
ced es
Ġcontempor Ã¡n
onte vedra
Ġmo ver
enda ciones
Ġtra to
con es
Ġle tras
ĠB ra
mÃ¡ ticos
ĠV a
Ġextre mo
ĠJo aqu
e is
Ġfi j
ĠS ar
Ġestrateg ias
men t
em n
4 8
Ġh in
ĠelÃ©ctr ico
th le
M S
Ġ19 5
ÃŃ dos
av aj
ĠS istema
u o
Ġpor no
Ġex pon
ĠV is
Ġgus tan
tag ena
Ġnorte americ
ĠM ario
Ġesta tu
Ġpla yas
Ġtranspar encia
Ġh ue
Ġmar cados
ĠSu Ã¡rez
3 3
Ġpos e
Ġpos ee
Ġpres taciones
Ġpresid encia
en zo
Ġe vi
ĠC N
ĠF Ãºtbol
Ġauton omÃŃa
Ġapell ido
om ba
ĠM ol
Ġreci n
ĠV ega
m is
Ġtom ado
o w
ĠTer esa
ĠAlba cete
Ġdi eta
arra gona
gar Ã¡
Ġesc uelas
s ta
Ġmater ias
Ġti ro
crip ciones
Ġm ando
Ġvo tantes
Ġcuadr ados
d idas
al quier
Ġapor ta
ĠS Ã¡
ĠEdi torial
po t
Ġcomun icaciones
Ġvers iones
Ġprivi leg
ĠDomin go
Ġantigu os
Ġinf ec
Ġfron tera
Ġdi pl
Publ icaciÃ³n
Ġprofes iÃ³n
Con o
ĠLib er
ĠJ ur
uel ta
f era
Ġtes timon
m al
Ġemerg encia
Ġs ien
____ ____
Ġpol icial
ĠcientÃŃf ica
Ġserv idor
Ġacon dicionado
ĠÃ¡mbi tos
Ġtur no
T AN
E B
Ġaten tado
Ġrealiz arÃ¡
m Ã³vil
Ġdiv ul
Ġbas ada
ĠIs rael
/ ...
Ġexac tamente
id al
A Ã±
Ġcomple mentar
Ġsan idad
Ġt ono
Ġch icos
Ġcomb us
Ġfru to
Ġde fec
Ġllev aba
ĠLeg al
T V
ĠGuadal ajara
ing ton
Ġexper to
titu des
ch ado
pl ica
Ġcober tura
Ġpropie tarios
ÃŃc tor
T res
Ġadap taciÃ³n
ĠC uer
A b
Ġcol um
Ġcu yos
B ien
Ġalcan zado
ĠH u
Ġgastron omÃŃa
ĠfÃ¡cil mente
Ãĳ A
thle tic
Ġlab ores
Ġpid iÃ³
ic ciones
Ġir re
E Z
Ġconf orme
P on
om ina
Ġpreocu pa
Ġten dencias
Ġpro pa
ĠON G
ĠI l
Ġas c
c ro
Ġjuz gado
ĠIz quier
Ġobten ido
Ġinstrum entos
Ã±o z
all er
ĠEsta tu
ĠXX I
cis ta
Ġin c
ĠÃ³r ganos
Ġlo gra
Ġdepor tivas
Ã© ro
Ġfa ch
Ġquier an
it Ã¡n
Ġfer ro
Ġasum ir
ĠCh ile
i adas
Ġl anza
Ġim ple
Ġha go
Ġcelebr Ã³
ĠMed ios
Ġven ido
Ã¡ndo le
ĠIgu aldad
ĠUn idad
ĠY o
Ġim pon
an tiles
3 1
Ġins ul
Ġres al
u tu
il d
Ġmadrile Ã±o
Ġencu estas
ib uye
ar le
Ġal ber
Ġfl ores
C entro
Ġapor taciÃ³n
Ġf icciÃ³n
Ġoblig ado
Ġsobre viv
Ġs Ã³l
Ġsubray ado
Ten go
x it
' '
ĠW ill
d ado
E E
f re
res a
Ġrecha zo
g ia
Ġp us
Ġgus tado
Ġp ala
Ġeduca tivos
it s
Ġadv ierte
Ġmejor as
Ġinmedia ta
Ġadi cional
e go
Ġquer er
Ġvia j
gla terra
T C
ĠV an
Ġper cib
Ġrece tas
Ġciudad ana
Ġemp u
Ġregul aciÃ³n
7 5
ran te
ĠInter na
Ġman tienen
ver d
.... ..
Ġhor iz
cri tos
Ġcomple tar
Ġperten eci
Nos otros
Ġasesina to
Ġllegar on
ĠEmpres a
Ġcor ta
ĠHum anos
ĠPa z
Ġsolici tado
ĠsÃŃn to
i tivo
h um
Ġnaran ja
Ġcens ura
Ġurg ente
Ġpro tec
Ġaudio vis
ĠB ro
ĠJ ud
ic anos
genti no
Ġn Ãºc
ĠCh ris
ĠL an
Ġref uer
ĠC ine
tin as
Ġexam en
Ġpar al
Ġco g
AR C
Ġdefend ido
Ġre mi
Ġdiv isiÃ³n
Ġcier tos
Ġmanif esta
ĠConstitu cional
Ġopera tivo
qui to
et s
ĠCal le
Ġmus icales
ĠcÃ¡ maras
a cu
os as
y n
Ġacab ado
ĠC la
Ġrema te
x i
Ġperson alidad
Ġ6 00
Ġrev oluciÃ³n
Ġalim entar
Ġabsolu tamente
Ġterri torial
Ġ ðŁ
Ġsen ten
Ġlab ora
Ġdes gra
Ġcr uc
f as
Ġsindica to
ĠCa p
I AS
tr ar
ros oft
Ġinf ancia
b Ãºs
ĠS AN
Ġprob able
Ġvie jo
Ã¨ n
ies e
B a
Ġv uelos
Ġtra tamientos
f Ã³nica
Ġnie ve
Ġun e
Ġneg ra
Ġa ma
Ġorgan ismos
ĠS im
ĠCas tillo
Ġmanten ido
Ġtur ÃŃstica
Ġfir mas
ĠH ab
ĠC A
Ġinter cambio
Ġcuer pos
avaj illas
Ġc es
Ġas ign
t und
ÃŃ ticas
Ġcu ota
ĠK a
R ed
Ġpod remos
Ġprofund idad
Ġpubl icaciones
Ġabandon ar
T i
ig uras
M as
Ġaud iencia
Ġtermin ado
p ias
Ġb eso
U s
Ġfemen ino
os ten
ĠAle jandro
Ġind emn
ef in
Ġigu almente
Ġencuen tros
Ġdetermin ar
ĠMediter rÃ¡neo
Ġaf ili
Ġsegu ra
N unca
Ġcolec tiva
Ġcontam inaciÃ³n
m end
ĠCh ampions
med io
ĠR SS
Ġdepor tes
Ġaprue ba
s erv
Ġaum enta
Ġab und
Ġher ed
Ġa os
ĠX unta
Ġsu pera
Ġpres taciÃ³n
Ġentren amiento
Ġsal en
ĠdiseÃ± ado
Ġres umen
Ġcomo d
ĠCook ies
Ġconstitu ye
ĠI VA
ĠO JD
Ġtr ama
ĠNav arro
ĠT ar
Ġprotes ta
ĠhÃ¡bi tos
Ã©r amos
Ġcla us
ĠTer ri
ios as
Ġpon iendo
Ġperten ece
ĠOfici na
ĠReg istro
c aba
Ġinteres ado
Ġbaj ar
Ġcamb ia
ĠjurÃŃd ica
Ġb iblioteca
Ġsolu cionar
ri es
Ġconcep tos
Ġneces itas
Ġpais aje
Ġabsolu to
Ġru tas
Ġqued e
an im
0 4
: )
Ġsuced e
Ġterror ista
Ġtriun f
ĠraÃŃ z
ĠautÃ³n omas
Ġsab ÃŃa
Ġtier ras
Ġinver tir
Ġing red
Ġg ir
CI O
Ãļ l
ĠGre cia
Ġacos tum
en n
tÃ³ graf
ix a
Ġca fÃ©
Ġreg iones
ĠAl im
Ġus a
crip t
Ġpublic ados
ĠM ara
ĠJo an
Ġespos a
Ġl iga
Ġverdad era
Ġefica cia
C L
Ġcer e
Ġdich os
en tre
Ġllam adas
Ġkil os
l Ã¡n
Ġp ene
ĠC R
P D
se gur
ĠautÃ³n omos
Ġreper cu
Ġcar tas
+ ]
Ġdes ay
rue cos
T S
Ġretir ada
Ġespec tadores
Ġcarr eras
Ġb od
Ġsim ul
Ġur nas
Ġviv ido
ĠC rea
Ġre gu
th er
Ġsuf re
Ġrecom endaciones
Tam poco
Ġincorpor aciÃ³n
Ġsal var
Ġpropor cionar
Ã³lo gos
Ġindustr iales
ÃŃ es
Ġreg las
s oci
j ante
Ġunivers al
uel to
Ġfal lo
Ġsig a
Ġpod Ã©is
Ġ Ãī
v ol
Ġcorrec to
Ġejerci cios
Ġ3 9
Ġvir us
quil lo
ĠJos ep
i h
Dis pon
ier to
ĠCab all
g in
Ġconden ado
Ġvia jeros
Ġreci entes
Ġobserv ar
Ġintens idad
Ġles iones
ĠDipu tados
Ġcomp ens
ĠJuz gado
IN A
Ġinv itados
Ġan aliza
or io
Ġres pal
Ġizquier das
ra fo
ik e
ĠProfes ional
Ġcol a
Ġcontinu idad
Ġcarre teras
Ġesti ma
Ġprol on
ÃŃn sula
ĠC H
Ġjard ÃŃn
6 5
P O
Ġconoc emos
ĠAn dalu
Ġefec tivo
un tamente
Ġest adio
Ġfin alizar
g ip
ĠA lex
Ġhabi tuales
Ġl um
Ġcri terio
Ġhabl an
Ġpa ta
Ġtrabaj ado
Ġf ur
ĠMu Ã±oz
Ã©r ico
qu illa
Ġvesti do
Ġ200 3
Ġam iga
di as
br il
tr en
Ġcom enta
ĠEdu ardo
C R
Ġexpec tativas
Ġposi tiva
Ġcompues to
ho w
Ġ15 5
Ġib an
Ġb ro
Ġqu iso
ĠY a
Ġresca te
Ġpanor ama
am Ã©rica
Ġan uales
Ġag ente
Ġpl en
Ã³ f
Ġpres unto
A p
ĠPa co
ĠA viso
verd e
Ġbras ile
Ġgaran tÃŃas
A mb
Ġre mo
Ġpreocu p
iÃ©n dose
L AN
Ġsatisf acciÃ³n
Ġb ord
Ġpre viamente
ud ela
par te
inos a
do l
Ġdro gas
Ã³n imo
Ġimpul so
eci dos
Ġtan atorios
Ġaf iciÃ³n
Ġdecor aciÃ³n
Ġcantidad es
ĠJ ef
min a
Ġimpres iÃ³n
T ags
Ġprev ista
ar re
Ġvalor ar
ĠSalv ador
ĠN ie
Ġch a
% ),
Ġdev olver
ĠP ir
id el
om Ã©
Ġunivers o
Ġcor red
Ġcomen zado
Ġp las
Ġfilos ofÃŃa
Ġbar co
Ġasegur an
Ġinvesti gaciones
ĠautonÃ³m ico
Ġv el
F el
Ġorganiz ada
Ġinform ar
Ġfavor itos
ĠS tar
Ġmani pul
ab uena
ĠM ul
Ġar gentino
Ġmoder no
Ġoblig aciones
TM L
ĠF ron
Ġequiv oc
Ġamis tad
v ante
Ġincre mentar
pres s
Ġsal as
ĠreÃºn e
Ġpolic ÃŃas
ĠUN A
OR ES
Ġro l
Ġprim a
Rec uer
Ġhuman idad
gen o
Ġpasaj eros
ĠElec tr
ĠH e
Ġcon greso
Ġin oc
ĠG il
h ay
qu ilidad
Ġinstrum ento
Ġf iguras
ĠN eg
Ġapun tado
Ġdesemp leo
ĠP h
ti ci
J o
Ġc itado
Ġdes pl
di ales
ue ble
ĠPrem ios
ĠT u
Ġest ados
ĠQu in
Ġac cidentes
Ġus tedes
ĠIn glaterra
lor ia
EN A
Ġsem if
is po
e jo
ic s
ÃŃ timo
ĠC AR
Ġtu m
Ġimplan taciÃ³n
s tru
Ġexp ans
aj ada
ĠB l
gu raciÃ³n
Es per
Ġexten siÃ³n
Ġem ble
EN ES
Ġparlamentar io
Ġsecre taria
ĠcrÃ©di tos
tad ura
Ġlan zado
ĠB on
tel erÃŃa
Ġpres tar
Ġub icado
Ġen d
Ġo toÃ±o
Ġvo ces
Ġbo da
Ġconcej ales
In formaciÃ³n
ĠPÃºbl icas
pr om
Ġapues tas
Ġdetermin ados
tu alidad
1 00
I s
Ġd arse
Ġcoord inaciÃ³n
Ġdenunci ado
Ġprovoc ado
D entro
Ġme tÃ¡
s ado
J a
Ġ[ +]
Ġenerg Ã©tica
Ġen rique
ti to
Ġles iÃ³n
Ġapro bar
Ġ5 5
ill era
pi Ã©
Ġqued arse
ĠON U
rim ir
Ġprop Ã³sito
Ġr iv
Ġv uestra
ro l
Ġcorrec ta
Ġavan zar
Ġa tro
qu ista
ĠU GT
Ġdecid e
Ġno tas
Ġcomprend er
Ġocu paciÃ³n
Ġra to
Ġh alla
Ġjue ces
Ġtermin a
Ġsan itarios
ir man
ĠAn ti
ĠP es
ol es
P ese
ĠSan tos
ĠEmpres as
clo a
Ġbil le
Ġen mar
d s
ĠI P
Ġca tÃ¡logo
Ġven tana
ID O
a unque
Ġnota ble
Ġh orm
Ġinform Ã³
Ġre acciÃ³n
v ic
Ġfra caso
Ġcenten ar
Ġpresentar Ã¡
ĠPu ente
F oto
Ġcal iente
tr ada
ĠP ac
Ġincend ios
cin co
ĠG ijÃ³n
ten ga
C er
ÃŃn cipe
ĠS oria
Ġpro voca
---- ----
Ġsan itario
Ġe duc
0 3
Ġaud itada
ĠA ire
Ġcompe tir
Ã©l ulas
Ġtor os
Ã¡ us
ĠT al
ĠV ill
Ġgobern ar
Ġan teriormente
Ġdesigu aldad
ĠAc ciÃ³n
lle er
, ,
Cu enta
qu eras
qu era
ol l
Ġmar ch
or ado
ÃŃcu la
ĠmÃ¡ quina
Ġencab ez
Ġbarr ios
ĠReg ional
Ġterra za
ĠH uesca
Ġna cido
Ġapro pi
f und
Ġcomb inaciÃ³n
ĠA thletic
Ġver se
ĠSir ia
ĠP IB
Ġpres os
Ġacu sa
Ġregres o
Ġmaes tro
Ġcons ciente
Ġdeten ciÃ³n
ĠD ec
ĠDepor tivo
O E
eci miento
Ġcier tas
Ġo dio
i tando
Ġcandida ta
Ġabord ar
Ġelev ado
c era
ĠUsu ario
F A
Ġher mana
r il
ĠdemocrÃ¡ tica
Ġ om
Ġno ches
Ġlan zar
Ġpens ado
ven ido
Ġcal ef
id en
Incl uso
ĠPrincip ado
Ġmor ir
Ġeduca tiva
Ġcomba tir
Ġequilib rio
cu entro
ig ra
tera pia
Ġescrib iÃ³
Ġfues e
Ġof ens
Ġpar ar
Ġse para
Ġbol s
br ado
Ġrecin to
T IC
Ġte a
Ġal f
Ġf Ã³rmula
Ġta bl
ĠMos sos
Ã± Ã³n
w ood
Ġsegur amente
Ġrecom ienda
Ġconflic tos
Ġpar ejas
ces a
ĠRod r
Ġescol ares
4 4
Ġfan tÃ¡s
Ġch ico
ĠC OR
ĠI ber
is h
ĠIns tagram
Ã© ticos
Ġpriv adas
ĠTo ur
ĠSeÃ± or
cu ra
eci da
ci ado
P ablo
Com pra
Ġas al
Ġf ores
Ġf ib
T or
Ġper egr
ten ta
I r
Ġcar iÃ±o
in io
Ġdeci s
AD R
ire mos
Ġrelacion ado
m ir
ĠM ora
Ġparti d
Ġcoci n
Ġpropor ciona
Ġcircu laciÃ³n
Ġcas co
Ġreduci do
H er
Ã± igo
R ajoy
Ġagres iÃ³n
or aciÃ³n
Ġex cu
Ġfinanci eras
Ġquin to
ĠCastell Ã³n
mb res
ig ht
ĠV O
All ÃŃ
ĠFa cultad
ĠautonÃ³m icas
Ġl lor
gar se
ĠP C
Ġmostr Ã³
tra te
Ġescen arios
al las
Ġdis cur
Ġex posiciones
tr ÃŃa
Ciudad anos
r ados
ĠAdministra ciones
p ista
le er
Ġalum nado
Ġsing ular
Ġde dica
i pu
Ġconse jera
ĠCan al
ta Ã±a
Ġis las
Ġex cepciÃ³n
tu ario
Ġale mana
3 2
ĠA tenciÃ³n
Ġre vela
Ġdestin os
tÃ³ lica
Ġcumpl en
s es
Ġl ema
ĠRo ja
Ġjuven tud
be te
Ġtarje tas
T RO
Ġta bla
Ġauto bÃºs
ta mo
Ġabra zo
ine te
ĠT RA
Ġnov edad
Ġo jo
ten imiento
Ġdr ama
ible mente
Ġorganiz ar
Ar t
ĠComun idades
pl an
Ġau x
Ġen fo
TOR IA
Ġefec tiva
Ġbicic leta
Ġh all
Ġcons truy
Ġjug ue
Ġcul p
Ġresponsab ilidades
Ġdig nidad
Re al
Ġdestin ado
ĠP RE
cier on
F OR
Ġmus ul
Ġad j
Ġgan ad
ĠG lo
Ġconsul tas
Ġen amor
te cn
Ġru ido
Al ber
ÃŃf ica
Ġsusp ensiÃ³n
Ġcontr ad
Ġho ja
Ġorgul los
Ġconcl usiones
ion istas
Ġde cenas
Ġl adr
Ġsal to
hor abuena
id es
Ġhaber se
ĠHer man
Ġestar ÃŃa
Ġgalle go
ĠReg lamento
Ġmen Ãº
Ġ4 2
Ġsuper viv
ĠR amos
f ran
ĠS L
il lar
b ano
Ġllegar Ã¡
Ġcampe onato
Ġmad res
ema to
ad ura
Pres s
Ġimped ir
par aciÃ³n
j ano
Ġadquis iciÃ³n
Ġex por
qu esta
Ġpre cip
Ġespecial ista
iste mas
Ġev idencia
ur i
temp or
Ġdis cos
tÃº an
ab ell
Ġde terior
Ġc ena
ĠLor enzo
Ġaver ÃŃas
ĠLu go
n eces
ies a
UR L
l ando
ĠmÃ© todos
den es
Ġidi omas
Ġins u
Ġequ ival
ĠAgr icultura
Ġre porta
Ġdirig ente
Ġsuf riÃ³
9 5
Ġsu yo
ĠN or
Ġdes as
Ġconf es
Ġrealiz ados
pon s
Ġcertif icado
T ES
CI AS
ĠJoaqu ÃŃn
in idad
0 2
Ġespal da
ĠSocial ista
es as
ĠSe govia
Ġim pro
i am
Ġma tar
ĠC AM
Ġfamos a
Ġinstal ar
Ġte Ã³r
Ġh ec
Ġtras lado
4 7
Ġinv ol
Ġneces itamos
in cl
ens or
Ġimpa c
ele cciÃ³n
cer tid
ĠL le
ĠEj Ã©rcito
201 1
Ġll en
i anos
ba co
ĠV ÃŃctor
ĠCon ce
Ġmanifesta ciones
Ġestruc turas
Ġper diÃ³
ĠS ep
Ġme todo
ĠPerson al
ĠN aciones
Ġh arÃ¡n
un cias
Ġjud iciales
ĠMar tin
T ra
s h
Ġterror istas
m ico
as o
Ġc Ã©lulas
gan da
Ġcier ra
Ġpos tura
Ġenvi ado
Ġacog ida
ĠT E
in ando
ez ol
ĠN uevo
Ġemp e
ones a
Ġcon tigo
ĠAnd roid
8 5
........ ........
Ġsan itaria
Ġtend r
ĠCU P
Ġpropi edades
ĠcrÃŃ tico
Ġcorr er
Ġabier tas
Ġrefor zar
C Ã¡
Ġfabr icaciÃ³n
Ġnegoci ar
ĠL im
Ġtend rÃ¡s
ĠdÃ© ci
ĠP D
Ġdetermin ado
Ġdestac Ã³
IL LA
ĠC C
Ġson risa
Ġpos esiÃ³n
Ġinvers ores
Ġcontra tar
Ġa er
iz Ã³
ci ende
ĠMo v
ĠDiv isiÃ³n
Ġinvesti ga
Ġhab ilidades
ĠCar m
Ġregal os
tif icar
D AD
Ġval ora
Ġp ion
Ġbaj os
ĠW orld
E uro
Ġalcan za
ĠjurÃŃd ico
Ġ Ãį
Ġpregun tar
ĠGran d
mo vil
Ġher idas
Ġf lamen
Ġdistin to
Ġrue das
Ġsufr en
Ġquin ce
ific ada
Ġvues tro
Ġneces itar
D ÃŃa
ab al
cin as
l ara
Ġtran quilidad
Ġf igur
Ġrev olucion
Ġcompar ec
i ti
Ġtraslad ado
Ġin trod
Ġfi ja
Ġasesor amiento
G RA
Ġe c
Ġman ual
201 6
me tro
Ġcontemp la
Ġfra ude
Ġperman ecer
Ġf estiv
ĠC in
Ġca e
ĠAr t
ĠPr ivacidad
Ġdorm ir
IEN TO
Ġtre inta
uer tos
F ern
Ġdistin gu
Ġvuel va
iz ando
s ic
ĠX VI
ĠincreÃŃ ble
ĠGar rido
G R
ĠMel illa
ĠT R
Ġrepres entar
P o
ĠÃģlv aro
Ġapl ica
tin es
Ġlidera zgo
Ġpob res
Ġdesp la
Ġintelig ente
s te
ĠMay o
Ġpa gos
Ġconcl uy
tra je
ĠBan k
Ġpre ven
ti zado
ĠC las
Ġdiagn Ã³stico
Ġexig ir
ĠCar tagena
an i
Ġhubi ese
V en
Ġdeclar ar
Ġro ja
Ġglo b
Ġs om
ĠCÃ¡ ceres
tim edia
ĠPrim aria
Ġcol o
Val encia
iz ca
tim idad
er al
Ġemail s
ĠT im
Ġnega tiva
Ġa qui
Ġdispon er
Ġtend remos
icar do
ĠInf antil
ĠPS C
f l
Ġar res
Ġelectrodom Ã©sticos
Ġatrac tivo
ĠJos e
Ġbas a
ĠL ar
ici as
Ġnov ia
ĠCor te
Ġconf irmar
Ġpla zos
Ġre ina
ĠT ri
Ġpoder es
Ġin greso
ÃŃ g
Ġocur riÃ³
Ġresta uraciÃ³n
ĠautÃ©n tico
Ġforma ciones
En cuen
Ġcuan tos
Ġun iÃ³n
Ġconf igur
Ġcontribu ir
Ġsu ici
c ara
Ġsufici entes
ti ende
Ġprefer encias
Ġen m
ĠV OL
Ġsu man
Quer emos
Ġespeci alizado
ĠplÃ¡s tico
Ġfinanci eros
er ÃŃas
Ġlevan tar
Ġcom posiciÃ³n
Ġar ma
Ġcl ick
Ġauto mÃ³vil
Ġfron teras
L es
Ġdefini tivo
Ġcon tamos
Ġprim arias
Ġtrans iciÃ³n
Ġl ici
Ġf ans
mart ph
Ġtra tados
u tos
Ġempa te
Ġinf antiles
Ġmues tras
Ġdes m
v enta
Ġprocl am
rÃ¡ tico
Ġcon quis
crÃŃ bete
Ġmecan ismos
Ġban ca
m bre
Ġim poner
tion al
ĠPro duc
Ġsu ministro
Ġactu alizaciÃ³n
Ġamena zas
Quier o
Ġcompar aciÃ³n
b or
Ġdej amos
Ay er
ĠUnivers itario
ĠMon cloa
tu di
Ã©nd ez
Ġhor arios
bur go
Ġb es
Ġm adrid
Ġurg encia
ĠMar ruecos
A le
ĠOr gÃ¡nica
ĠV ia
Ġpre venir
ĠF ondo
Ġv ende
ĠN icol
ĠA ra
Ġejecu tivo
Ġcon ces
Ãº r
ĠhistÃ³r icos
Ġpien so
Ġavan zado
Ġcons enso
Ġargu mentos
l um
Ã± e
ce ta
J E
in an
ĠMer cedes
Ġc ajas
Ġme tal
Ġh ambre
Ġcomun icar
Ġviv iendo
Ġf um
Ġquin ta
ÃŃn ea
ĠMe tro
t Ã©r
ĠIzquier da
Ġsac r
Ġre tra
eci endo
Ġconfer encias
4 9
W eb
b ir
gres os
Ġrepro duc
Ġtas as
Ġdes cend
Ġabog ados
Ġem isiÃ³n
Ġca za
S I
Ġ25 0
lor is
v ias
Ġpro greso
Ġb ron
av a
Ġfu tur
id encial
Ġdefin iciÃ³n
gÃ¼ enza
Ġro j
ĠT en
if icio
Ġincid encia
cu laciÃ³n
Ġestr ena
Ġrepresen tan
ĠAlcal Ã¡
Ġindivid uales
ĠCe uta
erv ados
ik a
Ġpier nas
Ġelim inaciÃ³n
Ġtrib unales
Ġdipu tada
Ġinici Ã³
Ġd uelo
Ġb ac
ĠautÃ³n oma
ĠN adal
Ġin ex
ĠRom ero
Ġh al
Ġd as
Ġcorpor a
ten er
Ġsal udo
C N
Ã¡n dal
Ġahor rar
Ġrefle ja
Ġedi ciones
ĠelectrÃ³n icos
Ġjug ada
Ġin certid
cl ar
el adas
Ġdeb ÃŃa
Ġpresen tada
Ġp istas
Ġm el
Ġr io
cion istas
tin er
Ġagrad able
c ando
Ġrecib en
Ġcapa ci
ma g
Ġe tique
ĠZ amora
blog s
partam entos
w er
ĠDis eÃ±o
P lan
Ġresid entes
u til
Ġtej ido
Ġestr ic
M er
Ġrelev antes
Ġmedie val
Ġelim ina
ĠV ER
Ġtra tado
B en
Ġvolver Ã¡
ĠInd ia
Ġpo esÃŃa
ĠL en
Ġsue Ã±os
Ġar ena
ur ense
ĠSal Ã³n
ĠEs pecial
ĠsÃŃnto mas
ĠpÃ©r didas
Ġle tra
Ġcon cer
ĠCar r
Ã¨n cia
Ġdoc entes
ti mas
cios a
Ġfutbol ista
i Ã¡n
Ġcho que
S a
Ġcolabor ar
A A
Ġprove edores
Ġtrans cur
Ġ Ã
per son
Ġrelig iÃ³n
ĠÃ©s tos
a Ã±os
Ġnav ide
Ġrelacion ada
Ġgan an
Ġban das
ĠL abor
la va
Ġfo tÃ³graf
ĠEs tad
Ġcamis eta
teri al
Ġconcl uye
Ġtempor adas
an ia
Ġsuel do
Ġla teral
ĠMer cado
Ġin tr
Ãĳ O
Ġcentr ales
Ġte cho
in cu
g encia
Ġregistr ados
ĠPla y
ĠestÃ© tica
Ġch arla
Ġbrill ante
8 8
Ġign or
ĠT oni
Ġterri torios
Ġre cepciÃ³n
ĠautonÃ³m ica
Ġr ico
Ã± al
Ġco pia
mÃ¡ ticamente
Ġpod ÃŃan
ĠLib ro
Ġcar as
ĠbritÃ¡n ica
Ġdescar ga
Ġinmedia tamente
Ġsob res
im nas
Ġcom isiones
Ġm Ã¡g
Ġsuper ado
ĠF oto
Ġmed icina
J unto
Ġfuer an
Ġquier as
ce la
A pro
Ġpor tÃ¡
Ġparlamentar ia
Ġdeman d
Ġvigil ancia
Ġprovis ional
Ġsal ario
Ġe tiquetas
Ġno c
Ġc itas
Ġindependentis ta
Ġsenti mientos
C D
Ġf rag
is co
Ġco opera
Ġpar ro
ha el
Ġconsum idor
Ġcon tÃ³
Ġad vers
Ġvis ual
Ġchoc ola
an ti
Ġpar ada
Ġpor tero
i edad
ĠC ala
Ġempres ariales
v Ã¡n
Ġescrib e
U ER
Ġic ono
ĠH A
k in
Ġpo eta
ĠÃģngel es
Ġconvoc ado
tiv idades
Ġmaes tra
Ġru p
Ġd ios
is e
ĠGab riel
Ġestudi ante
Ġsens ibilidad
por que
erva torio
Ġha ces
ik o
Ġ200 1
Ġpoten te
ĠI d
ĠPa pa
Ġde je
Ġapar te
Ġinf rac
Ġna ce
ĠPe Ã±a
Ġenfr enta
p yright
Ġdesp rend
as terio
E tiquetas
Ġinau guraciÃ³n
Ġjug ando
Ġcomb ina
R o
Ġhab il
Algun as
Ġsu g
ĠG ala
G o
Ġingred ientes
Ġdes tru
xim o
Ġmonta je
ĠvÃ¡l ido
Ã¡ menes
Ġn omin
Ġcubier ta
Ġre habilitaciÃ³n
Ġa ustr
od e
T AR
Ġreserv as
s tica
Ġreda cciÃ³n
gon o
Ġm uebles
Ġpol iciales
ĠMe jor
m erÃŃa
M uer
ĠCu ba
T ienes
Al go
ĠEsta tal
Ġrig uros
Ġcir cular
ĠAl ta
p itales
Ġbas ura
Ġvalenci ano
Ġlleg ando
Amb os
Ġs ombra
Ġrecor rer
Ġbal oncesto
Ġsos tiene
ĠelÃ©ctr icos
Ġaconte cimientos
Ġrepar ar
ĠS I
ro ga
Ġllam an
ĠMic rosoft
Ġn ub
Ġn aciÃ³n
Ġaz Ãºcar
ĠAd ri
d Ã³n
Ġac oso
ĠCampe onato
gu Ã©s
Ãģ S
Ġtrans mi
: :
Se villa
Ġfavor ito
eder aciÃ³n
Ġsab ido
Ġprior idad
Ġconcl usiÃ³n
Ġpa ga
Ġtrans mitir
ĠG an
Ob tenga
Ġcuar tos
Ġcons cientes
ĠÃģ vila
Ġmedi ados
Res pecto
O tras
ÃŃc ola
ĠS ue
Ġluc es
Ġpud ieron
Ġdoc ente
Ġse me
ed e
Ġes que
Ġens ay
Ġinforma ciones
Ġinten tando
ci Ãĥ
Ġta ble
Ġde gus
Ġconm igo
ab as
Ġ( "
Ġcur r
Ġsin ies
G ar
P h
c r
Ġven ezol
te a
ĠA f
Ġ4 4
Ġcer em
Ġactu alizaciones
Ġr ub
Ġfund aciÃ³n
Ġcam inos
U til
Ġd iga
ĠVic toria
Ġh em
ĠV Ã¡zquez
Ġcre ada
Ġvas ca
B an
Ġargu mento
Ġinter no
ĠO R
Ġnoc tur
Ġcelebr ada
d rÃ¡n
M arÃŃa
Ġdes vel
Ġqu eso
Ġin cen
N E
Ġcomen tado
l im
Ġv illa
ĠB lack
til l
ĠN et
EN D
Ġoc ta
ĠO pen
Ġdefin ir
Ġex ceso
Ġdistin ta
Ġg or
ti po
Ġver des
Ġcome tido
Ġaf r
Ġdi aria
Ġsecre tos
in adas
ĠHum an
iz ka
ic arse
es es
Ġgenera ciones
l ico
ĠbÃ¡s icas
ĠÃŃn dice
Ġco ger
ÃŃs trate
Ġdenunci ar
ĠÃ¡rbol es
Ġsosten ibilidad
Ġper pe
Ã©s ped
ĠG RA
Ġvay an
Ġnotif icaciÃ³n
ĠCerv antes
ĠespecÃŃf ico
Ġa gra
Ġdescu bierto
iz as
C ris
P R
Ġcom icios
in ten
Ġweb s
N adie
d icas
Ġp unta
nav al
ĠPro yecto
ĠM olina
ĠLa ura
Ġdeman das
Pe pa
ĠF re
Ġcol on
] .
Ġc eb
Ġcerc ana
Ġpromo v
Ġvas cos
Ġes tando
blo que
Ġe co
Ġcabal lo
Ġp uro
icios a
orm es
br al
Ġcob rar
Ġdetermin adas
ĠP ontevedra
Ġm emor
z ano
Ġpeligros o
g Ã³n
ĠM is
ĠM ich
ta ban
Ġcom itÃ©
Ġcrea tividad
Ġins istido
G E
Ġtra e
" ;
ĠXV III
ĠWord Press
U RO
Vis ita
Ġcin ta
Ġr urales
Ã¡ ver
ab ra
lam iento
Ġtuv iera
ĠT es
Ġ1 20
Ġab riÃ³
Ġtes is
ab o
Ġdul ce
Ġrelev ante
Ġadolesc entes
Ġclub es
Ġacus ados
Ġagrad ecer
icios o
Ġapar ato
Ġcon lle
Ġdescu entos
ĠJuven tud
F a
Ġdich as
Ġdibu jos
Ġal quil
Ġba Ã±
Ġadministra tiva
Ġdes pre
Ġpar ado
tus ias
Ġcom posi
Ġdic tadura
Ġpud ieran
el le
Ġab usos
d eb
Ġind ican
an t
Ġcur ioso
ĠC COO
Ġesta ciones
ar quÃŃa
Ġcon ducir
ĠL ea
er an
Ġsu puestos
ĠS pa
pi edad
ton e
Ġcre ciente
ad illa
Ġefec tivos
Ġterr enos
L ib
Ġhogar es
ha us
ĠS AL
Ġar bi
Ġrespal do
Ġhi per
Ġcre emos
ĠEste ban
Ġaprob Ã³
H is
Ġcon tund
Ġtram itaciÃ³n
es tro
Ġtor re
Ġvolun tarios
Ġcol ombi
ĠLe er
Ġr i
Ġencontr Ã³
ĠUr ban
Ġcu Ã¡les
- .
Ġcre ciendo
je je
Ġp ur
ĠV e
Ġbra zos
ad ra
Ġvac ÃŃo
Ġrelig ion
is tÃŃa
Ġas pira
po pul
Ġcoloc ar
Ġre ti
F alta
Ġlo go
ob o
Ġvir tud
Ġconci enci
ri tos
Ġem is
M is
Ġveg e
Ġguard ar
ĠF C
ĠGu ar
Ġtermin Ã³
Ġandalu za
ch i
Ġper f
Ġvicepres identa
l Ã¡mico
Ġacep taciÃ³n
ÃŃr culo
Ġafec tado
Ġconj unta
Ġreg istros
Ġfin aliz
Ġexpl icaciones
Ġc Ã³
Ġvuel ven
qu ero
ĠCon diciones
Ġllev ando
ĠLav adoras
r om
ĠÃºn icos
CI AL
Ġincorpor a
Ġilustr ada
Ġes encia
Ġir Ã¡
Ġemo cional
s ol
Ġv id
ĠsÃ© pti
Ġcl Ã¡us
ci ano
Cas a
ĠG irona
ig en
Ġcor on
Ġdeba tir
Ġcad Ã¡ver
D ec
F i
ĠE duca
N ada
Ġapar camiento
Ġgig ante
ĠOb ama
Ġinsu fici
Ġtur ÃŃsticos
Ġpre car
Ġcomenz arÃ¡
on or
tu re
Ġconsider aciÃ³n
Ġfacil ita
ĠRib era
uc os
Ġrela tiva
ĠS A
Ġdestac ados
ĠTweet s
Ġviv a
Ġb arro
Ġcu idar
Ġafec tan
ĠÃģ rea
x a
ĠSan z
Ġcri tica
Ġempi ez
es tr
ed as
P iso
ĠMed icina
l en
ĠAu tor
ĠMes si
Ġnucle ar
bier ta
ĠmÃ¡ quinas
bus es
I d
Ġexpl ican
Ġvisi tante
Ġba ilar
Ġorien taciÃ³n
Ġdeclar Ã³
Ã©l gica
Ġfu i
Ġmes as
Ġev id
Ġpond rÃ¡
V D
Ġf rac
Ġinter venciones
Ġejempl ares
ion ista
Ġcompar tido
u z
ĠD ar
Ġemo ciones
Ġdepor tivos
ĠAn gel
Ġfund ador
Ġev olu
ĠPa ul
ues o
Ġalum inio
Ġesper amos
des d
Ġcr on
Ã³g icos
Ġ4 7
al ismo
ĠCar les
Ġprestig io
Ġre duce
ADR ID
ĠFu ente
Ġba ile
Ġca ch
Ġf us
Ġins ta
Ġc aj
ĠRober to
Ġden uncias
Ġselec cionar
ĠCon ven
Ġs entar
ash ington
Ġincl usiÃ³n
Ġfemen ina
Ġ4 6
Ġfabr icantes
Ġconcre tamente
Ġabs or
Ġrenta bilidad
iz adas
Ġsa ga
Ġreac cion
Es cu
Ġapo ya
Ġprotes tas
m ado
ĠOs car
Ġcuadr os
Ġlis tado
Ġprof unda
Ã³s itos
fr ad
Ġdirig ir
Ġrefer encias
Ġprovoc ar
Ġexpans iÃ³n
if u
Ġcomprom isos
y endo
if orn
ĠlÃŃ qu
Ġam antes
Ġen tiendo
ĠS r
Ġpod amos
AN O
da je
ing s
ĠV AL
Ġemprend edores
Ġmur iÃ³
Ġho jas
TA M
Ġre tr
Ġex Ã¡menes
5 5
Ġescon d
U r
ĠVal l
ĠfÃ¡ brica
ĠE bro
Ġj oy
Ġdispon en
ĠVil lan
Ġes quina
Ġdim ensiones
p Ã³n
v era
Ġexcel encia
Ġunivers itarios
T AL
ĠPe pe
Ġen tusias
desd e
Ġed il
ti gos
Ġges to
cl ip
ĠN A
Ġl ong
Ġinclu ida
Ġr icos
ĠPlata forma
lan os
Ġpro puesto
bi ar
Ġcritic ado
Ġexisten te
Ġins tante
tr ices
Ġc Ãº
Ġextraordin ario
to ck
ĠF on
ĠNo che
OL O
ĠC Ã³digo
ĠbÃ¡s ico
B R
j ados
Ġnie ga
ĠCar re
Ġro b
Ġprof undo
Ġfir mar
ĠMar ia
iÃ³ dico
Ġcr imen
Ġhis p
Ġretir ar
ĠHis tÃ³r
Ġinfraestruc tura
ĠM UN
Ġcapacidad es
ĠS en
comun icaciones
ĠL una
Ġfavor ecer
ĠAustr alia
ĠC ientÃŃf
Ġentre vistas
Ġrepar aciones
Ġb arra
ar as
RE C
Ġizquier do
ĠT ro
m y
Ġcu yas
Ġjuven il
6 6
Ġjur is
Ġsel lo
Ġbomb eros
Ġinv ita
ĠUn ida
Ġsa que
Ġbr ind
ĠIs las
Ġdispon ibilidad
eta fe
Ġesper aba
Ġch ino
Ġtrans misiÃ³n
ĠEl ena
Ġac ero
. @
i tiva
Ġa qu
ĠAgu irre
Ġdefini tivamente
ĠS ud
as es
tr ico
Ġpapel es
Ġcor reg
s obre
Ġcomen tando
ĠMar ina
iller mo
Ġdin am
ĠmÃŃn imas
Ġorig in
Ġcumpl ido
Ġrom Ã¡n
ĠespecÃŃf ica
ti bilidad
men tal
Ġsan ciones
Ġpon ga
ri e
cer do
Ġepisod ios
Ġdis fra
cep to
ĠT arragona
Viv iendas
c Ã³mo
Ġrecuer dos
Ġelabor ar
Ġinten so
Ġcal deras
ten se
Ġepisod io
ed ora
Ġd amos
Ġmon o
b ana
Ġ" Â¿
Ġprotagon ismo
Ġasoci ados
ue z
a ta
ĠtelÃ©f onos
Ġregu la
Ġmach ista
Ġmag ia
Ġl ine
ĠprÃ©s tamo
d or
med i
Ġconform idad
ar les
Ġ200 2
ĠTur quÃŃa
ĠFor al
ĠJ ames
ĠacadÃ©m ico
T ICA
Ġh und
Ġa ca
Ã ²
Ġmam Ã¡
Ġefici ente
Ġprotocol o
Ġco her
Ġinter rump
IS TORIA
Ġdetec tar
ĠDem oc
re os
tr ica
Ġs p
ĠAu ton
Ġfabr icante
ĠT udela
ĠclÃ¡s icos
Ġtes tigo
ĠP ra
ĠIN TER
w ork
Ġa tac
Ġin a
ĠaÃ±ad iÃ³
Ġplan ificaciÃ³n
u aciÃ³n
Ġrecha za
id Ã¡c
Ġconte mpl
Ġigu ales
Ġal za
ol as
Ġrad ical
x ta
Ġab ur
Ġmedic amentos
Ġutil idad
Ġren uncia
Ġp ea
Ġros tro
respon s
Ġvideoj uegos
Ġanti cip
ĠCur so
que tas
Ġs ent
Ġpreci sa
ig e
An tonio
Ġsol itario
ĠgrÃ¡f ico
Ġcuidad os
on das
Ġcom edia
ĠA ctu
mon s
Ġven tanas
Ġper segu
ĠMin istros
Ġinteg rantes
ĠG ro
Ġcer tamen
ĠL es
ig an
ig h
ĠCad ena
ĠTer uel
Ġr osa
las h
Ġnorm almente
Ġcor tes
ĠC AL
Ġver emos
P in
Ġmili tantes
Ġdepor tistas
ĠR en
Dis fru
Ġind icÃ³
Ġconoc en
Ġaten tados
que ta
Ġhech a
Ġinvol uc
Ġad mite
uy endo
ĠBa ch
Descu bre
ĠCom entarios
Ġc i
Ġpoten ciar
Ġe je
aj ar
pues tamente
Ã³n icas
Ġob tuvo
ĠPen al
ha cer
Ġpec ul
s or
Ġsir ven
Ã©s ar
trÃ³ leo
ÃŃ v
ĠS ofÃŃa
ĠM Ã¡r
Ġentre vis
Ġser ia
Ġem bal
abell Ã³n
Ġzapa tos
ĠComun itat
Ġtemp lo
ĠIn glÃ©s
G P
Ġabs tenciÃ³n
Ġgra cia
h ara
Ġdim isiÃ³n
Ġauto ma
ĠGu ti
S Ã¡nchez
Ġital iana
ĠJorn adas
ĠdemocrÃ¡ tico
ĠespecÃŃf icos
ĠDon ald
ug ÃŃa
Ġdeba tes
aliz amos
ĠJa ime
ĠAs untos
Ġgr ad
Ġins iste
Ġinvesti gar
V e
r illa
ĠIn cl
ĠAg us
Ġlar gas
ĠAz nar
Ã©r ida
Ġeleg ante
ci Ã©ndo
Ġcontin ente
Ġorgul lo
Ġve ÃŃa
ĠB ienes
Ġten Ã©is
ÃŃ das
ĠS por
Ġexcep cional
ĠprÃ©s tamos
Ġin to
Ġim pre
Ġestable cidos
Ġmulti pl
Ġdi je
ĠP RES
V EN
Ġgu ardia
201 0
Ġca fe
j on
ĠmÃºs icos
graf ia
Ġz an
Ġind ign
u to
Ġb ecas
ti zar
Ġbara tos
Ġmo tores
ĠW al
an ismo
Ġapre ci
is to
8 7
pol itan
Ġsal arios
Ġc od
Ġsu ave
Ġcoordin ador
Ġmar i
B r
Ġan si
Ġinstal ado
Ġsign ificado
Ġan cho
tres media
Ġley enda
Ġagr icultura
Ġtelef Ã³nica
Ġpin ta
Ġr uso
Ġnacional istas
Ġsub e
Ġcon gel
ĠH TML
Ġcu Ã¡ndo
Ġus os
Ġidentif icaciÃ³n
Ġac ome
Ġembara zo
Ġtarif as
AS A
Ġpre visiÃ³n
Ġlle vo
m od
Ġpermi tan
Ġvo tado
ĠMic hael
Ġdes in
Ġafec tadas
ĠS osten
Ġagu an
Ġun if
ĠFeder al
Ġna z
ĠEs tre
U nos
Ġton eladas
Ġestr Ã©s
Ġcan ta
Ġriv ales
ran a
Ġ4 3
Ġcuel lo
Ġe usk
ĠS or
Ġamar illo
Ġentr Ã³
Ġdepend encia
ĠVer d
daluc es
ĠC ity
Ġcomparec encia
Ġpier das
Ġpued as
an ista
Ġpresentar se
Ġhos pitales
g adores
Ġmadrile Ã±a
Ġasigna tura
ĠM ED
Ġfi el
ĠL ic
ĠG en
Ha z
Ġinv itado
ĠtrÃ¡ mite
Ġ8 00
Ġdic es
Ġenfo que
Ġto ler
j Ã³
ti cip
Ġex itos
Ġincorpor ar
Ġin gen
ĠCon tra
ad Ã¡
ĠK ar
n y
Ġej Ã©rcito
Ġne um
Ġform ada
Ġbon ita
Ġfacil idad
I TA
Ġperju icio
ĠBer lÃŃn
Ġsal ga
ĠSecre tarÃŃa
Ġutiliz ados
Ġpob laciones
Ġre a
ĠHen ares
Ġh ilo
Ġdiver tido
m ita
Ġperfil es
Ġman eras
ĠD os
tur ado
r ando
la ce
Ġhor no
ĠF l
B O
Ġabier tos
gu as
Ġcor rup
Ġincertid umbre
Ġo x
Ġestadounid enses
3 00
Ġdesapar iciÃ³n
Lu is
Ġdespa cho
es p
Ġsegu imos
Ġmod ificaciones
Ġcre ando
b ella
Ġm ier
Ġac titudes
Ġmuch ÃŃsimo
Cu alquier
Ġmenti ra
ĠZ ona
Ġ( ...)
ĠD I
im entar
Un iversidad
Ġi tiner
Ġb ares
Ġr adi
m adrid
ko a
Ġg ris
tan os
ĠbÃ¡s ica
Ġpractic ar
4 2
ĠB ru
Ġofre ciendo
Ġcin emato
Ġtecn olÃ³gica
aj aja
k u
Ġcul min
Ġrenov ables
Ġab us
Ġsusp end
u ca
Ġcre ce
A quel
Ġconstru ido
Ġsalud able
i torios
Ġmarc ador
TI V
% ).
ÃŃs imas
se Ã±
J avier
Ġas cend
n ing
Introdu ce
Ġintegr ado
Ġser ÃŃan
Ġdestin ados
Ġgener ado
Ġproced ente
ĠdifÃŃ ciles
o tas
Ġapar atos
Ã³ tica
Ġa terr
Ġextre me
Ġna cionalidad
izka ia
Ġsuced ido
tu a
ĠEdi ciones
Ġapoy os
Ġvis itado
Ġadver tido
Ġgrav edad
Ġba Ã±os
Ġpil otos
ĠPer iÃ³dico
Ġofre cido
ĠD ocu
ĠBol sa
ĠVOL UM
Ġinform Ã¡tica
Ġof icio
Ġj unta
Â ®
ĠCon tacto
Ġlis to
Ġorden adores
Ġlabora torio
Ġinforma tivo
era ciones
Cas i
as a
Ġre cep
ĠespectÃ¡ culos
ie te
ĠR esta
ba te
ho p
Ġdi as
N I
Ġimpres ionante
Ġresul tar
Ġceleb ran
In vesti
ĠPr omo
Ġinter v
ĠB ay
Ġesc Ã¡ndal
ĠF al
Ġapar eciÃ³
ĠMar cos
Car los
Ġsupon en
ĠRa Ãºl
In d
Ġexclus ivo
Ġconserv a
ĠJer ez
tr ina
Ġlo ok
Ġcolabor adores
Ġen g
ĠÃ³r denes
Ġproyec ciÃ³n
Ġsatis fa
ĠO ri
Ġart ÃŃstica
ws let
Ãī l
E A
cular es
ĠseÃ±al ar
Ġa ves
ĠPubl icidad
Ġpaque te
Ġch av
Ġcomun ica
s car
Ġfal s
Ġchocola te
cu enta
Ġempez ado
ĠI R
Ġl Ã³gica
Ġinv as
ĠD in
Ġtamb in
ĠC ro
Ġul tr
an Ã©s
Ġconven iente
o te
o t
gu ay
Ġsenti miento
Ġdes eos
Ġconstitu ciÃ³n
Ġdesapar ecido
grÃ¡f icas
Ġinstruc ciones
Ġvalor ado
Ġmas co
ĠLa tina
ĠEx teriores
Ġrecor r
ĠW ashington
loris teria
se a
Ġinstitu to
Ġdiscrim inaciÃ³n
Ġautor a
s ung
Ġ5 2
Ġb omba
Ġb asta
P RO
Ġcay Ã³
6 8
du lo
s us
ĠTom Ã¡s
m us
S ea
men os
ER S
Ġpes ca
k is
ĠE mer
ĠC L
Ġdos is
b Ã³l
IS TA
ĠEs tra
Ġab uso
tar iado
ĠtrÃ¡ mites
p rim
ih ad
Ġpreci so
ÃŃcu las
a S
ĠE MP
Ġdue Ã±o
ĠCon curso
Ġded icar
Ã¡ndo lo
Ġsosp ech
Ġre bo
lo gos
Ġfutur os
ie ga
Ġhec tÃ¡
. :
ĠVillan ueva
Ġo br
w ay
Ġguar da
pe ci
Ġnega tivo
Ġh ielo
ĠQ U
Ġantigu as
c Ã©u
Ġaumen tado
ĠHer rera
Ġfr enar
Ġregres ar
ĠmÃŃn imos
Ġviv imos
Ġcu ch
Ġofrecer Ã¡
r erÃŃa
omos ex
Ġdem ues
Ġex istir
T EN
av es
d ados
Ġdis puestos
Ġaprob ada
Ġedad es
ĠIb iza
Ġdesarroll ando
van cia
ĠR icardo
Ġmate mÃ¡ticas
Ġexpl icaciÃ³n
Ġdef ine
ra be
E X
m io
Ġdenomin ado
Ġpa tio
id i
Ġpelo ta
ĠFin anci
esti ona
Ġacces orios
Or den
Ġgan adores
D ES
p ald
ĠF el
ĠTor ra
Ġop tar
Ġv ib
ul to
ĠUn i
Ġencontrar Ã¡s
Ġun ido
Ġca ÃŃdo
Ġprofes ora
Ġilum inaciÃ³n
re mo
Ġg imnas
Ġh ice
Ġllev amos
and ia
gu era
Ġextraordin aria
ĠW a
ues to
Ġpromo ciones
E di
Ġt Ã¡c
ĠG or
Ġin capa
Ġtu ve
m Ã³n
ĠCons istorio
ĠN i
Ġ8 5
Ġinvestig ador
ĠF r
Ġprevis iones
ĠIn m
Ġemo ciÃ³n
Ã¡ u
cu ando
Ġac aban
Ġtras cend
Ġman tuvo
id able
blogs pot
c Ã¡n
Ġpo p
Ġdis cul
ĠC ic
id ane
ĠnÃºc leo
ĠCons ul
tor ÃŃa
Ġ4 1
ol encia
Ġaband ono
Ġmon tÃ³n
ĠNicol Ã¡s
tan d
enci ado
Ġcu mbre
f or
Ġdin Ã¡mica
Muer e
ĠP ed
N in
qui po
ĠCrea tive
Ġencuen tras
h asta
Deb e
Ġbol sas
ur sos
ĠEnerg ÃŃa
Ġvuel tas
Ġacord ado
Ġsal arial
Ġsu puestamente
Ġver gÃ¼enza
Ġinten tado
Ġcar tera
ch er
Ġobs tÃ¡
Ġnorm alidad
r ador
Ġcul tivo
Ġfor t
g ina
Ġsig o
Ġc Ã©
Ġpregun tado
Ġapun tan
ĠUR L
Ġpared es
V i
Ġd ada
id ro
ĠSec ciÃ³n
co pa
Ġreg ener
Ġcar ro
7 7
Ġtra g
Ġmal as
z u
S ub
ill ones
Ġun ir
Ġextin ciÃ³n
Ġacus aciÃ³n
ÃŃs imos
Ġtranquil o
es ter
Ġcalef acciÃ³n
ĠW i
ob ia
Ġrespe tar
Ġsa cerdo
Ġcap itales
Ġsens aciones
ĠAr quitec
Ġfamos os
T B
Ġten gas
ĠmÃ© dica
Ġsu poner
Ġayud an
Ġarti ficial
pu la
Ġdirec tivos
ĠEs tella
Ġman dar
ĠE H
Ġbus cas
d f
re do
M in
Ġdisfru ta
ĠcÃ³mo do
Ġcompro b
Ġinten tÃ³
ĠD en
ĠMar keting
Ġti rar
Ġdi arios
ĠT el
Prim ero
Ġauto buses
ĠEn fer
on ado
Ġe cos
ĠDele gaciÃ³n
me jor
ĠsÃŃmbol o
ĠCa ixa
ĠDan i
ĠJ ack
i ja
ĠAl to
Ġh uevos
ĠCo operaciÃ³n
Ġindepend ientes
it z
Ġrum bo
Ġpe trÃ³leo
ud io
Ġpar ques
Ġe cu
Ġcap itÃ¡n
Ġadop tar
Ãģ N
Ġmo tos
ĠPubl icaciones
Ġtras pas
ĠC AN
M iguel
ifu entes
ĠCristi ano
Ġlong itud
F al
ĠMÃ¡s ter
ĠDol ores
Ã³m icas
aj os
cion ista
Ġens al
Ġprecis iÃ³n
Ġan daluces
Ġenerg ÃŃas
ĠP uerta
Ġapor taciones
Ġemple os
Ġreun ido
Ġind icar
Ġsu ena
ĠÃ©x itos
Ġpas arÃ¡
ĠJud icial
h esiÃ³n
onos tia
Ġcomod idad
ĠS ara
Ġatra ves
Ġimag inar
Ġconduc tores
ĠV ÃŃa
! ,
p od
el aciÃ³n
Ġfach ada
ĠinstantÃ¡n eamente
I U
Ġinform amos
ter ales
Ġv ÃŃn
se t
ĠB ara
ĠA cuerdo
O P
p us
Ġleg alidad
Ã¡ zar
Ġconven cido
Ġs ar
oc en
R ep
Ġcon tando
Ġmul ta
Ġc able
Ġexpres ado
ĠCom mons
Ġbru tal
rÃ¡f ico
Ġimpl icados
Ġanim aciÃ³n
ul t
tÃ¡n do
Ġllu vias
Ġreg ionales
ĠCor ea
ĠpÃ¡r rafo
Ġmanten iendo
Ġgrab aciÃ³n
Ã³ tico
oo oo
Ġh omosex
Ġclar as
Ġp echo
tos a
ĠIngenier ÃŃa
Ġgo le
land ia
S oci
G al
gram as
ici s
Ġas amblea
", "
Ġenem igo
Ġmon te
Ġcompar te
Ġfas es
ed ras
ĠA ri
Ġart ÃŃstico
Ġobliga torios
ÃŃs ica
Ġadi cionales
Ġtes t
iv ia
ĠO F
oc ar
b en
Ġcon cil
Ġeta pas
lan da
ĠCo pyright
Ġasturi ano
Direc ciÃ³n
Ġdes tina
Ġo este
Ġprofesor ado
Ġcad enas
El la
gar on
Ġreco pil
Ġli tros
ĠM oto
ĠLea gue
Ġderiv ados
Us ted
ly wood
Ġcontrol es
Ġprevis tos
al ista
oci miento
Lu gar
Ġexcl usiÃ³n
Ġadap tar
ti za
Ġmete or
ĠL is
Ġcom edor
ĠJun io
Ġrecord Ã³
Ġfu tura
Ġsuje to
ĠEstatu to
Ġre pu
Ġesc enas
ĠB Ã©lgica
ĠVOLUM ENES
Ġtom ando
Ġviv ÃŃa
Ġe ter
Ġub icada
Ġajus te
ĠCo lec
h h
Ġfundamental mente
Ġcon ducciÃ³n
Ġconoc ÃŃa
AÃ± ade
Ġcas tillo
w ard
ĠautÃ©n tica
ĠD ur
ĠmÃºs ico
ell er
IN G
cis tas
Ġdepend iendo
Ġpas aron
AN TE
Ġsim pa
ez can
Ġsustitu ir
C lar
Ġesti los
on y
ĠV ar
Ġcompar a
cri ta
Ġsan ciÃ³n
ĠCa tedral
Ġhier ro
" )
Ġmed ias
ĠH el
cas t
ĠBel Ã©n
k el
Ġentr ado
Ã©r rez
Ġextra Ã±o
Ġa gencias
Ġagr icul
Ġbos que
Ġbien venida
Ġtecn olÃ³gico
ĠPal encia
Sus crÃŃbete
u ir
Ġd anza
Ġcomba te
Ġdom Ã©s
Ġhub ieran
Ġparticipar on
ĠR A
Ġpermi tiÃ³
ĠN ob
Ġ11 2
ĠmÃ¡s ter
Ġdesarroll adores
man n
4 00
ĠfÃŃs icas
P I
ĠPA ÃįS
Ġmedi ter
C C
Ġrup tura
Ġalred edores
Ġpul s
b es
tavo ces
or gan
Ġpas ta
ĠAn ton
un os
Ġar ries
tif icado
Ġc usto
ĠB A
E G
ĠPas cu
Ġpe ores
C ES
ad era
ĠPro piedad
Ġindivid uo
Ġintrodu ce
Ġimp ide
t za
en tamiento
ĠS tre
ĠCl ÃŃn
ĠclÃ¡s ica
ĠA ires
Ġv era
ĠCom pos
Ġcen tra
ĠA Ã±o
Ġdibu jo
Ġsolici ta
ĠBB VA
Ġadministra tivo
Ġfalle ciÃ³
i quen
T end
Ġemb aj
obili ario
ĠRe v
ĠPD F
Ġpar ad
Ġejempl ar
Or gan
af as
l iga
ĠEn tre
M AS
ib lan
Ã¡nd onos
Ġh Ã©ro
ĠOl ÃŃmp
Ġf ar
4 3
Ġman io
ĠOr iente
Ġsu ya
Ġbo letÃŃn
Ġen ve
C AL
Ġproduc tores
Ġsuper mer
Ġinm ueble
Ġenerg Ã©tico
pe a
f ico
Ġre mar
Ġmor tal
tr aciÃ³n
Ġtrans ferencia
Ġacus aciones
Ġtal la
Ġdes bloque
ĠWill iam
... "
Ġher ido
uy en
Ġserv ido
Ġestu vieron
Ġparlamentar ios
Ġconduc ta
Ġfras es
g es
b ios
Ġar mon
Ġus ado
Ġcre Ã³
g eci
Ġpon emos
Ġgig antes
Ġblan cos
Ġrecha zado
ĠPer Ãº
rÃ¡ c
ĠcÃ¡n ta
ĠespecÃŃf icas
Ġfil ial
Ġdil ig
g io
Ġes tal
Ġ9 5
Ġprev istas
ĠJun queras
ĠMar co
Ġb er
ĠFamil ia
ĠRodr igo
ĠIndustr ial
ĠA con
Ġfra cas
Ġdiscu siÃ³n
? "
vi ar
Ġpes cado
Ġconven cer
ĠseÃ± ora
Igu almente
ĠEs per
ĠF OR
ta bles
Ġpar ados
Ġbaj ada
Ġfinanci ar
ĠÃ©s tas
Ġsob r
cion an
ĠX II
Ġrecib irÃ¡
Ġfuncion ar
Dis eÃ±o
Ġcompeti tividad
pan y
Ġperson almente
ĠAr ro
con tra
ien se
Ġfu ga
Ġacog erÃ¡
Ġsal idas
ĠAs ia
Ġfi jo
Ġrele vancia
ĠRe t
in cesa
ĠD IS
Ġrepar acion
A viso
Ġindivid uos
Ġdesay uno
ĠE dad
Ġnav arra
ĠRe paracion
Ġqued aron
P F
Ġind efin
ĠG etafe
ĠC alidad
ed os
illera to
ĠOn line
ĠhectÃ¡ reas
Ġfin ca
Cu Ã¡l
ĠF uen
ER C
Ġdeleg aciÃ³n
Ġconcur sos
he im
g ol
Ġestad ÃŃsticas
ĠCam pos
Ġdiscipl ina
Ġ4 9
200 7
Ġe mitir
Ġimag inaciÃ³n
Ġcomprome te
ĠpÃºbl icamente
ĠE va
ĠXV II
y l
Ġpro xim
ĠIs lÃ¡mico
Ġindependentis mo
tÃ©r pre
A na
Con tin
h oy
Ġmaqu inaria
Ġhab Ã©is
ec emos
b on
ĠCen tros
ĠP rado
tr abaj
6 7
L iga
Ġca ted
Ġh ÃŃ
tu vieron
Cu atro
Ġpres erv
Ġreg la
Ġp ir
jer as
ĠE D
Ġconclu ido
Ġm ales
Ġal berg
Ġgus tos
aa aa
ĠTecn ologÃŃa
fer encias
Ġconv iene
Ġsu ceso
Ġfun da
bo x
Ġanunci ar
ĠG Ã¼
Ġfich ero
ma te
T rans
ĠclÃŃn ica
Ġrecur rir
Ġretras o
Ġdev oluciÃ³n
Ġpecul iar
Ġfavor able
ĠA U
Ġmin im
di pu
ĠT S
EN ER
Ġmu ro
Pre gun
Ġprim aria
AN DO
Ġdise Ã±os
Ġse min
se x
ĠT ex
Ġoc cidental
Ġfranqu ismo
No ticias
Ġm igra
Ġbor do
Ġexcep to
D D
ĠJ ard
ti ciÃ³n
M en
Ġacces ibilidad
j anos
Ġpreten den
Ġtra er
ol la
ĠEm ilio
Ġres pald
Ġpud e
ĠA so
s t
Ġd idÃ¡c
Ġescri tos
crib irse
Ġfrecu entes
Ġr id
Ġex tender
Ġqued arÃ¡
Ġapos tar
ig or
ĠB Ã¡r
Ġrecomend able
b ien
cion adas
Ġr ica
er ez
CI OS
p ada
ĠPor tal
em ora
Ġpar Ã¡
ita ble
Ġel e
Ġdeci mos
ĠP oder
ĠLle ida
Ġbara to
Ġin cons
vis tar
Ġnuev amente
Ġoscu ro
ĠLuc as
Ġsus tan
Ġm ueve
Ġsome ter
Ġcumple aÃ±os
Ġempiez an
l icos
Ġinten sa
Ġape te
Ġre duc
Ġsentir se
ir ig
segur idad
Ġtes tigos
Ġba u
l ig
ĠC Ã©sar
4 1
Ġre pos
Ġdirec tores
Ġmon tar
Ġsemif inales
Ġmecan ismo
Ġl una
Ġger ente
Ġban quillo
T an
8 9
Ġin tu
Cor reo
' :
gu er
v ez
Ġsu yos
ĠS ÃŃ
Ġh ig
Ġas imismo
F orm
Ġarro z
iforn ia
Ġsus cripciÃ³n
Ġjard ines
Ġcerem onia
Ġcal ificaciÃ³n
I ÃĵN
Ġinclu idas
Ġag ro
Ġaudiovis ual
ip s
Ġv ea
Ġcos tum
D on
Ġdirec ciones
ĠG rado
Ġsa ca
Ġconoci das
Ġnacional ismo
om en
Ġproced er
C S
Ġpol vo
Ġabs ur
M ur
te car
Ġy ihad
ue ga
ci anos
L ES
Ġemple ado
Ġreclam ar
ĠI rÃ¡n
Ġescri tura
Ġmod os
ĠSecre tario
Ġpre dic
Ġdej aron
iv idad
Ġbusc ador
Ġa ulas
An d
ĠMon tero
Ġmedioamb iental
Ġcal ific
Ġcar teles
Ġguitar ra
ced e
Ġalmacen amiento
Ġesco g
Ġtrata ba
e termin
Ġvic torias
Ġes pl
Ġexcu sa
ĠM I
Ġconm emor
Ġg a
ĠMujer es
Ġalcal des
ĠGu illermo
ĠN uestra
Ġdesactiv ados
ĠacompaÃ± ada
Ġus an
ĠDirec tiva
ĠR on
ĠSan d
ĠI ES
Ġhue co
Ġrecu pera
Ġlim itar
le to
Ġnov ed
tÃ¡n dose
Ġtor o
um er
P oco
Ġim pone
Ġmus eos
Ġoptim izar
C l
Ġafec tar
ĠSer rano
Ġdef ici
Ġsorprend ente
Ġplan e
il er
Quiz Ã¡s
Ġaven turas
ili tado
ik i
Ġd ientes
Ġtom Ã³
19 99
C in
ĠR ena
Ġobten idos
Ex isten
Ġdifund ir
Ġcuar enta
Ġdes trucciÃ³n
anim idad
T VE
Ġpien san
Ġsal sa
es tÃ¡
ĠmÃ¡ r
201 5
ex o
Ġimpl icaciÃ³n
ĠG oya
Ġcompeten te
Ġprecios o
Per son
Ġhis tori
Ġver lo
Ġavan zada
Ġllev aron
d rÃŃa
Ġgu apa
cis amente
Ġor al
Ġsub venciÃ³n
o per
Ġvie ja
ĠCan adÃ¡
Ġconec tar
tos o
ĠAma zon
Ġen tero
gr as
ĠFuer zas
Ġde pos
Ġhabl Ã³
grÃ¡f icos
ic ando
ped al
Ġdesaf ÃŃo
Ġtermin al
ĠGuti Ã©rrez
ĠG ri
Ġconcej ala
Ġllam Ã³
enti no
qu eros
L ena
Ġpol Ã©m
Ġf usiÃ³n
ches ter
N e
Ġviv iÃ³
Ġportu guÃ©s
il do
ĠL orca
Ġcan tar
Ġcandida turas
ED AD
ma gen
Ġtren es
AD OR
Ġgol f
iv era
Hab lamos
igu iendo
Ġca pi
Ġcerv eza
Ġf ama
ĠBre xit
Ġcu otas
Ġter cio
Ġinm uebles
Ġreconoci Ã³
ar los
Ġver tic
Ġfom ento
Ġt Ãºn
Ġdistr ito
Ġutiliz ada
TR OS
Ġmin istros
ĠC and
ba ck
IN O
Ġl ingÃ¼
ter ias
i ante
ĠRober t
H O
u u
Ġsus tancias
Ġbra zo
Ġal ianza
ĠCas as
t Ã©s
Ġper si
ĠV era
ĠSec und
?? ??
Ġd ram
Ġsecund aria
b iles
Ġs illa
Ġdep Ã³sito
uc es
ĠAlcal d
v echa
Ġcontemp lar
Ġpeti ciones
ten idos
Le er
Ġfrances es
ĠCh a
iÃ©n do
ĠS ig
ier es
dr ome
ard e
Ġcomenz aron
id ia
ĠCom paÃ±
Ġter remo
Ġcarb ono
Ġre loj
Ġbloque o
Ġte mÃ¡tica
c Ã©n
ĠVo z
Ġpos teriores
ĠR ol
Ġnombr amiento
g ener
Ġf icha
ĠF o
ĠM end
Ã ¶
Ġencan to
Ġle gado
Ġinm igraciÃ³n
ĠCon d
Ġunivers itaria
Ġcircuns tancia
Ġgol pes
ĠBuen os
all ado
Ġau la
ĠFer r
" ...
ĠSe gura
Ġperd Ã³n
Ġal tamente
car ga
ĠN Ãº
Ġad s
ĠB i
yo utu
ÃŃ e
Ġab o
te x
Ġmedio dÃŃa
Ġc e
Ġcoin ciden
t ÃŃan
Ã³ dulo
Ġex haus
Con f
Ġrecog ido
AR IA
E F
il le
ola u
ĠL eo
A g
Ġconv ierten
ĠG r
Ġf este
Ġcuan tas
Ġproced e
ĠÃ³ pti
Ġsec ciones
8 6
Ġco pa
ĠConce jal
Ġpr iva
Ġpodr ÃŃamos
j arse
Ġsu ministr
Com par
Ġver la
Ġestable cen
Ġex ci
ĠD VD
Ġdirec tos
Ġmovil izaciÃ³n
Ġmis terio
Ġm m
Ġacostum br
Ġsien ten
m Ã³s
ra ya
Ġfa cultad
Ġdob les
Ġconstituy en
Ġdesemp le
rec ciÃ³n
ĠBo letÃŃn
Ġrefer ido
Ġp ales
Ġpala cio
Ġregistr arte
Ġadjud icaciÃ³n
ĠZ a
Ġdere chas
Ġtri ple
g icos
Ġul tra
Ġcon tro
Ġencan tado
ca v
Entre vista
M Ã¡laga
ĠAlcald e
Ġferro vi
ĠP ola
Ġdes cripciÃ³n
ad es
tura ciÃ³n
t le
ĠTrib u
ĠB izkaia
Segu ro
Ġgras a
Ġbiblio tecas
an al
Ġex tend
Ġimag in
Ġejecu tar
tiv ar
UE L
Ġconf und
ib e
Ġameric ano
Ġenem igos
Cu Ã¡n
Ġtr ucos
Ġcompues ta
Ġcomprome tido
ĠCon ferencia
ĠC ara
ĠSu iza
ĠB ien
Ġver Ã¡
Ġ( +
ĠMar c
ĠC F
Ġcu entos
Ġcombus tible
Ġten gamos
Ãºm ero
Ġcompar ten
geci ras
te z
Ġdescar ta
Ġlim itado
ER N
B ajo
Ġ7 00
ĠCompos tela
Ġex cur
ĠM AN
Ġmon eda
aliz an
Ġsens ibil
c Ãº
ĠMar ÃŃn
ĠU l
Ġin esper
Ġmens ual
Ġperten ecen
Ġen cier
ĠT ras
P AR
Ġpin tor
Ġinf in
g od
Ġnombr ado
Ġjuz gados
Ġdipl om
ĠH i
Ġcor tar
Ġemo cion
Ġpro bado
Ġindis pens
a ger
Ġta x
Ġdescu bre
Reci bir
Ġprop ici
ĠS ha
j idad
der ÃŃa
Ġdirec tiva
Ġsol dados
Ġmier da
Ġide ologÃŃa
Ġtr u
Ġdestin adas
l ib
Ġtra tando
O B
Ġgan adora
Ġurb ana
Ġin Ã©di
Ġequival ente
Ġtitular idad
Ġolv idado
V ic
ĠP LA
ĠPad re
ĠN UE
h ÃŃ
Ca tal
ab ar
ced entes
Ġexpres ar
Ġescu do
Ġes enciales
Ġproduc tor
Ġsu puesta
ĠElec toral
ĠVal Ã¨ncia
Ġhabi tualmente
Ġfru tos
Ġhac ÃŃan
ĠAl ma
Fern ando
h ola
Ġg afas
Ġvoc aciÃ³n
Ġmon itor
gu lo
y mes
ĠR stica
Ġsal drÃ¡
Ġdep ender
ĠAcon dicionado
ord en
Ġgalard Ã³n
ĠEl che
ĠTele fÃ³nica
Ġch u
Ġexig encias
Ġbeb idas
Ġdirig idas
Ġpo quito
ĠRub Ã©n
b ara
Ġgener almente
il iar
Neces itamos
g nos
Ã¡n eo
ul ares
ĠViv ienda
Ph one
Ġpatr onal
Ġfas cin
ĠG uer
Ġhi jas
Ġrevis ar
Ġ199 9
Ġofici almente
Ġexpul siÃ³n
Ġlengu as
l Ã³n
Ġbord e
c amos
Ġdeber es
Ã±a ki
Ġperman encia
Ġvi tam
Ġsatisf echo
ĠA venida
Ġpid iendo
end os
fin anci
ĠCal vo
cion alizaciÃ³n
N ueva
Ġran king
ĠT VE
Ġtitu lado
Ġs Ãº
Ġper cepciÃ³n
D avid
Ġrecib iendo
to m
ĠM AS
Ġhi pÃ³
Ġpres ta
Fu entes
Ġsim pl
cin g
Ġl Ã³gico
Ġmin isterio
Ã± ada
ĠF iesta
Ġdesarrol lan
ĠDoc tor
Ġse pa
Ġequip amiento
Ġcomerci alizaciÃ³n
ĠMor ales
k ar
u ar
Ġdorm itorios
Ġca z
Ġval enciana
Ġnav arro
Ġesca par
b uen
Ġvari able
Ġprev ios
Ġrelig iosa
Ġtra tan
J es
Â ±
6 9
en ce
gip to
G rupo
Ġav iones
p ur
ĠMÃ¡r quez
n d
Ġfo co
Ġten is
Ġtarif a
Ġacces ible
Ġllam ados
Ġmala gue
Ġcon taba
ĠPer iod
as tas
os idad
cl ado
Ġjustif icar
Ġcre adores
Toda vÃŃa
f ac
ĠV ida
Ġcab ec
ĠÃº tiles
Ġrespec tivos
Ġi ra
Ġlig eramente
S ec
ARC EL
tu mbres
Ġqu ir
A f
ĠVie jo
Ġh umo
rÃ¡ fica
ĠLe vante
tra c
ĠO urense
Com ien
M or
se lo
Ġileg ales
Ġdetermin aciÃ³n
Ġpor ta
Ġcab all
Ġc esiÃ³n
Ġgas olina
ten as
Ġrecuer dan
Ġin yec
j ando
Ġcre ador
Ġcos tas
Ġprepar ados
Ã³ x
Ġrepar tir
Ġsur ge
P L
Ġfil as
Ġvis ible
Ġpis cinas
ud ÃŃ
ĠB ri
Ġp Ã¡
ĠInd epend
Ġclar idad
er io
Ġo ÃŃdo
P ul
Ġpu ra
6 00
ĠG in
ĠMar i
Ġcompa tible
ÃŃ genes
ĠE SO
Ġobserv a
er es
iz os
Ġis rael
Ġleg i
Ġne wslet
Ġdim ensiÃ³n
Ġvues tros
Ġque do
Ġsig nos
Ġde dos
Ġapartam entos
Ġconvoc ar
Ġven gan
ĠEx per
ĠSe gu
Ġtrad ucciÃ³n
Ġin ev
Ġinici almente
ĠU U
Quiz Ã¡
201 2
ĠRoc k
r ios
Ġ6 4
Ġconcre tas
ĠCON S
Ġm igrantes
ĠFron tera
Publ icar
ĠG ib
d era
Ġra za
... ,
ĠA bril
ĠIr landa
ĠAl cor
if a
Ġposible mente
Ġconsecu tivo
Ġfemin ista
V a
en tas
Ġol ÃŃmp
Ġder iva
Ġverd uras
Ġ tos
Ġd ona
C ul
Ġl omo
ol io
oc os
Ġenfrentar se
I gles
ta tiva
Ġdes tro
Ġat mÃ³s
Ġsepar aciÃ³n
Ġalcan zÃ³
tud io
le os
Ġflamen co
T ube
ĠPas tor
Ġpi edras
Ġcrim inal
qu ita
Ġdispu ta
Ġla tino
ĠseÃ± ales
Ġanti gÃ¼
Ġconcur s
Ġson d
ĠMon tes
Ġconcre ta
ĠT U
ĠA VE
ĠFran k
Ġsue los
ĠOb s
l ite
ĠBe tis
Ġac tÃºa
us s
Ġunivers itario
Ġpud iendo
Ġfal l
Ġen cla
ĠIra k
Ġfalle cimiento
Ġcerr ada
Ġcontinu o
m un
Ġconf ÃŃa
f iel
Ġinter cam
c ero
Ġinf lu
Ã± an
Ġfeder al
Ġc emen
Ġol iva
Ġcre cido
Ġarquitec to
Ġtro pas
Ã© ticas
Ġb y
Ã¡g ina
ĠseÃ±al an
ues os
re ll
Pre cisamente
Encuen tra
Me jor
Ġfr ustr
Ġsu ple
Ġfron tal
Ġun animidad
Ġque m
Ġtradi ciones
Cons igue
ĠM emoria
Ġb esos
ĠperiÃ³ dicos
Ġfich aje
Ġh arÃŃa
r Ã©
tr uye
Ãº d
e uro
ĠIn tegr
Ġtestimon io
Ġentre gado
Ġevalu ar
Ġcam ar
Ġa gar
Ġvisu alizaciÃ³n
Ġrela tos
ec ÃŃan
M us
ĠC ifuentes
pl u
in ho
Ġpropa ganda
ĠA gua
Publ icado
ti pos
ines s
S Ã©
Ġaprend iendo
Ġrecur r
ĠG RAN
Ġc Ã©n
Ġos cur
Ġocur rir
Ġcomer cios
H A
eg aciÃ³n
EN TA
Ġrec tificaciÃ³n
ud encia
Ġsub ven
Ġman ga
Ġcuan tÃŃa
Ġcorrespon den
Ġinm ers
Ġta baco
Ġpens iÃ³n
T RE
Ġpais ajes
Ġs tock
ĠMon t
Ġconlle va
Ġmu Ã±
Ġ ida
Introdu zca
Ġfres co
es c
Ġbrasile Ã±o
Ins tal
uer te
- )
Ġs martph
Ġfru tas
ch en
Ġacced e
ĠA tresmedia
Ġadv ir
m ol
Ma Ã±ana
Ġregres a
Ġdesf ile
E P
Ġcas ti
Ġesta mp
Ġend e
ĠHol lywood
ĠE cu
Ġgu iÃ³n
Ġdec ora
Ġdel incu
Ġr aro
Ġresul tÃ³
Ġcre ma
Ġob tiene
Ġgra bado
ĠLe on
Ġtraslad ar
Ġenfer mos
ĠCom pe
Ġcu lo
Ġped a
b ran
Ġre torno
Ġesper ado
ÃŃs o
Ġdestin ada
Ġencontr arse
Con tac
Ġprovoc Ã³
Pu ig
id ra
Ġes ter
ie ta
Ġev acu
Ġescri tores
Ġad mir
Ġfel ices
v ersiÃ³n
D a
ĠR ich
Ġalcan z
Ġtrad uc
Ġmed ir
Ġdisfru te
Ġg iro
Ġcor e
Ġcentr ado
ĠW h
ic Ã³p
Ġobten ciÃ³n
Ġado pciÃ³n
Ġasum e
cion ario
Ġdesgra cia
Ġcar o
Ġregistr ada
Ġrecon s
vil Ã©s
Ġmar ro
ci encia
Ġre en
Ġauto mÃ¡ticamente
Ġin cur
Ġv ieron
Ġrepres iÃ³n
an n
Ġju gado
an der
ĠcrÃŃ ticos
w eb
Ġcin cuenta
Ġmex icano
Ġsufici entemente
Ġcon fec
yec tos
la ves
Ġfrecu ente
Ġafili ados
Ġlibertad es
onal do
Ġtar des
Ġre pl
ĠCal deras
ca u
Ġenf oc
Ġpele a
Ġagres iones
Ġne uro
tu l
Ġsuper vis
og ados
ĠAl l
ĠEsper anza
Ġcompon ente
IS MO
Ġde do
col as
Ġcu ra
ĠAB C
g s
Ġad quier
ĠM ana
Ġp enas
Ġrap idez
Ġbeb Ã©s
Ġpr endas
Ġdescubr imiento
ĠCon trol
Ġprohib ido
ĠG reg
IN E
b res
dol fo
y D
In icio
Ġinforma tiva
ĠCal der
Ġmo ch
Ġfutbol istas
til idad
Ġ5 7
Ġgal erÃŃa
M ir
z ana
Ġgar aje
TE L
Ġad en
Ġcompr ensiÃ³n
Ġcos tumbres
Ġaprovech ando
Ġprecios a
Ġarran ca
Ġmane jo
Ġch is
Ġencar gada
Ġnorm ales
ĠDu ero
bo a
Ġb n
Ġabr irÃ¡
Ġten ia
5 9
Ġcerr Ã³
Ġplante ado
to les
Si tu
ĠConf ederaciÃ³n
Ġencan tan
Ġdro ga
Ġpon go
Ġor g
Ġfal so
Ġproduc tividad
San ta
. '
er aciÃ³n
Ġluc ro
M od
Ġir se
Ġprohib iciÃ³n
ĠV el
ĠÃĵ scar
Ġsub asta
eci eron
Ġdeb ut
ĠV ila
Ġsus tituciÃ³n
min as
Ġsub raya
Ġal turas
ĠSeÃ± ora
Ġder rib
D icho
Ġdes eas
Ã³g icas
Ġpi ra
Ġconcur r
ĠG R
Ġpa gan
Ġto man
re jÃ³n
Ġmatr icul
Ġnerv ios
Ġpuer tos
em e
ila teral
Ġr usa
Ġsorprend e
Ġposi cionamiento
Ġpatr imon
ĠPue blo
E r
ac ciones
ĠAnd re
Ġmonta Ã±as
ĠMa te
Ġdeb u
Ġ Ãļ
Ġin al
ĠMas ter
Con se
im ento
Ġsub ido
Ġnov elas
ĠCom prom
Ġcancel aciÃ³n
f ord
ĠT re
ĠT am
ĠÃ¡r bi
Ġexplos iÃ³n
ed io
f an
Ġvis ibilidad
S elec
Ġsac ado
ĠB las
pe ta
ĠJ ean
ĠF iestas
C AR
ĠAc ces
Ġdem Ã³cra
tr i
IC OS
Qu ien
in da
ĠT res
Ġaconse j
Ġarran car
Ġpus ieron
Ã Ĥ
y u
ĠG em
ARCEL ONA
Ġaspir antes
Clar o
ur ia
ĠAutÃ³n omas
Ġcabal los
ĠRub io
Ġeduca tivas
Ġcostum bre
pue d
tro p
Ġespec tador
Ġsuperviv encia
Ġpens aba
Ġins is
ĠF A
Ġconvir ti
Ġsus cribir
Ġne gros
Ġcristi anos
Ġro to
pued e
con f
po ol
Emp resa
o tras
ra ba
M C
Ġcurios idad
ĠUnivers idades
Ãĳ OS
ĠRec ursos
tas e
Ġintrod ucciÃ³n
Ġotor ga
in eo
p rar
vo z
Ġag reg
ĠPr ensa
Ġdu pl
Ġ5 4
Ġperd iendo
ĠS IN
ic to
Ġlic encias
Ġch ef
c ena
Ġten ÃŃamos
Trab aj
ch u
Ġ5 1
ĠAt lÃ¡n
cu las
ĠEmer gencias
ĠO pera
B log
g il
Ġco le
Ġpag ina
Ġfarma cÃ©u
Ġcotidi ana
Ġrenunci ar
z ones
Ġatra er
Ġvend ido
Ġparticip Ã³
ill ado
Ġmarc Ã³
Ġfr ÃŃa
S o
Ġas istido
ĠVerd e
Ġcam iÃ³n
Ġdi jeron
tam arÃŃa
tion s
Ġs eno
x x
et h
Ġlim ita
Ġbols illo
Ġma pas
Ġpal o
Ġpromo cionar
Ġf la
Ġins tancia
ĠP el
Ġsa tÃ©
tor o
in dic
Ġm ÃŃo
Ġhab iendo
Ġfru ta
ĠP od
E d
Ġbancar ia
ĠF is
ob os
b ados
Ġcompa tibilidad
Ġa o
Ġreporta je
tr ados
ĠImp uesto
Ġcap ÃŃtulos
or r
Ġcom idas
Ġven ga
Ġhid ra
Ġfu turas
Ġven ÃŃa
Ġcompon en
Ġjue gan
Ġex quis
Ġpresen tamos
tam biÃ©n
A prend
e us
E v
Ġpatr Ã³n
ĠRE G
ol i
Ġfil m
y an
Ġestudi ando
Com entarios
Ġsex ta
di e
Ġab er
ĠBienes tar
Ġir Ã¡n
ĠVer dad
Ġsenti dos
Ġo y
Ġpla y
ver tir
6 1
Ġg ay
Ġapas ion
Ġsup uso
Ġingenier ÃŃa
Ġfor os
e al
ĠF ra
Pos teriormente
Ġmol esti
Gran ada
Ġsex to
Ġcolum na
Ġdi arias
Ġau ten
Ġaclar ar
in ero
Ġpro poner
Ġma il
ta tivo
N G
Ġre puestos
Ã¡m icas
Ġdes esper
Ġn or
ĠJ U
ik el
ĠCompaÃ± ÃŃa
ĠcuÃ¡n to
Ġplante ar
ĠAn im
Ġconex iones
Ġmed alla
ĠG U
Rec ord
Ġdes pues
Es pecial
Ġlle ve
EM OS
f ono
Ġadministr ador
Ġcaracter iza
Ġbron ce
Ġch ina
ald e
Ġin tÃ©rpre
Ġinter nos
Ġsufr imiento
Ġfac turas
Ġmaes tros
Ġsig las
ĠRe laciones
ĠPas eo
Ġsp am
Ġex al
Ġaven ida
Ġhel icÃ³p
Ġseman al
ĠJav aS
ĠA v
7 9
plu tense
ĠR Ã©gimen
gun do
In f
Ġgu a
Ġtra te
Ġinterpre tar
ĠSam sung
ern am
Ġcre an
ĠL GT
Ġguer ras
ros o
ĠatmÃ³s fera
Ġelev ada
Ġreno var
ĠJavaS cript
Ġlan zÃ³
Ġd oy
ÃŃ tico
gr imas
Ġacog er
Ġdeterior o
jal Ã¡
Ġmir ando
Ġfi jar
8 00
Ġcomen tÃ³
Ġilus traciones
Ġimp id
Ġf ri
Ġpoten ci
ĠGrand e
Ġavan za
ĠL ec
y r
Ġgener an
Ġes pon
americ ano
Ġincumpl imiento
Ġsatisfa cer
Ġc eder
je tivo
ĠCuer po
ĠelÃ©ctr icas
ĠS ac
Ġreg lamento
Ġto cado
Ġgra ba
lave ga
Ġrey es
qu Ã©s
ĠMer can
AR IOS
Ġcom ar
Ġdenomin ada
Ġcono zco
c aciÃ³n
j ana
Ġauto mÃ¡tica
! .
Ġag red
Ġinmobili ario
Ġviol aciÃ³n
200 9
pro duc
d ef
Ġsem estre
Ġpas adas
Ġcomple jos
Ġpresid entes
Ġconven ios
ĠestratÃ© gico
Ġg ato
Ġar co
americ ana
Ġlar gos
Ġap p
U RA
T UR
Ġtecn olÃ³gicos
Ġllam amiento
Ġdesp leg
ĠI S
Ġcons istorio
Ġdir ÃŃa
Ġdes alo
sas una
O n
Ġdia gnos
Ġ5 6
ĠVal verde
Ġcomien zan
ĠMo tor
Ġagricul tores
Ġazul es
ĠCal ifornia
P ER
Ġcons ens
ĠB omb
Ġeusk era
Ġm ÃŃa
ĠL ara
Ġgratu itos
Ġc ese
ĠV in
Ġpar t
R ema
ĠIn te
Ġneces ariamente
ĠEmp rend
Ġimp uso
Ġcr Ã³nica
ĠLa tino
Ġapell idos
Ġcomple mentos
uc ar
ĠGlo bal
Ġintegr ada
Ġm ural
ad ir
Ġrela tivo
isten tes
Ġensay os
contr ol
ĠT ab
E j
Ġcen tÃŃ
Ġpor terÃŃa
Ġdetermin ada
c ÃŃas
no ticias
ĠM O
ĠNeg ro
Ġch al
Ġconfirm aciÃ³n
Es tÃ¡n
Ġin cidente
Ġreun ir
Ġcerr ados
Ġref res
S im
Serv icios
Ġmaravillos o
ĠSecund aria
Ġdar Ã¡n
ĠJul iÃ¡n
ipu z
Ġfib ra
Ġc ro
Ġcapital ismo
ĠMed ina
Ġro daje
Ġsindic al
Ġconform an
Ġgan ando
lo w
Ġal iv
min os
Ġacom paÃ±a
Ġfr en
Ġllev arse
ĠVO X
ind e
CION AL
Ġreivind ica
Ġhermos o
ic arÃ¡
Ġor ÃŃgenes
Ġperfec ciÃ³n
in Ã³
Ġ6 8
Ġcopi ando
F C
Ã¡s ico
Ġacord e
Ġentre tenimiento
ĠTele visiÃ³n
z ob
Ġ7 2
Pres entaciÃ³n
pol i
Ġdesconoci do
ĠAlf redo
Ã¡r ma
in to
Ġg rÃ¡fica
E O
b el
Ġrequier en
Ã©c do
Ġmadrile Ã±os
em o
Ġcul turas
a cin
Ġtrabaj adoras
C os
ĠF un
G UN
ĠP UE
H os
Ġcons tancia
Ġ9 9
ÃŃn as
ĠCom ple
ĠP sic
n s
ĠN ar
omb ro
El los
Ġven cer
Ġgra bar
ĠCom is
Ġcomple jidad
Ġ199 8
ar en
Ġconstante mente
Ġacon di
E m
ĠStre et
Ġampl i
Ġoblig ados
ĠGar zÃ³n
d ero
Ġaprend ido
al caba
Ġatra v
ĠcÃ¡l culo
ĠNÃº Ã±ez
Ġins piraciÃ³n
Hab rÃ¡
que o
m ala
Ġenve je
Ġjus ta
T Ãº
Ġcambi Ã³
I J
Ġo posi
no va
ĠescÃ¡ndal o
Pro yecto
Ġfactura ciÃ³n
il as
ĠL U
Ġb is
Ġcab ello
ĠT IC
ĠEspa a
Ġsimul tÃ¡n
ĠLeg anÃ©s
ez o
R ivera
Ġ5 3
Ġbos ques
Ġdefec to
s ub
Ġdispar o
L lev
Ġinten ciones
Ġhipo teca
Ġansi edad
Ġcomple mento
ad ar
Ġre por
Ġparti das
Ġestud ia
Ã³me tro
ob laciÃ³n
Ġvesti r
Ġenfren tamiento
Ġex pone
Ġtr aje
Ġ( -
n ica
Man uel
m ÃŃn
am Ã¡
ĠSue cia
Ġins trucciÃ³n
dad es
a ch
Ġre ino
Ġs ensa
Ġlim pio
ĠacompaÃ± ados
Ġconm emora
Ġpaci encia
ĠestÃ¡n dar
Ġamp aro
er ica
Ġdispon emos
Ġarreg lo
Ġata car
ta te
Ġinter ven
Ġpantal las
; )
cla je
ĠE u
Ġdiver tida
Ġen gan
Ġqued ando
Ġale manes
Ġsal va
ĠLu z
ĠO bras
Ġindependiente mente
AD AS
Ġamar illa
ĠportÃ¡ til
Ġk e
Ġamb ul
iten ci
TU RA
ĠGonz alo
ar to
F er
Ġas om
Ġl Ãº
ci tos
ecre tario
ier ro
Ġimpar tir
Ġp bl
Ġt ÃŃo
teg i
w in
ĠenseÃ± ar
Ġconvoca torias
Ġadecu adas
Ġextra Ã±a
ĠT orn
l adas
Ġmin is
Ġpoli tica
Ġsus crip
Ġmas iva
Ġfun cional
Ġfort una
Es crito
Ġver te
ob a
Ġplen amente
id entes
Ġadelan tado
ga ta
ĠCom plutense
Ġl ados
Ġhipo tecas
Ġreflex ionar
Ġmuer tes
f loristeria
qu erÃŃa
Ġg entes
Res ervados
ĠR onaldo
ĠArch ivo
por tivo
Ġsin cer
ĠG om
Ġguar dias
Ġev ita
ragon Ã©s
Ġpis to
ĠES TA
Ġbille tes
H as
ĠA ce
ĠCond e
Ġloc alizaciÃ³n
on Ã©s
L leg
v ir
ca te
Ġdesped ida
Ġcicl ista
V ia
Su per
Ġsum ado
Ġacercar se
ĠcontinÃº an
Ġo ch
Ġcambi ando
ĠSO BRE
P ens
Ġofre ciÃ³
Ġa rag
Ġac or
gu ero
Ġdes cal
@@@@ @@@@
b ul
ĠC I
Ġobliga torio
ĠM ADRID
ĠEmpres arial
Ġencontr aban
Ġp le
ĠS of
M ad
ĠCamp us
Ġla mentado
ĠMad uro
N uevo
ĠCaball ero
id ora
Ġsuje tos
Ġsobreviv ir
Ġdeten er
ĠS elecciÃ³n
ĠÃ© tica
ĠGu in
Ġres pira
Ġdetal lado
log ÃŃas
ĠcÃ³mo da
Ġin ad
ĠB aja
Ġproducir se
ĠprÃ¡c tico
F otos
Ġte mor
ĠSpor ting
Ġlimpi ar
Ġhoriz on
Ġmagistr ado
ĠF Ã³rmula
a hora
Ġen cam
Ġalim ento
G AR
Ġdu cha
Ġjugue tes
ge la
Ġrestr ing
j am
Ġrazon able
ĠJorn ada
ĠA bas
in k
ĠB M
ĠCa pital
if icos
Ġdesp ido
Ġviv os
Ġt ÃŃ
Ġrub ia
ĠTerri torial
Ġmarro quÃŃ
ĠS el
ĠE gipto
Ġloc alizar
Ġdes pro
Ġex puesto
d onde
ab ul
is sa
Ġdemues tran
Ġqu ie
Ġm obiliario
Ġdesarrollar Ã¡
d ea
Ġvesti dos
olog istas
ĠC Ã¡n
Ġinter fa
Ġ7 4
ĠS co
Ġmer ecen
ti embre
Ġar ru
ĠantigÃ¼ edad
Ġna tal
Ġnov io
Ġro bar
Ġconfirm Ã³
Ġcon tag
Ġclar os
ĠE fe
Ġprove edor
cul tura
ĠTribu taria
Ġsenti mos
tu oso
Ġfestiv ales
ĠPac to
Ġper dida
Ġsu po
Ġadap tarse
Ġo la
ĠBea triz
Ġpro cur
Ġespiri tualidad
Ġ5 8
Ġ5 9
ĠraÃŃ ces
ĠQ uer
Ġb end
ific an
ĠgrÃ¡f icos
Ġrealiz arÃ¡n
ĠRiv as
Ġdes mon
Ġse co
ĠP O
ĠH al
im entaciÃ³n
Ġmol es
Ġsorpres as
Ġinv is
Ġform al
Ġd uros
L oc
Ġmin or
Ġqu ita
Ġfuncion ario
Ġres um
ĠAgus tÃŃn
Ġsupon drÃ¡
Ġarquitec tÃ³n
Ġagru pa
g et
Ġdesas tre
ga t
Ġdisposi ciones
Ġl lan
ĠBel las
" Â¿
Ġin timidad
ĠX III
uev en
Ġper tin
Ġcal ifica
Ġemprend edor
Pro grama
Ġmetodo logÃŃa
Cin co
Ġespeci alidad
ub o
ĠB io
Ġque jas
Ġs how
ma y
T om
Ġinev itable
ĠInte lectual
Ġarran que
Ġcamp us
ĠTÃ©cn ica
Rema te
i tores
Ġurb anos
Ġherman as
B ur
ĠLav avajillas
ĠR EC
ĠNob el
Ġespectacular es
Fran cisco
Un as
Ġe f
E res
Ġencuen tre
en tado
Ġta ur
Ġaplic able
Ġactiv ar
Ġno ble
Ġincre men
Ġvie jos
tro cer
Ġpresent adas
ĠEn tidad
Ġsober anÃŃa
ĠC oci
Ġaf irmar
Ġrealiz amos
ĠI vÃ¡n
ĠU s
ĠB ajo
Ġmanifes tantes
n ia
ĠO ctubre
ĠAz ul
Ġun en
Ġroj iblan
. ),
Ġc iencias
A pp
Ġlum inos
Ġsum erg
Ġhoriz onte
Ġperteneci entes
Ġterr ible
il ip
Ġen cend
ĠJ on
Pro fes
Ġbar cos
Ġco ca
ab il
tur ar
Ġgalle ga
ĠObs ervatorio
ce lo
ĠGe orge
ipuz koa
ĠÃ¡ rabe
Ġac ta
ĠES T
Es cribe
ĠC lar
Ġex posi
r ic
s ion
d ro
Ġtrag edia
and Ã©s
Ġatrac tivos
ven ientes
Ġrealiz aron
ta cin
ĠCab ildo
Ġtranquil a
D er
E lec
ĠG us
Ġfal sas
Ġo lor
Ġreco gen
Ġocas ion
Ġmenti ras
Ġaer ol
Ġvig encia
Ġan Ã©cdo
Ġdesarroll ada
Ġma cro
ĠR og
7 6
Ġpresentar on
Ġliber al
ĠBern ab
Ġcir ugÃŃa
Ġcon quista
Ã©l ix
ĠPr ÃŃncipe
ĠT em
ral tar
Ġtor ne
Ġmarc ada
Ġsu presiÃ³n
Ġre ple
Ġdel ic
U B
Ġfal sa
Ġrecaud aciÃ³n
ĠRes pons
Ġreconoci dos
Ġestuv iera
Ġcre es
Ġhici era
Ġincid entes
gues a
L lam
O f
ros a
Ġoper adores
ĠC V
ĠNe go
Ġpac tos
Disfru ta
Ġexcel entes
Ġvend en
d Ã³
Ġperspec tivas
Ġdes crib
Ġaustr al
tici pa
ĠTrab aj
Ġen tornos
j unto
Ġecol Ã³gica
CÃ¡ diz
Ġis lam
ĠcompaÃ± era
Ġlim pia
Ġcomien zos
V ER
Ġsatisf ac
Ġj er
Ġconsider ada
Ġcar n
Ġsuger encias
m ith
per s
Ġmotiv aciÃ³n
dic es
ĠF an
Ġch il
Ġbr illo
Ġmis terios
ĠAD N
ĠCOM O
te ado
Ġaf ortun
ĠGuar di
Ġasoci ado
ĠP AS
ĠDis ney
Ġpar ezca
Ġeleg ida
FOR MA
o ce
ĠmÃ¡xim os
te le
Ġjubil aciÃ³n
ĠV idal
ĠBen ito
Ġencontr aron
Ġdej arÃ¡
il os
Ġjoy as
Ġdenomin aciÃ³n
Ġreclama ciones
cul ada
lar aciÃ³n
Ġsusp ender
Ġ199 7
un cio
ieg ue
Ġescas a
Ġindic adores
ma go
Ġas us
ĠCarm ena
7 8
ad ell
Ġex ista
Ġem er
em in
Ġprepar ando
Ġconsigu en
tr adas
ar ch
ĠSan tamarÃŃa
Ġmanipul aciÃ³n
Ġc lan
Ġaqu Ã©l
Ġrod ea
Ġetique ta
er ales
Ġultr ader
Ġdu re
g obierno
Ġpres unta
j adas
ĠIns trucciÃ³n
Ġriguros o
Ġdes ierto
Ġsobre todo
gr ada
ĠPes ca
Ġal ine
Ġ199 6
Ã¨ s
ĠCos pedal
Ġded icaciÃ³n
ĠN BA
ur g
Ġabor to
co pia
Ġposi tivos
an ge
rÃ¡ tica
Ġp av
p istas
Ġr ÃŃos
Ah ÃŃ
Ġsim bÃ³l
val uaciÃ³n
Ġparticipar Ã¡n
Ġexped ientes
Ġapartam ento
Ġdistingu ir
ĠPER S
Ġcorre os
Ġmon stru
Ġ6 1
Ġden omina
ĠGre en
Ġconserv ar
t ch
Ġexig encia
Ġdes h
Ġagrad ecido
iz ador
ici embre
Ġfortal eza
Ġpas aba
ar s
Ġgri ego
ĠHol anda
ut m
ĠMan olo
Ġfuncion an
Ġreconoci da
rab ia
Ġp p
Ġsigu iÃ³
Ġempez ando
Ġcaus ado
ĠEn cuentro
ĠA T
ciden cias
Ġcu ero
V olver
ĠMar bella
ĠT rÃ¡fico
no ticia
ĠFu entes
Ġne ur
ĠSER VI
tor e
Ġlim itada
a co
Bus ca
ĠP OL
Ġjuris dic
que das
Ġcolec ciones
unda ciones
ĠdiseÃ± ar
ĠparÃ¡ metros
Ġingles a
Ġinfer iores
min utos
F rente
Ġterap ia
ĠÃ©po cas
is t
un e
Ġmonum ento
Ġrum ores
Ġllam aba
Ġrepas o
G EN
Ġtrabaj adora
Ġter n
tar lo
Ġentr an
Ġcaracter ÃŃstica
Ġprome te
col ar
Ġinform Ã¡ticos
Ġtempor ales
Ġen tera
Ġdis para
Ġson idos
Ġrom pe
erra t
Ġob ed
Ġcal ificado
Ġnave gar
Ġen vÃŃa
? ",
k es
Ġp ico
Ġen ormes
Ġ6 6
Ġense Ã±a
Ġinau gura
Ġran go
Ġacep tado
z amiento
Ra fa
Ġtrans por
Ã¡n s
igu ero
Dispon ible
dem oc
Ġregistr Ã³
Ġnutr i
ĠMar k
Ġcampe ona
ĠAl b
Ġ9 00
N ombre
Ġprofesion alidad
Nav arra
Ġbarr eras
te lo
ĠMan chester
Ġdes cribe
ĠMon ta
Ġindemn izaciÃ³n
h ar
ur ado
ĠC ru
Ġbel ga
Ġactu alizar
Ġf Ã¡rma
Ġexcl u
Ġpreced entes
Ġen cer
C AM
e amiento
Ġrin cones
pro fes
ĠL l
ĠMich el
Ġdesapar ecer
c le
Ġdirig idos
Ġescas os
Ho tel
Ġacab e
ĠFl ores
fec to
â ĸ
T ur
z ona
De tenido
Ġl Ã¡s
ĠMar zo
P ad
Ġconces ion
Ġs ienta
Ġmi to
Ġespe jo
ĠD onostia
Ġam an
Ġencar cel
Ġtransform ar
Ġlim itaciones
Ġhol an
Ġpul sa
ĠB all
D ef
ĠEspa cio
ĠRo ca
ĠB ARCELONA
Ġam bi
Ġcons igo
ĠCh ica
Cons ul
ĠenseÃ± anzas
Ġrecuper ado
Ġhuel la
pre cio
Ġre medio
ĠO f
Ġterremo to
ta t
Ġseguir Ã¡n
Ġfal tan
Ġfi eles
Ġnacional ista
le tos
Ã³m icos
Ġbre cha
Ġs ierra
Ġpl ur
Ġinter an
Ġqued aba
tÃ³ bal
Ġjapon Ã©s
V ers
Ġg ub
Ġto p
ĠfotÃ³graf o
Ġne gar
Ġca tedral
Ġconcre tos
orm as
Ġvista zo
Ġesca Ã±o
Ġcru zar
ĠSi tio
u k
ÃŃn guez
ĠRe vista
Ġdese en
Ġpl ana
ĠI MP
Ġsens ible
Ġex teriores
s ec
Ġsolu cion
g ador
ĠBar rio
Ġexperim entar
ĠVill al
": "
Ġtabl as
Ar ch
Ġmens uales
Ġca tÃ³
Ġacad Ã©mica
Ġsu pl
B er
tr icos
Ġf idel
Ġfigur an
h al
Ġextre mos
ĠConven io
ĠP U
Ġindispens able
Ġn Ã³
r um
on s
m el
ĠSil va
Ġsorprend er
ĠCS IC
Ġesco ger
Ġsig no
ĠPol onia
ĠD NI
Ġperman ece
Y O
P l
rab es
Ġcul to
Ġpla ca
g icas
z ul
ĠS p
Ġforma tos
ĠC OL
Ġtr amos
ĠJur ÃŃd
ĠM ON
Ġcercan as
Res oluciÃ³n
p ados
Ġemi tido
Ġren tas
h es
ie ve
Ġapar iencia
Ġhis torial
ĠH O
ĠPerson as
Ġalcald ÃŃa
Ġincl us
Ġmatr ÃŃcula
Ġexig en
Ġcomposi tor
Ġp iz
di to
ier as
Ġg loria
nes s
Ġme lo
Ġperegr inos
Ġbicic letas
Ġconten er
ĠJ oven
ĠbritÃ¡n icos
Ġpenal ti
C ap
Ġva ca
ĠMercan til
Ġreg istra
Ġalber ga
Ġsolid aria
200 8
âĢĵ ,
ĠH un
P RE
ven tura
Ġdivers iÃ³n
Ġpac tar
Ġselec cionado
Ġacces os
Ġmod alidades
ĠR ico
ĠIb ex
U b
Ġped idos
Ġgas es
Ġsol os
ĠIN S
Ġcal ma
Ġameric ana
Ġinm ensa
Ġves tuario
ĠRes oluciÃ³n
X X
Ġmantener se
and ra
ĠCiudad ana
I ZA
Ġinforma tivos
Ġdeleg ada
ĠS oto
par encia
T ar
Ġrig or
Ġal arma
Ġchar las
Ġcercan os
ĠC olau
Ġmal trato
Ġafec tada
Ġconce jo
Ġinten tan
ĠDin am
ĠGal le
B as
Ġadquir ido
Ġad her
Ġconsol idaciÃ³n
R OS
Ġapun tÃ³
ind ica
uer tas
Ġdefien den
Ġcob ra
av i
par se
ier re
Ġapoy ado
rim adas
Ġrem un
Ġescu cha
Ġ7 8
Ġcau te
tu lo
ĠMo vistar
at ch
Ġadolesc ente
Ġs ana
Ġdecid ieron
Ġcam inar
Ġab uela
Ġinteres an
Ten ÃŃa
Ġcompl icada
ĠB od
rec en
Ġhum edad
Ġde can
ur ar
abe tes
rÃ¡n ea
Ġfin alizado
Ġsig an
Ġmas as
Ġrecom iendo
Ġtre ce
ĠLa guna
Ġconten to
Ġliber aciÃ³n
ĠCar ta
Ġdes c
Ġhos telerÃŃa
pla y
Ġpen ÃŃnsula
Ġso por
Ġsegu ida
ĠCu atro
Y A
Ġsenten cias
Ġescri tora
Ġapor tan
Reg ÃŃstrate
ti an
ĠRE AL
Ġrefle jo
Ġins ultos
ĠLib re
bl an
ÃŃ rez
ĠRos ario
ï ¸
ha ts
Ġam igas
Ġrode ado
ĠhipÃ³ tesis
Ġpens amos
h os
ad eros
ĠE ibar
Ġinte lec
Ġcorreg ir
Ġpref iere
Ġmovil izaciones
ĠB lo
ĠK e
P OS
Ġreclam aciÃ³n
Ġleg almente
Ġof f
Ġno ven
ul tados
Ġlig ero
Ġdisfru tando
Ġdoc trina
ĠPen ÃŃnsula
ĠTele cinco
ĠI B
Fu ente
Ġ6 7
Ġpa gado
Ġenti enden
ï¸ ı
d ares
ĠH om
Ġabandon ado
gu ard
Ġatre v
ticip aciÃ³n
ĠYou Tube
Ġcertif icaciÃ³n
Ġinoc encia
Ġjun tas
ĠEcon Ã³mico
man ente
Ġacud ido
ol iber
Ġpresid ido
ĠMa ta
Ġde partamentos
Ġo pon
ĠAm eric
Ġin olv
Ġde presiÃ³n
Ġidentif icado
Ġmen cionado
Ġaumen tando
t v
di ciÃ³n
Ġayud arÃ¡
en es
Ġcontr ibuciÃ³n
Ġrepi te
Ġcam iones
ĠDepor tiva
Ġinforma cin
T IS
Ġtr of
eci r
ra te
Ġas im
ĠCel ta
qu iv
Ġal ba
ĠAs es
Ġenfren tan
pro pi
Ġintelig entes
r tel
Ġautor izado
ĠcrÃŃ menes
Ġrepercu siÃ³n
Ġdenunci an
cu s
ĠtÃŃp ico
IC AS
op in
ord s
Ġde tecciÃ³n
G B
Ġesca para
v oc
Ġmejor ando
ĠI Ã±aki
Ġcatal anas
Ġpin turas
am ing
Ġespiri tual
u ado
M al
gu Ã©
âĢ ²
Ġdispon drÃ¡
em pres
c ario
Ġreal ice
Ġsignifica tivo
Ġcu a
p Ã¡
ĠT aller
Ġfirm Ã³
AN D
Ġamb ientales
Ġvari ables
and al
Ġan ul
Ġrecog idos
ĠUnivers itaria
Ġatribu tos
ÃŃ colas
Ġban deras
Ġsindic ales
Ġan dar
Ġdim i
Ġinmobili aria
ĠRo jo
el los
Ġsir viÃ³
Ġrem od
in f
Ġirregular idades
Ġincorpor ado
ec k
Ġcompar ar
An dalucÃŃa
Ġcre y
ĠD av
or s
- Â¿
Ġv s
Ġre du
Car gando
Ġcar gado
Ġdepend encias
i um
Ġja zz
Ġverdad eramente
ĠO C
Ġexperimen tado
Al icante
ĠR oy
Ġconf igura
AL A
Ġtu ber
amb ios
Ã³s toles
in fo
Ġcontam in
Ġexac ta
is ion
ĠL lo
ĠUrban ismo
Ġhin ca
Ġhay as
Ġtrabaj amos
ĠZ ar
Ġjug Ã³
cional mente
Ġescul tura
Ġsuced iendo
Ġplante amiento
ĠInform Ã¡tica
Ġcol ch
Ġtrans forma
in z
Ġblo ques
ed i
Ġin icios
ĠCalder Ã³n
Ġac cionistas
ĠJ ac
201 3
Ġseme jante
Ġda Ã±
Ġinteg ra
ĠUS B
ĠLabor al
Ġ18 0
Ġti p
d y
Ġre ta
Mur cia
Ġpublic arÃ¡
Ġvues tras
Comien za
ci c
Ġnub es
m et
Ġproduci endo
Ġolv ido
Ġadministra tivas
ĠGu ÃŃa
r adas
Ġreac ciones
Ġmascul ino
ti cidad
8 4
Ġe go
Ġadecu ados
Ġt h
Ġconj untamente
Ex per
ĠNa cho
Ġt onos
Ġlamenta ble
em s
vi ra
Ġdesa hu
Ġab aste
ĠÃ¡n gel
te m
Ġperson alizada
Ġ199 5
Ġentend emos
ĠR O
Ġcar gar
Ġcolo ca
Ġale gaciones
te in
Alber t
cul ado
Ġespa cial
Ġmu tu
Ġrelig ioso
Ġimpuls ado
Ġrom ana
Ġsole dad
ten s
Ġhabl aba
Ġpata tas
Ġde udas
Ġperm isos
Ġs era
Al cal
Ġid Ã³n
ÃŃf icos
Ġvend idos
lav Ã©s
Ġes tro
Ġg l
ĠLuc ÃŃa
Ġmanten drÃ¡
Ġtra zado
Ġconf i
As ociaciÃ³n
Ġmal tra
Ġrin cÃ³n
Ġeleg idos
ĠA hora
Ġmaqu illa
URO PA
Ġinter venir
ĠFer ro
Ġcemen terio
Ġde ro
si empre
Ġdej en
cel lo
ĠH D
Ġf re
Ġfur gon
ri ta
con tin
Ġal u
lamentar io
Ġentren amientos
f obia
Ġmejor ado
ia t
Ġqued arÃ¡n
Ã¡ Ã±ez
ĠFeder ico
Ġna ciones
Ġin esta
Ġserv irÃ¡
ĠRu ta
Ġparro quia
u ch
P V
pres en
Ã³d ulos
Ġrefer entes
Ġpil ares
I ES
Ġdismin uciÃ³n
d am
Ġliter aria
ĠL IB
Ġsorprend iÃ³
Ġquer ÃŃan
Ġcontund ente
Ġrespon diÃ³
Ġsocial ismo
ci ana
Ġad or
Ġflex ibilidad
Ġch at
ur ÃŃa
Ġreduci da
Ġjugar Ã¡
ĠH onor
ti enda
ĠBank ia
Ġfal los
tÃ© tica
Ġcontes tar
Ã³lo ga
gen as
Ġpas es
eb ra
Ġagre gar
ten tes
ĠAso ciaciones
Ġconf ort
Ġpor quÃ©
Ġnav ar
h ÃŃa
ĠRoc ÃŃo
ĠSosten ible
c adas
8 2
c ord
Ġdo tar
B il
C ara
ĠInf raestruc
m ero
Ġcar dio
Ġmill on
Ġrela tivamente
Euro pa
Cono ce
Ġre emp
ĠEr rejÃ³n
tr ales
Ġcapaci taciÃ³n
Ġten iente
E FE
Ġcabec era
Ġpres untos
ĠIns tal
Ġpa pe
Ġproteg ida
g ro
Ã¡ndo la
Ġante cedentes
Ġter res
Ġdi al
Ġher encia
ĠE M
ĠinstantÃ¡n ea
cl as
ĠVillar real
Ġestable cidas
Ġacum ula
Ġbomb ard
Ġlo cura
cil la
Ġnarra tiva
Ġac Ãºs
Ex iste
Con tra
aliz Ã³
Ġimpro vis
Ġcorr ientes
Ġpres ide
E I
ĠMa teo
Ġbel la
is tÃ¡n
ul s
Ca teg
ĠT I
eci das
Ġoptim izado
Ġentend ido
C uen
is tic
Ġcoincid e
Ġinstal acion
Ġcons a
Ġm ara
Ġdes l
ĠLa Liga
Ġrad ic
Ġpar cela
con se
Ġmis a
Ġreclam ado
Ġdese an
Ġpel u
Ġes quÃŃ
Ġcrea tivo
Ġinten tos
Ġtranspar ente
di ta
ĠLi teratura
Ġbeb er
Ġle e
Ġrefug io
Ġprof un
ĠCl in
Ġpar eciÃ³
Ġrev al
Ġtri pul
Ġtu yo
Ġconclu ir
Ġpres untamente
Ġinv itaciÃ³n
cor e
ĠPol ÃŃticas
ĠF ar
Hab ÃŃa
Ġpa to
ac en
ĠNie to
j ol
Ġoc Ã©
Ġped imos
ĠD ia
Ġas ciende
Ġcoincid iendo
Ġinspec ciÃ³n
ec t
Ġcal zado
ĠOn da
Ġquis iera
Ġ6 2
Ġfon tan
Ġlo co
ĠAlim entaciÃ³n
ĠCar olina
Ġdepend iente
Ġin n
do cu
ĠH an
inten do
Pol ÃŃtica
' )
ĠAud itorio
Ġencar ga
Ġvincul ados
Ġempez aron
x y
ĠMed ias
Ġhabr ÃŃan
enti f
Ġmun diales
Ġval iente
IC ADO
Ġdes gas
ti era
ĠH ay
Ġlider ar
ĠPe ter
Ġmostr ando
Ġprom esas
Ġsan cion
Ġflu jo
ĠDel gado
Ġprogres ista
Ġh uevo
Ġauto mÃ¡tico
Ġhinca piÃ©
Ġcu id
Ã³ so
le ce
as t
F ER
ĠTim es
5 7
ĠB ill
Ġimpres ion
Ġvin culaciÃ³n
Ġher ida
Ġaso cia
Ġal m
ĠJav i
Ġpresen tados
Ġbio grafia
Ġpoten ciales
Ġinform Ã¡tico
Cur sos
V arios
Ġcomple ja
Ġmonum entos
M iles
Ġp ymes
Ġinter iores
eg os
ĠdÃ©ci mo
Ġfores tal
ĠAustr ia
Ġano che
Ġfemin ismo
ĠCons orcio
Ã©cn ica
Ġintegr idad
ieg os
ijo te
Ġh ero
Ġrealiz arse
Ġpersi anas
Ġbur bu
Ġpin tores
ir iÃ³
Ġrep ente
ĠCuen tas
ild e
Ġdo taciÃ³n
ĠÃºn icas
ent adas
Ġmarav illa
Ġdesper tar
5 6
Ġconven cional
M ari
c s
T ele
Deb ido
Ġex ced
Ġresul tan
ĠTh omas
Ġcas ta
ĠO ne
Ġcor tos
form e
ven idos
teg ia
ĠF UN
z e
Ġm uros
Ġadap tado
Ġo le
ue ba
Ġcor ona
ĠGem ma
Ġinteg ran
in arios
Ġgimnas io
Ġc itar
Ġfres ca
ĠCor reo
Ġbel lo
Ġfores tales
Ġr am
Ġorganiz adores
). -
Ġrelig iosos
Ġoch enta
ĠM ÃģS
[ ...]
Ġne utr
z aba
t ter
ĠV II
Ġmin i
oc k
Ġque ja
Ġw hat
Ġconced e
ĠW e
Ġj ajaj
Ġcan to
Ġm ante
Ġanti ci
ĠS omos
ob endas
Ġsol ares
Ġavis a
ĠSep tiembre
ĠacompaÃ± ar
ĠPa ula
v eda
icidad es
Ġgub ernam
D Ã³nde
Ġna tur
Ġcon duci
Ġt witter
Ġacab o
tudi antes
Ġcer ra
ĠMin istro
Ġvid rio
Ġases ino
rig or
ĠJ ar
Ġc av
ter nidad
car ril
ÃŃ tima
Ġaf irman
ig Ã¼
a k
Ġperteneci ente
Ġandalu zas
Ġinteres adas
Ġn ube
ĠESPA ÃĳA
ones es
Ġflo ta
Ġrespond ido
ĠCris tÃ³bal
Ġse vil
9 2
Ġacu diÃ³
ĠOrden aciÃ³n
F O
Ġind icios
al ar
Ġses enta
Ġor iental
ci udad
Ġtele comunicaciones
Ġcaus ar
Ġdesemple ados
Ġb onos
ĠM Ã©rida
Ġsen tado
Ġcump la
Ġun idos
Ġpres um
Ġm Ã³dulo
E H
Ġfi jado
Ġespeci alidades
Ġ7 3
dad ura
7 00
Ġc iber
ĠR eb
ĠMa x
ĠBor ja
ue da
f el
ĠO fer
B ol
Ġg atos
ĠlÃ¡ grimas
Ġau ge
Ġneum Ã¡ticos
Ġpol lo
ĠL lor
Ġp abellÃ³n
ĠO L
ĠestratÃ© gica
gr ados
so e
Ġmul timedia
Ġan Ã³n
Ġrela tivos
Z O
Ġen c
Ġab d
er t
ĠfÃŃs icos
Ġmen ciÃ³n
Ġtecn olÃ³gicas
Ġprodu zca
Ġâ Ĩ
car gar
ĠTor o
ĠF inal
et ales
Ġluch ando
Ġserv idores
Ġind ifer
D EN
________ ________
Ġmor tales
Ġrecor te
Ġagrad ecimiento
Ġazul gran
Ġfich eros
Ġab uelo
ĠS IG
Ġlici taciÃ³n
S ER
Ġch or
Ġrebel iÃ³n
Ġarreg lar
ĠCons umo
Ġexpl ÃŃ
hats App
Cur so
ĠNo u
Ġbo tella
S erÃŃa
Ġsal ieron
Ġdefens iva
Ġobliga toria
Ġconsum ir
Ġsolid ario
Ġ199 2
ĠAn tena
Ġoblig ada
Ġculp able
Ġob tend
Ġtoma te
Ġelig e
Ġpas ados
ĠprÃ³ r
uer as
ĠV uelta
Ġel og
Ġdes vi
ĠRes erva
le m
G ener
Ġdescan sar
Ġdepend ientes
Ġp ÃŃ
Ġmoder aciÃ³n
ic ula
ĠAr turo
gu ar
re y
ĠIns pec
tu ar
Ġins ec
Ġinnov ador
ĠC asta
ĠCar rera
ta tion
Ġpe ga
S em
Ġcas ualidad
8 3
ĠM ill
us as
Ġcar gas
Ġcel da
Ġhid ro
ĠIn forma
Ġreun irse
ĠConcejal ÃŃa
te gui
Ġescuch ado
Ġencontr arÃ¡
Ġcorred ores
Ġasc ensor
D S
Ġcap tar
Ġca ud
ĠestÃ¡n dares
Ġro bos
ĠK o
Ġmoder nos
Ġcoincid ir
x e
Ġrela ta
J C
Ġapre ciar
Ġex tiende
cl es
g inas
Ġprior idades
Ġgri tos
d etermin
ĠEusk al
it b
Ġrecib ieron
T ÃŃtulo
Ġfes tivos
direc tor
Au tor
ĠPromo ciÃ³n
Ġ6 3
tiz ada
ale ar
ci entos
Ġnorteameric ano
ĠIb ero
Ġprom esa
ĠCam bio
tr io
Ġpier den
Recuer da
Ġfalle cidos
pl or
Ġcompr ado
Ġhab ilidad
Ġidenti fica
Jes Ãºs
vie ja
in c
Ġide ales
En horabuena
Ġcump lan
ĠH ombre
ĠV ideo
Ġfal la
Ġad mitir
ÃŃ z
Ġcamis etas
ĠRub alcaba
t ti
Ġcol ap
ĠAl geciras
ĠAlcal dÃŃa
Ġcre d
al tad
ĠMos cÃº
ĠautÃ³n omo
Ġjustif ica
Ġreb aja
ĠIr ene
Ġal o
Ġvol ante
Ġedi tor
D T
Ġma f
Ġan t
if i
Se Ã±
Ġdenunci Ã³
Ġmanifes tÃ³
Ã¡n icos
Ġefectu ar
ĠBach illerato
Ġbu que
Ġconfigur ar
ch el
Ġmercan cÃŃas
tr y
itan a
Ġapla ud
Ġdep Ã³sitos
Ġcos m
ĠTecn ico
ĠAl z
ea t
Ġco tizaciÃ³n
Ġfal lado
ĠMon asterio
Ġfa cebook
M ira
Ġefec tivamente
ĠCen ter
ĠF RAN
Ġar gentina
Ġtras lada
His toria
Ġba il
Â °
te os
Ġinter nas
arÃ¡ cter
ta ca
Ġsub idas
Al ba
pi ro
Ġsac Ã³
ĠOr questa
Ġin capacidad
C en
Ġdeci den
Ġl lave
br ar
Esper amos
Ġco pias
ĠTecn ologÃŃas
Ġmagn ÃŃfico
Ġc ÃŃrculo
Ġpresupues taria
Ġplan os
Ġau tÃ³
pany ol
po yo
Ġmane jar
Ġde cep
ĠE co
Ġadjud ica
ĠA van
ĠGÃ¼ rtel
ad uras
Ġac o
Ġacep tando
s ter
Ġson ora
Ġpublic adas
com unidad
Ġmodern izaciÃ³n
Ġblan cas
Ġrelig iosas
Ġtrans vers
ĠAtlÃ¡n tico
Ġclaus ura
Ġmoch ila
Ġconcluy Ã³
Ġg Ã©n
ĠG im
Ġparal elo
ĠaÃ© reo
Ġh im
Fran cia
ĠE mb
pon es
Ġac lara
Ġdivul gaciÃ³n
Ġselec cionados
ĠT C
ĠHor nos
d ec
ĠTrans iciÃ³n
ĠOr tiz
ĠPol it
lan es
Mu jer
Ġmaravillos a
Ġconsigu iendo
ĠRam ÃŃrez
Ġocta vos
Ġprofund amente
ĠcÃº pula
Ġlab ios
ĠcientÃŃf icas
G an
Ġvolun taria
Ġd iera
ĠAlcor cÃ³n
Ġres ide
Ġgus tÃ³
ru pos
idad os
Ġpros per
Ġex poner
Ġcumpl iendo
Ġsal tar
Ġaleg ro
ĠClÃŃn ica
Ġan ima
ĠR em
Ġproces iÃ³n
Ġvan guardia
un tu
Ġconsigu iente
b ord
Ġaval an
Ġcu alidades
UN A
M os
Ġale gr
ĠF IN
Ġv ientos
Ġalimentar ia
Ġb oc
ĠR TVE
Ġprote ÃŃnas
Ġre trato
ĠInterna tional
Art ÃŃculo
Ġg estiona
Ġrecomend adas
Ġdedic an
ib era
r ich
Ġvol ar
ues ta
ĠFerr ari
Ġre af
Ġpi ano
ĠobstÃ¡ culos
Ġurg entes
Ġcompeti ciones
Ġser lo
Ġsolu ciona
m icas
Ġconced ido
te Ã³
qui cia
ĠdiseÃ± ador
ĠG ipuzkoa
Ġaerop uertos
Ġhacer nos
ĠJ uego
Ġdig no
aliz ando
Ġal ud
ĠN iÃ±o
Ġtor menta
ens os
Ġenm iendas
z uelo
ĠdÃ© bil
Ġdiscur sos
Ġlider ado
Ġll enar
Ġcan s
ĠÃ³p era
Ġmon op
H or
Ġsepar ado
70 3
C abe
cu er
Ġorganiz an
Ġinvesti gado
Ġps ico
ues tro
Ca t
Ġcarr il
ĠSO CI
Ġcu bre
ĠLiber tad
M Ã©
ĠM Ã©ndez
ĠDom ÃŃnguez
Ġneg ado
Ġven ced
Ġdig na
Ġrec ta
Ġemprend er
Ġcu char
ted ra
Ġsupon go
ur t
Ġband eja
v ado
Ġpermi tiendo
Ġmusul manes
San tiago
i Ã±os
Ġsir va
Ġenvi ados
ĠIn icia
M AR
Ġsen da
Ġdue Ã±os
Ġne oliber
in arias
Ġpl us
ĠCh ar
Ġconf iesa
Ġo ÃŃr
Ġconvoc an
Ġa cierto
Ġocul ta
Ġoper ador
ĠComprom ÃŃs
us al
Ġse des
Ġconvoc ada
ĠPer e
Ġretr ibu
Ġpon gan
z uela
Ġcam as
ĠOc cidente
ad y
v ill
Ġsobres al
em ent
Ġca os
e u
Ġdel e
fl ix
Ġmolesti as
ĠSec tor
tel aciÃ³n
ĠF ÃŃsica
den al
Ġnega tivos
p ad
Ġfranqu ista
Ġdefin ido
ĠIn ma
Ã© p
ĠMan zan
Ġdestru ir
ig er
ĠA vilÃ©s
Ġpu ta
ĠN os
J ER
ter ror
Ġcorred or
Ġch e
ĠEcu ador
Ġl ento
leg as
Ġprev ias
Ġasigna turas
Ġprecar iedad
ĠW EB
Ġse t
s ÃŃ
ri te
ĠComer cial
Ġsu av
Ġestar emos
ĠPascu al
Ġhum anas
Ġal iados
Ġsuced iÃ³
Ġhacer le
Ġcorr iendo
ĠG aran
ĠA la
Ġca tas
Ġconden ados
Ġgri to
C ambio
Ġlog ro
Ġil ÃŃ
ĠGib raltar
tu be
ĠHu go
Ġcal dera
og ado
Ġhermos a
Ġperson alidades
D OS
Ã³d igos
ĠF Ã¡
Ġmaquilla je
Ġdic tador
Ġla c
ĠAbas cal
J orge
Ġcorpor al
Ġas ientos
Ġdo tado
Ġpresent ador
ĠBa u
Ġpres iones
Ġsome tido
Ġvein tena
Ġase qu
h uela
Ġpan eles
Ġam ante
te ar
Ġx D
Go ogle
Ġno tar
Ġllam as
Ã± iz
ĠR in
ĠS OL
Ġacu den
M V
ĠVal enci
Ġdedic ados
Ġdeb idamente
Ġarm ario
Ġigles ias
ĠCo ordin
ĠK im
Ġreper torio
Deb es
ĠInter Ã©s
ĠB and
g i
ĠH am
Ġ6 9
ĠA lar
Ġp si
Ġins critos
Ġaf Ã¡n
Ġcred ibilidad
izca ya
Ġprim as
Ġpo ema
re la
Ġab ar
ob ed
Ġaver igu
J uego
?? ?
oro este
ĠfÃ¡ ciles
CI N
Ġsencil las
A G
Al quiler
Le Ã³n
ĠP is
k ers
ĠPatr icia
Ã³ o
gu o
Ġn eo
Ġpatr ia
Ġtra tarse
Ã³rm ulas
ĠB U
Ġd uras
entar io
Ġtra yecto
Ġtras tornos
Ġcoloc aciÃ³n
ĠAm or
Ġaud itor
EN TO
Ġ zo
ĠC IS
Ġinfl uy
Ġb eca
cas a
ĠsÃŃmbol os
gas e
es en
ĠT ok
ĠJef e
Ġf le
ĠG am
Ġas tr
Ġsurg iÃ³
Ġrev Ã©s
Ãī S
D an
Ġra tif
u le
Ġtercer as
pa je
Ġba tal
ĠE RE
ĠPos t
ĠAl co
ĠR i
Ġen com
ros s
capa ci
c ron
ac tor
ĠS istemas
Ġfil tros
ex iÃ³n
Ġtuv imos
Su pon
ÃŃs mo
Ġced ido
Ġred onda
Ġ199 0
t ona
ur ce
la go
Ġmon e
ĠT x
Ġliter ario
ord inaciÃ³n
ĠG P
Ġ" Â¡
cri tas
Ġin min
ĠÃģ lava
al imentar
Ġrepubl icano
Ġpar to
Ġmulti nacional
Ġeuro dipu
Ġbas tantes
ĠC arÃ¡cter
T ON
l lano
Ġpan el
ga z
V ol
ĠMUN DO
ĠOlÃŃmp icos
Ã± Ã©s
Ġin ci
ĠbÃ¡s icamente
ĠFil os
c y
ĠU so
ĠCOM UN
Ġpo emas
ĠA mar
ĠTRA BA
Ġform ando
Ġfir man
i anas
7 4
Ġre trans
Ġsufr iendo
Ġinf o
ĠCar ras
r ent
ĠcÃ© le
Ġcos ech
Ġcru ce
Ġsuel dos
CA T
8 1
âĢĶ ,
ĠG ENER
Ġemer gencias
ĠLis boa
Ġvincul ado
M AN
Ġcos tado
ten to
Ġesta bil
ĠAndalu z
Ġcul tivos
Fel iz
Ġimprescind ibles
Ġcomb inar
ĠN UES
le tismo
y un
ĠE p
Ġrell enar
ri tas
Ġsegu ÃŃa
Ġinv itar
Ġarre ba
ĠclÃ¡us ula
Ġob ispo
Ġti ra
Ġexpor taciones
ĠMar ea
Ins titu
ĠA pl
Ġmi el
Ġar d
Igu al
Ġde grad
Ġcolombi ano
IL L
Ġveci na
Ġmod ifica
el ia
Ġru tina
ĠautonÃ³m icos
tr il
Ġlogr os
Direc tor
Ġprotagon izado
Ġjapon esa
americ anos
Ġdispu tado
Ġad emas
ĠInform e
Ġjef es
f ar
n ada
Ġllam ando
Ġgastron Ã³mica
mÃ¡ genes
Ġocu pado
Ġencar gados
Ġcontr arios
Ġinser ciÃ³n
Ġtej idos
Ġde biÃ³
Ġv ial
ef ici
Ġescond e
Ġsol v
Ġg ab
Ġdeb o
F un
Ġla men
Ġtras ero
ĠRe publ
Ġpod io
Ġabr en
Ġtr Ã¡ns
ĠA rabia
Ac cede
ĠcÃ³m ic
ĠA lavÃ©s
Ġdiagnos tic
ĠseÃ± ores
ĠEu gen
Ġedi tado
ĠR um
Ġmens aj
Ġcontinu ado
Ġres pir
amil ton
bi ta
Ġcon tienen
ĠÃį Ã±igo
Ġpresen cial
T IN
Le y
Ġac aso
Ġincom pa
Ġcentro cam
CH A
5 2
Ġcoci nar
ĠHo teles
ĠM y
ĠZ idane
ĠL am
amb ur
M un
Ġlleg aba
Ġgas tar
Ġadi Ã³s
ĠD istr
Ġsalv aje
Ġre mitir
Ġcubier tas
ĠF Ã©lix
Ġcristi ana
Ġ3 60
ĠjurÃŃd icas
Ġal imen
uer zo
Ġap el
Ġras gos
Ġre estruc
ĠF ab
ĠB ull
Ġbeb ida
ĠIncl uye
Ġofens iva
on ales
Ġsof istic
ĠAg ru
ĠP OD
ul la
ĠO S
ĠcontemporÃ¡n eo
Ġinto ler
Ġt Ã©
Ġsorprend ido
Ġo ve
Ġbas ados
Ġgr amos
Ġper ÃŃ
tel las
Â¡Â¡ Â¡
god Ã³n
Ġla zos
Ġ3 50
Ġcal cula
Ġpro to
Ġm Ã³dulos
es idad
Ġpuntu aciÃ³n
Ġais lamiento
k ari
u i
Ġhech as
ĠD ÃŃ
Ġcr ia
Ġej es
br ico
Ġbar rera
Ġganan cias
ĠH ierro
Pro duc
Ġo v
Ġb odas
Ġres oluciones
c ador
I l
ĠfantÃ¡s tico
ĠQu ijote
c adores
Ġj o
Ġlibre mente
el diario
un t
Ġcated rÃ¡tico
Ġob vio
f os
Ġge ografÃŃa
Ġapoy an
Ġparticular mente
V ideo
ĠHuman idad
Ġdig an
Ġrecon ocen
Ġbus que
Ġcic los
Ġj ajaja
Ġar oma
Ġreclam an
V enta
b riÃ³
Ġpul so
ĠUsu arios
ĠCom Ãºn
Ġpre ju
tÃ¡ r
Ġdud e
Ġurban izaciÃ³n
Ġconta bil
Ġacud ieron
Ġpresenta ciones
Ġhisp ano
og Ã©n
Ġ14 0
Ġas iento
T ienen
abr ada
Ġcas tigo
Pos i
n an
Ġjam Ã³n
ĠSab adell
tar le
ĠEn seÃ±
ora ya
ĠfenÃ³m enos
Ġro jos
ĠJul ia
fici ales
Ġimper io
Ã± ones
ij Ã³o
Ġcaracter es
Ġle ve
Ġevi tando
Ġpens amientos
No ta
Ġrel ieve
ĠFer rer
Ġsan tos
ĠWar s
Ġproduc tivo
Ġreivind icaciones
M OS
ĠEx tra
Ġcomb inado
Ġenmar ca
Ġmasco tas
Ġrecha zar
Ġsalud ables
Ġev olucion
Ġcin tur
ĠIR PF
le d
Ġs ender
Ġfin aliza
Ġhici mos
Ġcontinu arÃ¡
Ġfil Ã³so
ĠVi olencia
Ġg am
Ġdirec torio
Ġr isa
Ġestre cha
Ġdis per
allado lid
Ġjud ÃŃos
Ġresponsab il
Ġab an
ĠPala u
Ġpred omin
cer ÃŃa
iz amos
Ġsom bras
Ġexhib iciÃ³n
Ġcab ezas
ĠCa tÃ³lica
ĠL lu
Ġcusto dia
Ġnav es
me lo
6 4
Ġgalle gos
T ICO
Ġsuscribir te
Ġsuced er
Ġor questa
Ã³n icos
Ġdesem bar
Ġespal das
ĠMedias et
Ġlleg amos
Ġdetec tado
Ġterap Ã©u
Ġcompar tida
Ġconten edores
Can tabria
Ġprom edio
Ġ28 703
Ġdiscipl inas
ĠAgu ilar
Ġsinies tro
d Ã©
Ġcoloc ado
ĠhÃŃ br
Ġper ci
Ġmater nidad
Ġrequis ito
d ele
Ġlin k
Ġnar co
Ġs ano
Ġtur ÃŃsticas
Ġprotagon izada
Ġinnov adoras
ici l
Ġobserv aciÃ³n
ĠGreg orio
Al merÃŃa
c ran
Ġrec tor
Ġfu imos
Ġsob ra
Ġbr oma
Ġso portar
UR SO
Ġre util
Ġcontr aria
Ġha ble
Ġagr ÃŃcola
Ġfr igor
Z aragoza
Ġfil me
Ġcam in
Ġcir cul
Ġsim ples
ĠUnivers al
Ã© tera
ke y
Ġrestr icciones
Ġal b
ĠCar naval
Ġfal sos
Ġcome ter
tx i
Ġase ver
qu io
Ġacab aba
Ġsuper aciÃ³n
Ġrele vo
P an
ĠAutor idad
ĠSon y
Ġcr uel
re f
IS A
Ġproteg ido
Ġcenten ario
ĠJ an
mad amente
Ġfor al
Ġactu alizado
Ġb ola
Ġdes fil
OLO G
ĠAud io
ĠmÃ© rito
Ġto mo
Ġex terna
Ãį N
Ġpropor ciÃ³n
ĠF ire
Ġreci claje
ĠZ o
l abrada
Ġcas tell
Ġacud e
Ġapar tados
Ġocul tar
Ġcelebra ciones
Ġele va
Ġmin orÃŃa
Ġhig iene
Ġprob abilidad
TE C
ĠK en
Ġsab iendo
Ġinici ales
ĠP ero
ĠS um
Ġma tan
ĠB iblio
Ġten ista
Ġcontr ibuye
Ġje je
no w
ĠInfraestruc turas
il itar
Ġprev al
L U
ĠdiseÃ± ada
Ġdul ces
Ġconse jeros
Ġcubier to
ac as
Ġprom ueve
ĠPir ineo
Ġasoci adas
in forma
Ġli toral
Ġvari edades
7 2
F or
Ġsig ues
ĠBernab Ã©u
Ġex ager
r arse
Ġve an
ĠBa z
Ġafron ta
Ġreflex iones
Ġme tido
Ġdes com
Ġve la
ĠRe f
Ay untamiento
I TO
ig il
ĠEx cel
Ġocu pan
Ġseg mento
Ã©r icos
TI VO
Ã©r minos
Ġprovoc ando
Ġcap illa
Ġpers ecuciÃ³n
Ġin neces
erop uerto
ĠNo viembre
Ġpregun tÃ³
R od
Ġbod ega
Ġbor rador
Ġrepubl icanos
Ġayud ado
dro la
Ġf Ã³rmulas
ĠN intendo
ĠProvin cia
Ġdespl iegue
igu en
Ġe cha
ĠIn telig
Ġtea tral
ĠEuro copa
Ġgener ando
pin iÃ³n
ĠM am
j ur
Ġvas o
Ġaprovech ado
Ġsal iendo
Ġperson alizado
Ġvi abilidad
Ġejer ce
m amente
ĠÃŃn tegr
ĠMar gar
Ġ199 4
s olo
Ġsen ador
Ġvulner ables
ĠUni ted
iz arse
p ica
su per
ĠR enta
Ġprepar ada
Ġtestimon ios
Ġbus cado
ĠE v
ĠcontemporÃ¡n ea
al do
Ġespa ola
ĠcentÃŃ metros
Ġda ta
c ano
ĠC is
r r
tempor ada
Ġperju icios
ĠMus ic
Ġauton om
ĠPla ya
Ġresal tado
ter idad
Prim era
Ġmagn itud
5 4
Ġentusias mo
esti ma
Ġatro pel
B B
Ġsens or
Ġvi Ã±
G AL
ĠCOM P
ue ta
ĠHis p
Ġalterna tivo
Ġconsider Ã³
el les
er ador
Ġilustr ado
ĠE quipo
ĠAl icia
Ġtemp rano
ĠC orn
ĠC ero
ĠJa ume
Ġid Ã©n
Ġreun iÃ³
Ġsu biÃ³
Ġlle guen
Ġf Ã³s
Ġan s
ĠDi ana
Ġel abora
Ġmili tancia
Ġsignifica tiva
Ġexis tÃŃa
Ġe mite
Ġsan to
Ġexpl orar
Ġcon duce
Ġhu ir
Ġhum il
ig ma
ĠprÃ³r roga
ĠC ano
Ġerr ad
Ġagru paciÃ³n
Ġsi tÃºan
do b
ĠW ik
Ġatr ibuye
ĠhistÃ³r icas
rÃŃ amos
ĠB ob
ĠMil Ã¡n
Ġbille te
tu lia
Ġg em
ĠO sasuna
ĠS US
Ġlogr aron
As istencia
Ġso is
Ġdis im
Ġlig era
T r
Ġed icin
Ġflex ible
Ġlevan ta
Ġcomis ario
x ia
ill Ã³n
Ġop ina
Ġrecomend aciÃ³n
Ġen horabuena
g ente
Ġes tancias
ĠsatÃ© lite
Ġindustr ias
ĠmÃ© ritos
Ġ um
Ġbor rar
ĠBo u
Ġcompeti tivo
Ġmagn ÃŃfica
ĠRich ard
gan tes
T T
ĠhelicÃ³p tero
Ġman us
L og
Ġpar king
Ġinter acciÃ³n
Ġbar cel
Ġa tes
Ġb e
Ġpl ural
Ġpro hÃŃ
ĠEs pe
ĠPar k
Ġconsider able
Ġm ama
i us
til los
Des arrol
Ġmul tim
ĠSÃ¡ enz
Ġcarb Ã³n
ES A
ĠA do
Ġmod ific
Ġregener aciÃ³n
Ġbio d
m undo
tiz ia
ĠEdi ciÃ³n
Ġbr illan
Ġbar bar
it ÃŃa
ĠsÃŃn drome
Ġcercan ÃŃa
Ġad ulto
Emp ez
Ġex cav
Ġcob ro
Ġas fal
Ġcomprend e
Ġgraba ciones
Ġreco p
frad ÃŃa
ĠâĨ Ĵ
J un
Ġcontras te
U A
Ġasisten te
Ġdirec tivo
Ġrefuer zo
Ġinaugur ado
ĠEstud io
ĠestÃ¡ bamos
Ġdilig encias
Cul tura
ĠR onda
Ġsuper visiÃ³n
Ġdi abetes
Ġpos tal
Ġarch iv
tur ismo
ĠS indica
ĠsÃ©pti mo
al go
ĠlÃŃqu ido
Ġpos tre
Ġperd on
no c
Ġdestac adas
ĠNav al
Ġreiv indic
ĠConf idencial
Ġrom ano
Ġhab ÃŃamos
ru guay
y d
Ġc Ã©sped
ĠW hatsApp
ĠEs cu
es pa
Ġinteran ual
ĠE tx
tal o
Ġpar adas
COM UN
Ġdi eci
of f
Ġfa una
ica ja
Ġ* **
Ġcorrec ciÃ³n
ĠFran ces
g Ã©n
6 2
ĠVald e
ez co
ID OS
Ġhal lar
Ã©s imo
t adora
cor por
og ÃŃa
Ġpresenta ba
ĠBar tol
Ġcoca ÃŃna
je tivos
pro yecto
Ġvar Ã³n
Ġ13 0
Ġel diario
Ġpers igue
ib re
Ġlav avajillas
u ido
Ġfavor ita
Ġavis os
Ġcan ario
Ġlec ciÃ³n
ĠHistÃ³r ico
heim er
Ġmec Ã¡nica
pi eza
Ġpul gadas
ÃŃ genas
Ġsola pas
ine os
ĠS om
T witter
D o
u is
ig Ã³n
ĠÃ¡rbi tro
ĠÃ©l ite
Ġrom p
id ge
Igles ias
Ġincapa z
Ġinver tido
ĠB CE
ĠEjecu tiva
ĠUP yD
Ġextra c
Ġes clar
Am bas
Ġagu jero
Ġmul tas
ĠGro up
Ġrecog idas
Ġproced encia
Ġvincul adas
ĠF rigor
zco a
Ġcur va
tor ce
? ".
ĠC lo
Ġta pa
Ġrefle jan
Ġca ÃŃdas
Ġapro vecha
Ġadap ta
Ġa ve
Ġinterpre ta
gra cias
Ġvisu alizar
Ġconstru ida
wa gen
Ġhabi ta
ĠE le
D ice
ĠF ord
den as
itar iamente
IF A
ĠU SA
Ġmen cionar
ĠAdministra tivo
ĠF arma
ĠBus iness
Ġaudiovis uales
ĠD iciembre
Es tados
Ġch inos
Ġdese e
Ġarti culo
Ġtras era
Ġmales tar
Ġacer camiento
Ġdistin ciÃ³n
Ġcertif icados
Ġtrans curso
Ġdese ado
Ġca ta
ĠJ ord
popul i
dal ena
Ġtr on
Ġdis tancias
ĠU b
Ġsuperfici es
Ġrenov ado
Ġedi toriales
Ġpr ÃŃncipe
Ġadop tado
Puig demont
Ġenvi Ã³
ĠD al
. Â»
Ġconj untos
Ġau tos
ĠRa quel
tell Ã³n
Ġbenefici arios
ĠIb Ã©rica
Ġco financi
h enda
Ġinter venido
ĠSer na
Ġproduc ciones
Ġingenier o
e k
Ġactiv ista
Ġenveje cimiento
Ġbas adas
Ġpas amos
Ġneg Ã³
Ġcal entamiento
ĠSE O
Ġlav adora
Ġges tora
ĠCo leg
ĠP E
Ġresul te
Ġembaj ador
Ġconf ron
ĠI sa
Ġrespon den
t to
Ġjuz gar
200 6
A ran
Ġveg etales
Ġrela tivas
Ġdej aba
Ġfer ias
Ġrad icales
Ġin cidencias
ĠJohn son
Ġproteg idos
Di ario
Co lec
ĠIn di
ĠCl ara
Ġdecir lo
Ġenfer mo
m icos
ell era
Ġpos tu
Ġcu pÃ³n
Ġbon itas
Ġliqu idaciÃ³n
Ġsus crito
Ġdef ra
Ġecol Ã³gico
Ġhab lo
tr ad
Ġcob ran
5 3
z or
Ġcan ad
Ġg re
ĠPre venciÃ³n
Ġaloj amientos
Ġla terales
ĠEstad ÃŃstica
Ġarre p
Ġcorpor aciÃ³n
Ġsus cep
ĠprÃ¡c ticos
Ġcrea tiva
ĠE c
Ġalberg ue
Ġpropon en
ĠBomb eros
Ġinterna utas
am ado
Ġjef a
ĠF P
Ġinfrac ciÃ³n
Ġpa tente
Ġactu aliza
! "
ws er
Ġconec tado
Ġderiv adas
ĠS un
T rad
H uelva
rec emos
Ġpla cas
Al guien
Ġcom and
Ã¡s tica
is s
L ic
Ġs lo
ĠquÃŃm ica
Ġinstitu cionales
Ġapar entemente
Ġcorrespon da
Ġam able
Ġhom ici
tz ale
ĠActu alidad
Ġdi alo
F uer
Ġur gencias
G ra
ue to
Ġnos otras
Ġdirig iÃ³
Ġsus tra
Ġextre m
Ġdeber ÃŃamos
Ġincorpor ados
Ġinf laciÃ³n
ĠO p
5 1
O cas
Ġa porte
Ġfin anzas
ĠH it
Ġpa utas
Ġimp rimir
cran ia
Ġvir tuales
hu ana
ill on
p ell
ĠPlan eta
Ġdefend iendo
Ġtriste za
ĠCaball eros
Ġprev ar
Ġc Ã³digos
ĠJ ane
Ġmonum ental
ĠEn desa
k ul
tic ano
Ġl laves
Ġvir gen
san chez
Ġpier na
Ġdetal lada
Ġbo tas
... ).
ĠT j
ĠS mith
ĠS ky
ÃŃ l
do le
Ġcere bral
ĠCon gresos
Ġaprovech amiento
Ġ197 8
Ġneces ito
C Ã³rdoba
Ġsub ter
Ġexped iciÃ³n
ĠDinam arca
ti ces
Ġcine asta
Ġaj ena
Ġlec turas
Ġca pas
Ġre an
an gel
ĠespecÃŃf icamente
Ġpregun to
l amente
par ece
Ġcons ola
Ġmon asterio
zar ote
ob s
am Ã³n
Ġpas tel
ris to
Ġta xi
ĠMar ch
Ġ ^
ĠF otos
Ġcomun itario
Deb emos
Ġpref ieren
Ã± Ã¡n
En tra
Ġdis puesta
Ġver Ã¡n
ĠM EN
emp lo
Ġan g
Ġanterior idad
ES TI
z al
Ġa ur
Ġvertic al
Ġfal tar
Ġmin erales
ĠjurÃŃd icos
P ON
Ġ199 3
Ġpaque tes
Ġencuen tren
ĠAnd rea
As turi
Ġsuper an
Ġital ianos
ĠCur sos
Ġven til
Ġapor tando
quer ido
ĠF orma
Ġ( @
Esta ba
Ġse mi
Ġexpl or
ien d
Ġenca je
ĠV ara
Ġdemostr Ã³
Ġadministra tivos
Ġdon aciÃ³n
ĠD ig
Ġdesaf ÃŃos
V o
M IN
Ġor to
Re vista
ir l
ĠPR IM
ĠMus ical
Ġmodern as
Ġatend iendo
Ġrobo t
Ġan ualmente
Ġfe ed
i Ã¡
ks wagen
6 3
Ġgus taria
ĠP ho
Ġas ilo
ec Ã©
Ġllor ar
Ġgri pe
ĠA dolfo
ĠSa int
Ġsus tancia
M el
ĠA Y
w ell
ed es
Ã¡ menos
ĠB ig
ab ras
ĠS ello
Ġr icas
ĠLo zano
Ġm ide
tÃ¡s tro
ĠH ISTORIA
ti er
Ġadecu adamente
Ġcompor tamientos
IV ERS
Ġconce b
ĠYou tube
7 3
Ġbomb as
tic s
ĠPatr onato
ĠF i
Ġregistr ar
Ġfis c
Ġconsigu ieron
Ġva por
Ġan to
per tura
Ġfamos as
Ġexten sa
D UC
F ES
ad el
f un
Ġtelef onÃŃa
Ġrecre a
Ġs h
tan to
Ġra cha
Ġentend imiento
cu ito
Ġaconte cimiento
ĠMon toro
Ġreivind icaciÃ³n
Ġplante an
ĠPa u
G AN
Ġna cer
Ġquer ella
Ġcolabor ador
Ġefica ces
tiz ados
Ġfin alizaciÃ³n
Ġdel icada
Ġdiscu tir
Ġfi anza
Ġbl ind
Ġg adi
ENT OS
Ġvis itan
Ġmover se
Ġvia ja
Ġfortal ecer
Ġca tÃ³lica
Ġbusc adores
ĠArquitec tura
Ġt ÃŃm
Ġmuer e
20 20
Ġprefer ido
Ġapl icado
Ġcuadr ado
ĠMe j
ĠMar cel
Ġres ign
Ġcambi an
Ġpan car
Ġ--- .
cu bierta
ĠGra ciosa
Ġmor ada
Ġejecu tiva
Ġdesplaz amientos
Ġconf iar
Ġafi cionado
Ġintegr ar
Ġreivind icar
Ġ( '
Actu aliza
AR ES
e ado
ĠBÃ¡r cenas
laz amiento
ĠTOD O
Ġs oc
Ġaband ona
aj al
om ar
ĠPar do
Ġdetermin a
ĠL ab
Ġdeb ilidad
Ġpar cel
Ġco j
ĠmÃ¡xim as
D onde
ĠDu que
Ġcelebr arÃ¡n
Ġespec tro
ĠCon tin
Ġped ÃŃa
T rump
Ġrepro ducir
e do
u ci
Ġdedic adas
Ġactiv istas
las encia
Ġabs ten
V IS
ĠOri ol
Ġneces ite
Ġexper ta
Ġcre encias
Ġentr aron
Ġmis iones
Ġcontra tado
ca t
ĠG AL
da f
A un
Ġin undaciones
Ġretir ado
qu in
ĠP ul
IDAD ES
ac tiva
ĠB oy
G aste
Ġlim itaciÃ³n
. ).
ĠT ER
ti empo
Ġab arca
ĠC av
Ġmemor ias
Ġconsol idar
Ġacome ter
Ġfuncion e
Ġpropon emos
ies en
R adio
Ġcentrocam pista
-------- --------
ĠDÃŃ ez
ic ara
Ġcomple tas
Ġsab ores
O fer
Ġinvestig adora
Ġanal istas
Ġs tand
Ġsan itarias
V aya
Ġinver n
Ġtitu laciÃ³n
Ġbod egas
utr iciÃ³n
ĠsÃ©pti ma
Ġvalenci anos
cen tr
Ġcons tantes
ig rante
Ġconduc tas
Ġdesf avor
x is
Ġencar go
Ġreun irÃ¡
L am
Ġexpres iones
Ban k
Ġpar lamento
o va
E con
Gaste iz
Ġp eces
Ġexpul s
Ġcomerci antes
Ġreal icen
ĠH ora
l ing
ĠÃŃn dices
ÃŃ geno
Ġdona ciones
Ġllam o
Ġrecibir Ã¡n
Escu cha
Ġrespec ta
Ã¡ndo les
Ġdispu tarÃ¡
Ġ tac
tic or
xim a
Ġadmi tido
ĠTi empo
b Ã³n
M ED
K A
Ġrespec tivas
Ġpen ins
ol anda
ĠN ier
ĠL ÃŃnea
ĠV eci
Ġma ta
Ġmus cular
Ġadvir tiÃ³
Ġmanten ga
Ġapete ce
ĠkilÃ³me tro
Ġatrac tiva
ĠW all
Ġp ido
TI VA
ciden tales
ĠH ond
ĠFilos ofÃŃa
Ġv ÃŃs
Ġvera cidad
Ġcris tales
L aren
ad erÃŃa
Ġcur s
Ġhi p
Ġep id
Ġ $
Ã¡l v
l ista
Ġdesplaz amiento
Res ulta
Ġcicl istas
in ares
Ġres uelto
ĠX avier
Ġd ila
Ġmedioamb ientales
Ġdes obed
Ġa eron
Ġhar ina
c Ã©
Ġapos tado
ĠRa cing
Ġconcep ciÃ³n
enti do
Ġinclu irÃ¡
us ieron
Ġconserv ador
Ġd aban
ĠÃºlti mamente
Ġdecir le
ĠIn Ã©s
opin ion
Ġpara ÃŃso
p ios
Ġposi tivas
a gu
ib a
es is
ĠN I
Ġcruc ero
i tis
Ġa tas
ĠEs co
ĠAb ogados
j ug
Ġorden aciÃ³n
Ġcin es
Ġa zar
ĠautomÃ³vil es
Ġprecis ado
7 1
ĠtÃºn el
Ġpas illos
D en
Ġpose en
Ġbo tellas
Ġ7 6
Ġges tos
ĠpolÃŃ gono
Sab emos
UP O
Ġ âĢ
Ġad misiÃ³n
Ġazulgran a
Ġprop uso
Ġre lo
Pla za
CI S
tron omÃŃa
Ġcorpora tiva
ĠpolÃŃ ticamente
Ġdecis ivo
R os
ie bre
ĠAr que
Ġreflex iona
Ġestu ve
ĠMul timedia
Ġvir al
Ġan alizado
Ġelimina toria
Ġgu ÃŃas
ĠtÃŃp icos
ĠR us
Ġtendr ÃŃan
Ġgaranti zado
Ġdispu tar
ĠEMP RES
Ġre pÃºblica
ĠW ol
Ġcap tura
te ur
Ġul tima
ĠC ER
af alla
ti ta
ob le
Ġinf lam
ĠO TAN
ĠM ala
ĠRed es
Ġafirm aciÃ³n
ĠPS E
u ga
ĠmÃŃ tico
Ġvideoj uego
Ġrecor re
Ġproduc tora
Ġapar ecido
Ġemerg entes
Ġb ando
Ġo posiciones
Ġins cripciones
Ġpas tor
ĠB ib
d ig
Ġmascul ina
l ismo
Ġpart ÃŃculas
ver dad
ĠN AV
ob ile
Ġti ros
Ġmer cad
Ġh aremos
ĠC RE
Ġconv ierta
Ġrepro duci
Ġperio dos
Ġnecesita ba
Ġampl ÃŃa
Ġse tenta
ĠNier ga
Ġatrav iesa
Ġmur ieron
ĠTo do
Ġtrans fer
land Ã©s
ed ero
Ġsub mar
Ġdismin uir
H ISTORIA
s ab
th an
Ġcontinu amente
Ġimpor tan
Ġque den
P C
ĠInterna cionales
Ġan gus
Ġco gn
Ġto me
Ġrenta ble
Ġsmartph one
Ġconstruc ciones
ĠQu ÃŃm
Ġfund ada
Ġaguan tar
u alidades
ĠArro yo
Ġadel anto
cu te
Ja Ã©n
le a
Sol ici
Ġescal eras
Ġhom olog
Ġs illas
youtu be
Ġse amos
Ġpag ando
r in
ĠAy untamientos
Ġhos tel
Ġex puestos
J orn
ĠaÃ© rea
ĠC ub
ĠcontinÃº as
ip edia
Ġfavor ece
Ġdar les
ĠT ru
Ġra yos
Ġ ÃŃ
lo cu
Ġest n
Ġembara zada
ĠTer cera
Re paraciÃ³n
Ġab ono
Ġsustan cial
V oy
ĠautÃ³ c
Ġr Ã©
Alber to
Ġpu entes
Ġsosp echa
Ġcontrol ado
ĠES TE
5 8
Ġten siones
Ġgran ad
cho ol
ell i
Ġfuncion alidad
ĠGol f
Ġconf irman
ĠEs panyol
l ido
Ġe Ã³l
9 8
ag ro
Ġinmin ente
Ġrecal cado
o a
Bus car
Ġcritic ar
ĠEs taciÃ³n
ens ible
Ġos ci
Ġquir Ãºr
Ġan telaciÃ³n
Ġfinal istas
Ġha ciÃ©ndo
Ġconced er
ĠFuer te
hor ra
Ġges tor
ĠG Ã©nero
Ġper if
ĠCom o
Ġescrib iendo
ĠLuis a
Ġpro posiciÃ³n
Ġsab Ã©is
Ġmul tid
ĠLatino amÃ©rica
fec tos
Ġin Ãº
ĠreÃºn en
Des cripciÃ³n
ĠAn te
Ġfran quicia
are la
henda kari
ĠPu jol
Ġes til
Ġpres tado
Ġre ed
Ġje jeje
Ġcoci nas
Ġexci tante
Ġinal Ã¡m
Ġextran jera
Vers iones
Ġasesina tos
Ġexig ido
T a
Ġv ice
Ġgalard on
Ġsitu ados
Ġse p
v ÃŃo
Ġres tantes
ss ss
Ġmic rÃ³
Ġes tiv
Ġdi ariamente
Ġdocumen tales
ĠpÃ¡ jar
Ġinter ro
Ġdestac ando
Ġpe trol
Ġsensibil izaciÃ³n
Ġincre mentado
Ġhuman itaria
ĠT ech
ĠP ok
ĠFer mÃŃn
ĠLeg isla
Ġdiv orcio
Ġreserv ar
P i
Ġmoder ado
Ġmercan til
S erg
ĠtÃŃp ica
ĠGuer rero
Ġaban ico
ho o
Ġpre cep
ĠacadÃ©m icos
ĠM Ã³nica
Ġbal cÃ³n
Es c
ĠTorn eo
ĠClin ton
Ġabor da
Ġrepu taciÃ³n
mo ciÃ³n
soci al
Ġescal era
ch ando
Ġ8 2
I AL
Ġamb ien
ĠG ay
mu jer
Ġlic enci
Ġhor ror
g ÃŃa
n istÃŃa
Ġautor iza
ent ÃŃn
ten ario
Ġd Ãº
Ġparcial mente
' ;
Ġmari huana
abor aciÃ³n
Ġefici entes
y mar
Ġinm or
Ġ7 1
elas co
Mu cho
te za
Ġasoci ada
Ġpor tales
ĠMi ami
O fre
po le
ed icto
Ġmol d
ĠG es
Ã¡ frica
Ġimple mentar
ĠES P
Ġavan zando
ec os
Ġver ificaciÃ³n
Ġ9 1
je ta
cad en
Ġesta fa
Ġtur ista
esp ana
ĠSer ena
ĠS w
ĠImp erio
r enda
ĠT ajo
ĠAc tividades
Ġind eb
s em
Ġl on
? ...
Ġingenier os
. ;
Ġtr Ã¡g
i cion
ĠL ED
un ar
ĠJer usal
ced imiento
ĠFrigor ificos
Ġgras as
Ġpermitir Ã¡n
Ġtras torno
di que
Ġim posiciÃ³n
U su
Ġobs es
Ġen te
Ġexperimen tando
AR RA
Ġdetal la
ĠTerri torio
av en
Ġenm ienda
Ġte mÃ¡ticas
ĠPue bla
Ġre tor
Ġauto movil
ĠclÃ¡us ulas
Ġproxim idad
Ġhipo tecar
Ġg estiones
ĠAr ena
ĠTrans porte
ĠBan da
Ġllev ada
Ġba terÃŃas
Ġart ÃŃsticas
Ġcompeti tiva
Ġan cianos
Ġcondi cion
t te
Ġasal to
cier tos
ĠAn tÃ³n
his toria
Ġb alear
Ġpon ÃŃa
ĠC le
Ġaprovech Ã³
Ġbaj ado
ĠdiseÃ± adores
Ġencu es
ĠSpa in
Ġcon gresos
tr icas
Ġes paÃ±a
Ġgalard ones
im entos
Ġposi cion
Ġextre madamente
Ġar rend
Pre cio
Ġabo ga
Ġsuces os
Ġintelec tuales
Ġprofund izar
Ġactual ices
ĠCientÃŃf ica
Ġsug iere
Ġemp eÃ±o
ĠLe tizia
par tid
id ent
ĠMic ro
Ġanal ÃŃticas
Ġpopular idad
ĠMi quel
Ġdefend iÃ³
ĠE QU
Ġpase ar
ĠhÃ©ro e
id Ã³
Ġsubray Ã³
ĠV III
rer ÃŃas
Ġdes vela
Ġ1 000
Ġfantas ÃŃa
ENT ES
ĠS port
a cia
Ġimpu tado
Ġs end
Ġb ono
Ġmanio bra
cal le
Ġutiliz adas
Es qu
ĠCu ando
Ġfuncion ando
Ġ 00
Ġampl ias
Ġ9 2
Ġob esidad
ĠAf gan
ĠDec laraciÃ³n
ĠK ing
b aciÃ³n
Ġdesarroll Ã³
Ġsem illas
un tas
ĠEs colar
Ġper u
Ġan da
bro wser
ĠMov ilidad
M enos
Car men
ĠPer manente
om ia
Ġmed allas
h onda
end or
ar ti
Ġ7 7
Ġges tores
ian zas
Ġdem on
ven iente
Ġcampe ones
Ġcoleg as
Ġtrabaj Ã³
\ /
Ġescas o
Ġen ci
Ġ8 4
br icas
ĠeconÃ³m icamente
Ġm em
bi to
ĠCon cha
Ġmar g
Ġplan tillas
Ġs tar
Ġb uro
Ã¡nd ome
p lo
er ta
V AL
Ġd ados
ĠP icas
ĠCor rea
al ÃŃa
ĠAm igos
Ġa mo
ĠIber ia
r eros
Ġden s
Ġmedi aciÃ³n
b all
ĠP AL
ĠTorre lavega
Ġ199 1
Ġsa co
Ġn on
Ġconsider e
ĠMov imiento
ĠGus tavo
p to
z aron
Ġro tura
ĠT ron
cam pe
Ġorgullos o
Ġc itados
Ġme ga
di tos
om er
ĠGRA TIS
rie to
Ġha gas
Ġconsider ados
Com ple
Ġtr ajes
f t
in er
ĠEcon Ã³mica
Ġexp and
Ġcuer da
ĠPERS ON
Ġh ard
Ġfich ajes
ĠEr nes
Ġatend ido
S L
Ġac ar
Ġh uesos
Ġzapa tillas
Ġrecib ida
tiz antes
Ġmom ent
Ġconf usiÃ³n
Ġp ez
C V
Ġes tir
fran ca
entar ia
ven tar
Ġpublic an
Ġcer do
Ġesc Ã©n
Ġclas ificado
ĠÃ¡ cido
Ġd ÃŃg
Ġop tado
Ġexter nos
Ġdesm ante
ĠT ol
ĠBartol omÃ©
Ġdeci da
EN O
segu ida
ĠP ay
ĠPe la
ĠA eropuerto
Ġvideo clip
Ġreiter ado
Ġar ra
Ġ11 0
Ġesque ma
id era
vers aciÃ³n
Ġpoderos o
ĠtrÃ¡ns ito
ĠSof tware
Ġcontr ola
ĠMer kel
Ġest ÃŃm
Ġreemp la
ĠÃŃntegr amente
tÃ© tico
ĠdÃ© cima
Ġref iero
Ġpon encia
S ello
ANT ES
graf ÃŃas
ĠsÃ¡ bados
ĠConsell eria
Ġman dos
Ġdes bord
ministra tivo
S H
Ġv imos
ĠN er
Ġrecon stru
V alladolid
ĠY A
Ġro ca
ĠT op
Ġpea ton
Ġv aria
Ġfra ud
p ido
Ġentre gas
Ġr ond
ĠConse jero
ab y
ĠI Ã±igo
ĠCO PE
ĠAdri Ã¡n
Ġco hesiÃ³n
Ġtu ya
Ã¡ til
ĠF ed
fi tr
ĠB AS
Ġagre gado
Ġc Ã³n
Ġorganiz adas
Ġcre ciÃ³
iz arÃ¡
ĠW il
ĠPeriod ismo
ec erÃŃa
c ÃŃ
Ġcolum nas
Ġatra cciÃ³n
Ġadj unto
olÃ³g icamente
ici ar
EN S
ĠBos que
ĠEnfer merÃŃa
Ġconseguir lo
Ġpretend ÃŃa
Ġsacr ificio
is ter
Ġwhat browser
Ġne gras
ĠMan uela
Ġbara ta
Ġarquitec tos
9 3
Ġver Ã¡s
Ġemprend imiento
Ġrobo ts
ĠAl ca
ĠHern ando
s ica
Ġdiscul pas
Ġnar iz
Ġcomun itaria
Ġ198 9
Ġvenezol ano
Ġaleg re
Ġhum ilde
T ex
Ġpre temporada
Ġweb cam
ĠJard ÃŃn
Ġconcil iaciÃ³n
Ġpreocupa ciones
uc k
Ġpla tÃ³
ĠMo da
B al
ĠNet flix
Ġdescon f
ĠDI REC
Ġfil a
Ġa ra
Ġtradu ce
ĠTrabaj adores
ĠSala zar
ĠPan amÃ¡
Ġselec tivo
Ġpres ion
Ġdepor tista
Ġpor tadas
Ġinser tar
Ġimplan tar
Ġm io
Ġir respons
ĠO br
pa tr
Ġclas ificados
Mus eo
Ġa zo
ĠN ASA
Ġsencil los
ĠM ikel
ĠNatural eza
O l
as is
ĠBol ivia
eno v
ĠGu ad
O fici
Ġpronunci ado
esti m
ĠMir anda
Ġesta tales
Lle ga
San tander
ON ES
Ġprecip itaciones
Ġan tis
Ġabr irse
S ale
Com un
ĠWilliam s
Ġjustif icaciÃ³n
ĠFe brero
Ġpens Ã©
eg an
ĠLo pe
Ġabon ar
Ġholan desa
Ġa ba
t m
p edia
Ġpresent adora
ale jo
Ġfin a
ĠA ula
Ġrom anos
onos ti
ĠG PS
ĠF O
epend encia
qu ismo
all y
Z apa
da y
Ġcomple tos
Ġinterrump ir
poli tica
Ġhim no
Ġcir co
Ġenfren tamientos
f ÃŃn
ĠS EM
Ġresid encial
ĠRen fe
ĠE van
Ġoscu ra
Ġaf oro
gul lo
ĠvÃŃn culo
C M
Ġende ud
Ġch ir
ĠH onda
Ġer mita
Ġlav ado
Ġceb olla
Ġhalla zgo
Ġllev aban
ĠMag dalena
Ġgen Ã©tica
Cal le
Ġvari ada
re querido
Ġtoler ancia
Ġestup endo
Ho teles
Ġd uer
Ġgratu itas
Ġtra tÃ³
Ġproporcion an
sen al
Ġpreven tiva
uel le
Ġmon edas
ĠPar ticipaciÃ³n
ĠBas ket
teri ales
Ġpen itenci
Ġeleg ancia
Ġpa pa
ĠSeg uros
Ġsan gu
H E
Ġpremi ados
Ġreform ar
ran d
Ġnewslet ter
Ġequi par
Ġver ti
ĠVer ano
Ġrecib o
el sea
Ġsan eamiento
qu o
Ġcal cular
ĠF ol
ĠSa udÃŃ
ĠR ay
Ġcoti za
ĠGalle go
Ġtitu lada
Ġverdad eros
Ġo las
Ġnov enta
AR D
ta je
ĠMar quÃ©s
An uncio
ĠBre taÃ±a
R SS
tud ios
u za
Ġocur ra
Ġpin cha
Ġal godÃ³n
Ġlib rerÃŃa
ĠPsic ologÃŃa
Pal ma
Ġhu Ã©sped
Ġconoci Ã³
ĠAri as
ĠRom Ã¡n
ti ga
Ġproble mÃ¡tica
ĠCar ibe
Ġfach adas
Ġanim ado
y on
ĠE z
Ġus ados
ĠH AB
Ġproteg e
orm almente
tÃ³r ica
tim amente
Ġrod illa
Ġnum ero
Ġdipl oma
Ġcompr adores
Ġoport uno
ĠT O
OL U
Ġorden ado
Ġpor tavoces
Ġforma tivas
ĠÃ³p tica
Ġreb aj
Ġtrans mite
Ġdefec tos
Ġpr incesa
Ġsupermer cado
A E
Ġm ero
" ?
Ġprohib ir
ĠA bo
ĠS ON
tis te
ĠGal lar
Ġrod ean
Ġsupon drÃŃa
Ãį DE
Ġcau tiv
Pre mio
kul lu
per cib
enti na
ÃŃn eas
Ġsur gen
Ġun ilateral
Ġfum ar
ĠEstre lla
Pue den
Ġestro pe
Ġtram itar
ĠA za
ĠN ico
ĠbÃºs quedas
gor it
Ġ zar
ir os
Ġaprob ados
Ġub icaciones
ĠF und
gul ares
Ġargu men
tu osa
201 4
Ġimper ial
Ġefec tividad
on mano
Ġases ores
ĠAn na
Ġgu ionista
Ġarm ado
Ġinfec ciÃ³n
Ġdirig irse
ĠA par
iver pool
ĠOr igen
Ġdefra ud
Ġbol as
To ledo
ĠCon cepciÃ³n
Ġgobier na
iz aron
ide portivo
ĠFuen labrada
ĠRena ult
ĠHerman dad
ĠNav as
Ġdesarroll ados
Ġoscur idad
ĠAgru paciÃ³n
ĠDirec to
Ġte orÃŃas
Ġpantal ones
uel ven
Ġte les
ĠPro yectos
ĠB ell
Ġterri toriales
ĠPol ÃŃ
oc as
Con tamos
Ġc il
ĠVil lam
Ġtum ba
ĠP I
ĠP ino
Ġisrael ÃŃ
Ġintercam bi
Ġfal tas
ĠW est
ĠMetro politan
Ġsin ton
Ġcamp amento
ĠAmb iental
Ġbancar ias
b s
Ġsent ÃŃa
z i
Ġelev ar
Med iante
Ġconvir tiendo
ĠR ayo
" ),
Al c
ĠCol Ã³n
Ġmil en
F R
ĠAl ianza
Ãī N
ĠCon cello
ĠCl ima
Ġelim inado
IT OR
Ġremi tido
Ale mania
ho use
f us
Ġconvertir Ã¡
Ġllev arÃ¡n
ĠUnivers o
Ġde vo
Ġoper ar
Ġtin ta
ĠA ug
Com er
Ġoptim ismo
Ġconcienci ar
ĠJ ueves
Ġin tim
ĠN OR
Ġpa ck
Ġpa tin
p ensa
Ġbol so
ĠS UP
que te
Ġval idez
Ġemocion ante
ĠV ino
Ġe gip
Ġjue za
Ġajus tar
Ġpreocup ante
Ġbus co
Ġdar te
ĠG Ã©n
ac Ã³n
Ġmar can
B or
ĠT os
Ġbac terias
V ive
Ġla go
Ġal iado
Ġcomp u
Ġso Ã±
Ġmil agro
ĠR as
Ġh ones
an ces
Ġcons ecuciÃ³n
Ġhermos as
Ġder bi
z y
daf one
Ġprevar icaciÃ³n
, "
ee k
Ġjard in
Ġconserv adores
AM OS
ĠManzan ares
Ġro t
s im
Ġinnov adora
Ġestup enda
re ci
Ġconsider arse
Ġmex icana
Ġder rum
ĠdÃ© biles
Ġnavar ros
ĠNe ymar
Ġvia jero
ĠHer ria
es co
Ġglob ales
Ġcomun ic
Ã¡ logo
Ġtom ada
Ġenga Ã±
cul tural
ĠPir ineos
ĠD ay
Ġactiv ado
Ġagr ÃŃcolas
Ġbon itos
J OR
u rez
ĠJ ones
V illan
ĠAnd orra
ol is
Ġdomin gos
Ġ8 8
Ġr isas
Ġpeligros a
Ġal a
val o
GU A
Ġsobre pas
gun as
TR AS
ti Ã³n
Ġto l
Ġapos tando
Ġases inado
P ien
ie la
Ġtraslad Ã³
Ġmedi Ã¡tica
Ġcul tiv
mi ra
el ig
Ġapun tar
Ġcontamin antes
Ġcompartir lo
Ġta pas
ps ia
Ġle v
Ġpa Ã±
ĠMar te
ĠS ta
Ġg lor
ĠCor tÃ©s
Ġir an
Ġcardio vas
al s
g aba
ĠC res
Ġin tes
Bil bao
Ġaplic ando
ĠCE O
ĠT IEN
Ġsim p
ĠSil via
Ġcompeti d
Ġr amas
Ġcompeten tes
ab ilidades
Ġclas ific
J ul
Ġdegus tar
ĠDes d
ĠAr tur
Ġman zana
Ġdescon ec
p y
ĠOl iv
ĠA us
Ġfes tivo
Sal ud
Ġloc alizado
lam o
Ġca tÃ¡stro
Ġvein ti
Ġvisi tando
ĠVa ticano
ĠMa ur
ĠB ul
ch an
Ġeng lo
icios os
Ġdedic Ã³
Ġentre gÃ³
ten cias
Ġpresen tando
rÃ¡ ul
Ġrecord ando
Ġprogram ado
Ġle o
ER OS
Ġpeligros os
Ġro jas
Ġven go
ĠVia jes
Ġdescu briÃ³
Ġconsid ero
Ġimp r
uel tos
Ġfom en
d in
ĠX I
Ġelabor ados
Ġcar rito
ĠVI H
Ġa tiende
Ġcristi ano
Ġpromo tores
Ġan fitr
Ġcan on
ĠJuven il
ĠVar gas
Ġcorto me
ĠLe tras
ĠJ x
Ġestable cida
Ġganad erÃŃa
Ġexter no
B LE
ĠPar lamentario
Ġdese quilib
ĠInvesti gaciones
E ducaciÃ³n
Ġvincul ada
ĠIs idro
ĠC ord
em i
Ġnega tivas
ĠCarras co
Ġrecord amos
Ġpil as
ĠX IV
Ġcor dob
ĠE uros
Ġs tre
C r
Ġahor ros
Ġag il
ĠD or
Ġsegu idos
Ġpreserv ar
cu alquier
P ola
Ġhistori ador
ĠT EC
s olu
Ġzan cad
ĠPrim er
ent ÃŃa
ÃŃ lica
ĠFe ijÃ³o
Ġdeb ÃŃan
Ġinvestig ados
Ġ198 0
ĠMU Y
ĠDesd e
Ġlar g
id urÃŃa
Ġentren ar
Ġnucle ares
Ġestim ado
Ġc ig
Ġvig entes
Ġse gn
Ġconcen traciones
ĠLen gua
j uez
r ica
ĠU D
Ġcompens aciÃ³n
Ġdetermin ante
Ġc Ã¡p
Ġconf id
Apro vech
Ġtra uma
ili ares
Ġcre ÃŃa
Ġ9 8
i u
Ġn arr
Ġes par
ĠC ay
Ġdirig ÃŃa
Ġingres ar
voca toria
ĠP ep
Ġmedi ano
u ts
Ti po
lan tes
Ġsenti mental
Ġsign ific
Ġqued Ã©
Ġdec ÃŃan
Ã¡s ica
Ġasturi ana
Ġgrab ados
Ġsa cu
Ġseleccion ador
o C
ĠU ruguay
Ġdej es
ĠÃŃn teg
Ġmedi Ã¡tico
d ios
c m
Ġ19 36
Ġcas ino
Ġasegur ando
-- ,
ĠAfgan istÃ¡n
Ġambi ciÃ³n
poner se
Ġesc ar
pl as
Al f
ĠT an
cal d
G irona
Ġcar naval
ĠO bra
Ġpercib ir
Ġme tas
ĠO B
Ġe itb
Ãºd anos
T h
Ġestim ul
Ġterra zas
ue bl
Ġsus crib
Ġne u
tu v
Ġajus tes
Ġpar rilla
popul ares
Ġc enso
ĠV iernes
ĠaÃ±ad iendo
OO OO
Ġestudi ado
eg al
ĠPolit Ã©cnica
ENT RO
Ġsitu Ã³
Ġhabr Ã¡n
!! !!!
Ġindic ando
v s
Ġimpul sa
ĠH amilton
P RES
Ġaumen tan
Ġca en
ER IA
Ġliqu idez
tana torio
b eda
Ġvengan za
Ġvo ta
Ġadelan tar
Ġimple mentaciÃ³n
ĠnÃºc leos
Ġetc Ã©tera
n in
ĠEn ero
idad a
Ġca torce
G C
Ġprodu jeron
Ġexclus ivos
E TA
Ġ16 0
ĠM S
Ġse quÃŃa
H ac
es pecial
v ales
Ġr amos
Ġinspir ado
ĠSol id
Ġprogres iva
un cios
ĠJu ana
cas i
Ġesc la
ĠM OD
ĠV elasco
ĠFlor ida
j antes
Ġmagistr ados
f ix
Ġcopi ar
Ġsolici tada
ĠSig lo
Ġcre aciones
Ġveter ano
Ġesp ada
Ġma tices
ĠCor ona
ĠD anza
ano va
ĠResta urante
Ġpa tas
ĠPol o
com paÃ±
Ã³r mate
Ġl lo
ĠZ an
r ista
Ġdi etas
Ġacumul aciÃ³n
Ġcon gre
Ġabur r
Ġrefuer za
go o
Ġelec tro
Ġimag ino
end i
ĠA gosto
Ġp gina
Ġtar ta
Ġtorne os
men tas
ĠsÃº per
ĠmÃ¡g ico
R ub
Ã¡ v
Ġub ica
ĠMar vel
Institu to
Ġapoy ando
ĠA qu
Ġfabr icar
Ġmi tos
Ġ8 3
CH O
tra jes
ticor rupciÃ³n
R om
ac ar
es tra
ĠAu x
Ġmen cion
Ġutiliz Ã³
200 2
Ġconsecu tiva
ĠR ies
Rec om
Ġcar ece
Ġll Ã¡menos
vers a
Ġnorteameric ana
Ġrecib idos
Ġcafe terÃŃa
ĠSan cho
ĠLin ares
ĠE P
ĠquÃŃm icos
G obierno
Ġotor gar
Ġponer me
ta Ã±o
Ġat letas
ĠUnivers itat
Ġte clado
ĠMil itar
Pa tr
Ġhorizon tal
Ġsuced en
Ġdesp ide
ter n
par tito
C AN
Ġacre edores
ĠF IFA
Ġdesempe Ã±o
Ġfurgon eta
Ġaux iliar
Ã³g icamente
Ġtre m
Ġinterfa z
Ġaden tr
Ġabund ante
Ġin und
F undaciÃ³n
Ġin ac
Ġprivi legio
tar emos
ĠsÃ³l ido
Ġsim bol
Ġelector ado
Ġocta va
Ġmol esta
ĠD A
Ġpes etas
Ġregul ares
s Ã³lo
Ġedi tora
âĤ¬ .
Ġestruc tural
Ãī ste
Ġta quilla
Ġform Ã³
ĠF lamen
Ġr usos
fo x
ĠLan zarote
im ia
Ġconstitu ir
Ġprov iene
Ġprepar an
Ġos ten
Ġasi Ã¡tico
Ġultrader echa
c f
tor y
ĠM endo
Ġc lam
enta ble
Ġescuch ando
ĠE che
Ġindis cu
g ob
Ġa jo
Segu imos
Ġlec ciones
ĠDes cu
Ġaumen tÃ³
e h
Ġinvers or
ĠP om
g am
ĠPl us
Ġal ican
ĠUn icaja
ĠestÃ¡ is
um as
Ġgu iadas
Ġpal os
Ġsan ta
ĠFer rol
Ġcompl icaciones
Ġll enos
Ġconf luencia
Ġresca tar
Ġelec tores
ĠAlma cen
Ġimpar te
per as
Ġord inario
eci d
Ġparcel as
Ġdes cribir
G onz
R I
Ġal usiÃ³n
Ġord ena
ĠV izcaya
ĠgÃ©n eros
Ġsign ificar
ĠS MS
Ġreb ajas
Ġ197 7
Ġha ci
G OS
Ġres idente
un iÃ³n
em bol
Ġaf luencia
Ġobten ida
if ique
gu enos
Ġra cional
qu ÃŃn
Ġesc ru
tu p
Ġvir tudes
la ces
Ġdemostr ando
Ġpud imos
ĠGab inete
Ġescas ez
Ġestad ÃŃstica
Ġdesa percib
ĠEnseÃ± anza
C rea
cter ÃŃsticas
Ġescri torio
Ġdoc encia
Ġinter locu
Ġgeo grÃ¡fica
Ġpos turas
ĠCam ar
Ġvege taciÃ³n
Ġdeclar ada
Ġprivileg ios
Ġc ueva
ven tos
ĠfÃ¡rma cos
b oc
Ġcompues tos
Ġes lo
Ġpros tituciÃ³n
Ġgen io
) -
Ġox ÃŃgeno
Ġreco lec
i piÃ©
Ġcar os
ĠL ive
Ġdescar gas
Ġg oma
Qu ienes
ces is
Ġtradicional mente
ĠAy uda
Ġdar ÃŃa
Ġor aciÃ³n
id orm
Ġi OS
Bur gos
Ġ12 5
ĠMan u
ĠA re
ph p
Villan ueva
ĠF U
Ġofre ciÃ©ndo
ĠVir tual
Ġaj eno
B E
ĠB ir
Ġinf ierno
Ġrad ica
Es os
an istas
Ġdi Ã³
COMUN ICADO
vol ta
ĠIntegr al
G UR
ha ce
Ġabsur do
k as
Ġconvirti Ã©ndose
ĠSan ti
ĠPor t
Ġingres ado
Ġe man
Ġor gÃ¡nica
Ġsegu iremos
Ġac tÃºan
I MA
ĠProfes ionales
ĠPo wer
Ġnav idad
Ġsuper Ã³
ĠG loria
ĠU crania
Ġna cidos
A grad
ĠLib ia
Ġemple ar
Ġto pe
qui Ã©n
ĠEntidad es
IEN TE
ĠinstantÃ¡n eas
las ka
V il
Ġespeci alizaciÃ³n
Ġinmedia ciones
Ġr iego
Ġdud es
p adas
De tec
ing er
enci ar
D oc
Ġaband one
Ġargu menta
ien a
Ġimpu tados
Ġpens ionistas
g ante
mo v
ortun adamente
ver g
Ġgusta ba
ĠintÃ©rpre te
Ġkil o
Ġcam pes
ĠB es
Ġorganiz ados
is tes
Ġganad eros
Ġ ora
cu atro
H ubo
Ġex ilio
Ġre ÃŃr
Ġinolv idable
Ġarmon ÃŃa
Ġpr orro
Ġtermin ales
r amos
ci adamente
ÃįDE O
ĠsÃ³l ida
Ġimpu gn
Ġpubl ico
l iber
ĠMad re
Ġc ep
ĠÃģ n
ĠCatal ana
fr on
ĠacompaÃ± an
Ġs ta
Ġayud e
in go
Ġcorr en
ĠEstra tegia
E usk
is cipl
Ġbor ra
Ġdefens as
Ġor illas
ĠB la
ed rez
io terapia
Ġ8 6
z arse
Ġbre v
ev in
Ġin seguridad
Ġtur co
9 6
Ġmar ÃŃtimo
ĠEs tudiantes
Ġconven cionales
Ġcoher encia
ĠCon tac
Ġvari ar
Ġcor ro
Ġalquil ar
Ġcab ida
ĠTecn olÃ³gico
icis mo
P amplona
n ico
i tamente
Ġcicl ismo
Ġop inas
Ġempez amos
H H
ĠMa pa
ĠAndalu za
Prim er
Ġtrabaj aba
Ġmas ivo
Ġexperim ento
Ġfr eno
I magen
Pul sa
Ã ¤
ue ces
ĠA V
Ġinforma cion
Ġmon tes
ĠC ora
Ġadquier e
ĠV egas
T IL
ĠB rig
ir us
ĠC ajas
ĠJ A
Ġperd ieron
determin aciÃ³n
ts errat
B iblioteca
Ġregistr adas
Ġdel im
cald e
Ġindic ador
ĠSol er
ĠC eb
Ġpresentar Ã¡n
icul ares
Ġrevel ado
Ġinsufici ente
Mar tÃŃn
Ġamb icioso
ris as
Ġprestig ioso
Ġopin ar
Ġal gorit
ĠUP N
Ġdesprend e
Ġauto pista
Ġpremi ado
ĠF rente
Ġale j
Ġerr Ã³n
Ġvolun tario
Ġdefens or
Ġameric anos
ĠL abora
cion ismo
Ġrend ir
Ġconten tos
ajada honda
Ġcoher ente
Ġpion ero
ĠvÃŃn culos
Ġvis tos
Ġpen ales
ĠCab o
cal a
ĠBM W
Ġpe gar
y m
Ġelabor ada
ĠcÃ¡l culos
Ġsolici tÃ³
ĠO x
Ġdescon oce
Ġrecomend ado
Ġacostumbr ados
ce o
Ġp im
Ġsospech oso
Ġespeci alizadas
ĠL ola
Ġmal lor
Ġespecif icado
Ġhab ia
ies to
ĠInspec ciÃ³n
Ġconf or
orm al
ĠNor uega
ab i
Ġanaliz an
il aciÃ³n
Ġestric tamente
cre tamente
Ġnerv ioso
U CA
Re alizamos
ĠZ el
Ġcu ente
tur bios
Ġcom pone
Ġaus teridad
ĠMa gos
pa tÃŃa
ĠI D
n ea
Ġburbu ja
Ġprol ifer
Con greso
b ablemente
Ġr ara
Ġdomin ios
Ġf ic
Ġv ano
Ġdispar os
Ġpr isa
ti enden
F il
Ġcentr ada
Ġenfr ente
ĠvÃ¡l ida
ard ar
Ġpasa porte
Ġsacerdo te
Ġconsecu tivos
Ġpro gen
Ġcar nes
Ġdese ando
Ti empo
Ġmas aje
ĠTrans portes
C COO
Ġcons istente
Ġfeder aciÃ³n
Ġitiner ario
Ġdorm itorio
Ġab uelos
Ġlle ven
Ġdisfru tan
Ã©s ima
ĠIber drola
Ġley endas
Ġlo bo
ĠPar is
ĠMc Laren
T aller
ĠRog er
vi al
Ġmar ino
Ġeter no
na u
Ġcolabor ado
Ġinquie tudes
: -
Ġbio grafÃŃa
ĠWi Fi
ĠZ ara
h en
Ġbo x
Ġrealidad es
Ġres istir
Ġparticipar Ã¡
P U
Ġdar nos
9 1
Ġdoc ena
Ġsub en
ĠS EC
Ġ8 1
ĠNo v
Ġj oya
ĠCon ten
Ġpara je
tar d
imen ea
Ġmayor itariamente
Ġcuch illo
pi Ã³
ĠA da
Ġsub iendo
ĠN uevas
ple mente
ĠJur ado
Es pa
Ġinvas iÃ³n
pul os
du la
Nav egaciÃ³n
j un
Ġcono zca
Man ten
ĠJerusal Ã©n
Ã©r icas
Ġfron ter
Ġcos tÃ³
Ġra bia
ĠA mp
Ġpatr ones
Ġapre cia
t ÃŃsimo
Ġcor o
ch or
R AS
ĠM ira
ĠVER DAD
Ġinfl uencias
Supon go
Dis pone
ĠN E
ĠL and
Ġsobre cubierta
te xto
Ġlog ÃŃstica
Ġincor rec
Ġembar caciÃ³n
Ġregistr aron
Ġg all
j anza
Tam bien
ĠCh an
Ġotor gado
Ġfavor itas
Ġna cion
cam ientos
en al
Ġre ga
Ġeste mos
Ġver ificar
B adajoz
Ġse as
Ġsatisf echos
igu al
ĠLu x
Ġemis ora
ĠGuardi ola
Ġaleg ra
J OS
Ġco yun
Ġto mas
Ġfil tro
Ġsole m
Ġpsic ologÃŃa
Ġvend edor
ĠR an
Ġc obre
Ġcristi anismo
Ġpasar ela
Ġesper anzas
9 7
Ġbo le
Ġacab aron
Ġespl endor
Ġle jano
ĠRob in
Ġdiv ide
200 3
Ġan illo
Ġtern ura
Ġh ombro
Ġhol andÃ©s
ĠbaÃ± era
Ġacer can
Ġencla ve
Ġdepender Ã¡
Ġalma cÃ©n
Ġcircu itos
Ġliber ales
ĠPin to
ĠLo terÃŃa
V an
D r
ĠQuin tana
b ero
Ġreestruc turaciÃ³n
Ġrepar tidos
ten siÃ³n
ĠHis pan
ĠS imon
" ).
Ġconocer se
l on
Ġdec ena
Ġpin tar
** **
ĠM IN
Ġind u
Ġregal ar
rue ba
ĠW ood
cil lo
Ġvers os
Ġpob la
Ġor ejas
) ...
Ġrol lo
Ġolv ida
ĠHar ry
Ġ> >
ĠCol or
Ġad entro
Ġperson alizar
Ġpsic olÃ³gico
Ġperman ecen
UD AD
Ġ //
Ġmon arquÃŃa
ĠK m
Ġdiscrim ina
bl as
ĠTecn olÃ³gica
Ġquer Ã©is
Ġextra cciÃ³n
Ġsus ci
Ġtu it
Ġban cario
Ġexplo taciones
Ġampl iamente
Ġfi abilidad
Ġbrillan tes
pi to
Ð ĥ
Ġresta ble
Ġpod cast
Ġexplo tar
ug h
ĠDemoc racia
Ġlevan tado
Ġver b
pl ante
Ġmanda tario
ĠArm adas
Ġautonom ÃŃas
pon a
F EC
Ġingles es
ĠSud Ã¡frica
ĠAn Ã¡lisis
Ġcenten ares
Ġgaranti ce
ĠRev oluciÃ³n
Ġtable t
Ġzancad illa
Ġregul adoras
ĠM ete
Ġopera tiva
ues a
Ġemple a
Ġsof Ã¡
Ġa ragonÃ©s
am on
Ġinv ad
ĠrÃ¡p idos
Ġres istente
Ġintrodu cido
Ġmatr imon
Ġinnov adores
min o
Ġsosten ido
Æ Ĵ
Ġveci nas
Tor re
Ġinfrac ciones
ĠO ff
ĠT OR
ĠcÃ³ mpl
Ġinm un
Ġnutr iciÃ³n
ĠCa Ã±
Ġincid ido
Ġcocin ero
Ġequip ada
Ġescal ada
ber t
ch ÃŃs
tar iamente
Ġoc cidentales
ĠO peraciÃ³n
Ġdepend en
ar os
ol in
Ġfin cas
ĠG od
ĠAr rimadas
O jalÃ¡
los a
tina cionales
Ġinstitu tos
Ġcanad iense
ĠBa t
f eo
Ġsemin ario
Ġenv idia
dem Ã³cra
IS T
Ġestatu tos
Ġrepe ticiÃ³n
Ġpatrimon ial
ul idad
l ie
Ġb esti
Ġinv itamos
g rupo
ĠS chool
Ãļl timos
n dice
ĠSem inario
pre ma
L im
Ha cer
Ġgab inete
Ġsus ten
ad eras
ĠdÃ©ci mas
ĠAN D
M U
as iÃ³n
ĠG obier
Ġquer idos
Ġin cau
Can arias
Ġpo zo
gu erra
Ġsecund arios
Ġadelan tÃ³
Ġtor res
zob ispo
v ada
ĠA QU
Ġde tiene
ĠC ela
Ġpron Ã³stico
Ġmicro ondas
Ġsolv encia
lo t
Ġcomun ista
ĠP ic
Ġf lash
ĠIngenier os
Ġurban as
Ġtem bl
val les
Ġmed iciÃ³n
Ġactu ado
Ġ9 3
Ġfa cul
k en
Ġbiod iversidad
Ġcan tera
Ġagres or
Ġvaria ciones
ĠF lash
Ġre habil
Ġsecu es
pos icin
is ma
Ġcompro bado
Ġras tro
Ġob viamente
Ġtrav es
ĠM uy
ĠMendo za
ĠJa zz
ĠB AR
Ġcome tidos
ĠI m
Ġcontribu ido
Ġexces ivo
ĠCh arles
ĠN ev
Ġlo gran
Ġten or
ti es
Ġag lu
Ġalcan zan
T arragona
Ġembar caciones
Ġpatr io
as en
A t
Ġcelebr ando
Ġcancel ar
med ios
ĠdÃŃg itos
ien dan
Ġcru do
ĠG AR
Ġh ura
Ġacog ido
Ġmun dos
ĠAg ro
Ġpres cind
um nos
ĠX box
Ġcru cial
Ġesf or
Ġsuper ando
Ġtermin e
Ġdis capaci
Ġpre co
Ġferro carril
ĠCh ico
eg em
ĠRet weet
Ġactu alizada
Ġfue gos
orm emente
Ġdomici l
to da
se gÃºn
ĠT ran
Ġan dadura
Ġal as
ĠBra vo
Ġt Ã³x
Ġinstal ada
lic k
B ER
Ġencontr Ã©
ĠlÃ¡s er
Ġestr enos
Ġdefens ores
ch ada
ĠlÃ¡ mp
Ġprem isas
Ġpreju icios
Ġsosten ibles
ĠBos ch
Ġsegu ÃŃan
Ġsome tidos
Ġrep un
L TI
Ġseman ales
S tar
Ġcur iosa
ĠRo que
ĠVal entÃŃn
ĠAb ad
D ocu
bas e
Ġsentar se
R u
Ġque br
ĠAn ni
ĠHer mano
cas te
Ġcompr ador
Ġactiv amente
Ġtu tor
Par ticipa
Ġextran jeras
Ġviol entos
Ġpues tas
ĠCam ps
Ġadecu aciÃ³n
fu ente
Ġdesign aciÃ³n
as ÃŃ
Fal lece
g ido
Ġen con
fer rada
va tar
ĠTrans parencia
Ġaparecer Ã¡
Ġprovin ciales
Ġdol ores
I mÃ¡genes
Ġrecib idas
ĠE FE
Ġvulner abilidad
Ġvar ones
V AS
Ã©s el
Ġagrupa ciones
ĠL iverpool
ĠEmpres arios
ĠSal va
Ġdor ados
Ġver an
Ġp Ã³
ĠBal les
Ġped irÃ¡
Ġped ag
Ġignor ancia
Ġrepresen tado
Ġfavor ables
Ġsal ÃŃa
ĠGENER AL
Ġc recen
Ġopera tivos
Ġevidente mente
ĠO P
Ġexclus ivas
Ġap unto
m era
ĠC OS
O p
Ġcoordin adora
Ġso portes
Ġforma tiva
Ġavan zadas
ĠBau tista
Ġr ama
Ġace ites
Ġexitos a
ĠP op
Ġtermin an
Ġoblig Ã³
y L
Ġatr ibuy
Ġpoderos os
Ġpas en
icul ar
ĠLin ux
ĠG B
amb la
id io
ene cia
Ġagrad ece
Ġunif orme
ĠA ro
Ġenvi arlo
Ġoper an
Ġadolesc encia
ĠR ica
Ġsien tan
qui al
Ġcintur Ã³n
ĠcÃ©le bre
Ġvie jas
Ġinsis tiÃ³
Ġsupermer cados
Ġob tienen
ĠAndre u
Ġg ros
ĠprÃ³xim amente
Ġmostr amos
Ġconec ta
Ġlu chas
Ġconte x
Ġacces ibles
ĠR ED
Ġmad urez
Ġpromo cional
Ġhorm igÃ³n
Ġap oder
ĠP rieto
G as
Ġmostr aron
Ġexter nas
ĠM ila
ĠRes ervados
ĠaÃ±ad en
Ġsing le
Ġpresid ent
V illa
Ġmil lar
w is
ĠD ic
Ġequ ivo
pl ic
Ġcol gar
Ġdens idad
Ġante mano
Ġconquis tar
Ġdesactiv ado
ĠT oy
ĠAd el
trocer am
Ġa vi
Ġcompar ecer
Ġpal iar
Ġtra ÃŃdo
Ġsuici dio
co pio
Ġacord Ã³
Ġrepresenta ciones
Ġll enas
if t
Ġespon tÃ¡n
S h
Ġlim Ã³n
Ġtr ono
us h
Ġconcurs antes
in ch
ĠF emen
Ġdej arse
Ġbusc amos
Ġins ign
Ġfi jos
Ġre cesiÃ³n
Ġcomar cas
Ġlegi timidad
quil las
Ġorgullos os
Ġampl ios
Ġsencil lamente
Ġ9 6
ĠA genda
ĠCon tempor
ĠT EN
Ġan trop
Ġmal versaciÃ³n
Ġmis eria
Ġhacer la
Ġsurg ido
ĠVol un
Ġvol vieron
ĠB NG
tx o
vil le
Ġoptim ista
ĠP ri
IT AL
ĠÃ¡ rabes
Se is
ĠLGT BI
D icen
Ġtal entos
ca ja
Ġafec tarÃ¡
Ġconv ersiÃ³n
ĠMay ores
Ġinesta bilidad
Ġderro tas
Ġatro pell
Ġempez arÃ¡
ti gu
Ġsuel ta
Ġforma tivo
Ġimpos ibilidad
Ġfa tal
segu ir
Ġacog edor
ĠH ER
ĠCON TRA
Ġsemif inal
Ġprotocol os
Ġ8 7
C AS
Ġle altad
Ġg itan
Ġreg idor
Ġpac tado
Ġimp unidad
Ġvege tal
ĠAlz heimer
Cer ca
ĠquiÃ©n es
ĠI X
Ġk g
ĠOl ite
ĠCic lo
Ġfi able
ĠOc cidental
pre taciÃ³n
Ġgastron Ã³mico
ĠAudio vis
ĠSoci edades
Ġne to
Ġref rig
H uesca
ĠI G
ĠMar s
ĠV ers
Ġsur f
ĠEx plor
Ġfoto grÃ¡fica
Ġfidel idad
ĠVol kswagen
ĠMen or
Ġn oroeste
Ġan taÃ±o
Ġestr enar
Ġpion era
ĠProduc tos
tr ando
Ġestruc turales
Ġmir adas
Ġester eo
t he
Es tudio
ĠEL EC
Ġ7 9
is pos
Ġmostr arÃ¡
qu esa
tan g
Ġsup rim
Ġmod el
Per mites
person al
TI TU
Ã©di to
D ios
Ġcal orÃŃas
Ġextra er
pa c
Ġun irse
ĠCh elsea
Ġpol ar
Ġhom bros
Ġexcur siones
Ġcual ificados
Ġrid ÃŃculo
ĠK id
P ARA
Ġcad era
Ġprome tido
r ÃŃan
ĠL um
ĠG racias
Ġb ec
Ġpresupues tario
ĠI bar
K I
Ġescrib o
Ġincre menta
ĠAnton i
Ġreserv ado
Ġburo c
Ġins tancias
Con cierto
Ġincen tivos
Ġon das
ĠdemÃ³cra tas
Ġres ume
Ġ QuÃ©
ĠD ep
Ġdesp us
Fu era
Ġmod ificado
Ġat leta
y y
ci tas
Ã¡ndo los
ĠS tan
Ġcruc eros
ĠS TOR
tar ra
dic amente
ĠPicas so
Ġre h
ĠCh i
Ġacog iÃ³
les s
l Ãºcar
ipiÃ© lago
Ġp ginas
Ġdem ol
ĠSo le
Ġgri ega
ĠnÃ³ mina
cu esta
ic on
D ado
Ġalim enta
ca tal
Ġf ed
Ġdeleg ados
ĠRec on
fiel d
ĠTal avera
Ġtes oro
Ã± anas
j aba
Ġpec ado
Ġdomin ante
Ġconten ida
Ġrean ud
ĠK iko
Ġinterna cionalizaciÃ³n
ES CO
Ġpenins ular
cas ts
Esqu adra
ĠO piniÃ³n
Ġad iv
Ġquie bra
Ġconstitu ido
Ġexig ente
ĠC ri
c ris
Ġdis oluciÃ³n
Ġcer teza
Ġprotagon iza
ran ge
ĠS oraya
Ġvari ado
Ġgobern ador
Ġarti ficiales
Ġeconom ÃŃas
Ġvolver Ã¡n
M T
Con diciones
Ġsender ismo
A U
T ILLA
Ġha ba
pe Ã±as
Ġl enta
Ġextin gu
Ġu Ã±as
ĠMen Ã©ndez
ĠS erra
ĠMar ca
Ġofre cidos
Serg io
ĠP L
B re
ĠportÃ¡ tiles
Ġcon table
Ġacondi cionamiento
In ten
Ġdisfru tado
Ġauto vÃŃa
Ġsab idurÃŃa
Ġya cimiento
an cias
Ġmul tinacionales
y ana
B el
Ġrecons trucciÃ³n
so urce
Ġselec ciones
Ġsecu encia
entis ta
Ġrecaud ar
k ÃŃn
U Z
Ġconven to
Ġbusc aba
Ġmediter rÃ¡nea
Buen os
ĠHistÃ³r ica
ĠTron os
ps ol
Ġsepara tistas
Ġyo utu
Ġm ueven
Ġde ca
Ġal ianzas
Ġreal ista
Cons ider
ĠO este
ĠBB C
Nin gÃºn
ĠP iz
Ġecol Ã³gicos
Res ultados
Ġpartid arios
ĠN um
LO G
icepres idente
Ġen ten
con oci
Ġcomprome tida
Ġimpor tar
Ġecos istema
tin al
Ġdesper d
Ãģ ngel
Ġprovoc an
ĠTr ad
Ġpoderos a
ĠMac ron
Ġrevolucion ario
Ġremon ta
v iciosa
il ia
ĠS ci
Ġconta bilidad
ĠHit ler
Ġconces iones
tam ento
Ġquer ida
Ġencier ro
Ġcuen ca
eg ro
Ġcambi e
Ġbo te
Ġsal do
Alcal Ã¡
Ġalim enti
gin ia
Ġindign aciÃ³n
ĠSe xta
Ġvoc al
b is
A cepto
ime one
GA E
. (
ĠF res
Pod rÃŃa
ĠQu im
Ġsorte os
cur s
Ġ198 5
Ġvitam ina
Ġpre ma
Ġdelan tera
Ġc ima
Ġespec ula
Of recemos
Ġest Ã©s
I VA
Ġproyec ciones
trod ucciÃ³n
Ġcons ig
Ġconf l
Ġdistribu ir
ĠEs cor
AN OS
Ġ197 9
ĠH aro
ĠP unto
I mag
enti r
ĠL ÃŃ
Ġcrim in
Gu ÃŃa
Ġacumul ado
se y
Ġpoten tes
am en
S or
ĠP OS
in gu
Dispon emos
Ġcontrol ada
Ġim pec
En contr
i tivos
Ġllam amos
go Ã±a
Ġadmi ten
Ġtrans acciones
D em
Ġsuspend ido
ĠE C
tÃº e
Fuer on
Ġcontribuy entes
ĠEsc uelas
ĠTra tado
ĠC ÃŃrculo
Ġenv ÃŃos
iv ado
Ġcoopera tiva
qu ias
Ġcal ificaciones
Ġmen Ãºs
cer ca
ĠQu ir
G re
Ġapor tado
n unca
B esos
p uso
l lev
Ġr ena
oc emos
cip es
Ġbo tones
Ġlu jos
Pres idente
. Â¿
d Ã¡n
Ġmen tales
Ġdespa chos
Ġcons eller
Ġtor ero
h ama
idal go
Es p
ĠN OS
Ġins in
Ġcompens ar
No tificar
G er
Ãł s
Ġabr iendo
Ġinf r
ĠCom arca
Cu Ã¡les
Ġintegr ados
Ġal mend
Ġolvid es
Trab ajo
ĠMo ham
ĠC amil
ĠhÃ©ro es
c ante
ĠSa inz
ĠEs ther
Ãº jar
Ġtex tura
ĠV IDA
ĠC AT
Ġvolun tariado
Ġt Ã³p
ĠBal oncesto
ĠAr enas
Ġauto determinaciÃ³n
op ez
ĠTok io
ĠA ten
Ġimpres o
Ġmo tiva
ĠDis tancia
ĠJ OS
Ġti ende
Ġsitu arse
ĠI magen
Ġavan zados
ĠQ a
Ã³g n
res te
Ġacuer da
Ġextend ido
Ġabandon Ã³
mon te
Ġse ces
Ġinsufici encia
Ġtrans portes
Ġaf ines
Ġre t
ĠGran des
Ġvari aciÃ³n
Ġconcienci aciÃ³n
ĠE R
Ġco pas
!!!! !!!!
Ġrespe ta
y er
des es
ce a
ĠEvan gel
Ġaerol ÃŃnea
ĠC rim
ĠEstra tÃ©
Ġencues tados
Ġd rÃ¡s
U GT
Ġmar x
ĠEs peci
Ġreti ra
ĠV IS
ĠSTOR E
Ġfas cismo
AD ORES
Ġam uebl
Ġin co
an ca
ĠM oder
V ox
Ġc esta
Ġprotes tar
g g
ĠBar re
Ġgestion ado
Ġcru da
ĠPala cios
Ġcor d
ĠhuÃ©sped es
Ġexplic aba
ĠÃŃn dole
Ġcan cha
ĠVan guardia
Ġtra tamos
ĠCampe ones
Ġpromov ido
Ġsober anista
E fec
ĠP ob
De ja
Ġproduci da
Ġsignifica tivos
ĠR ueda
im ir
ĠJack son
ĠF erra
ĠNe ws
ĠT erra
bril s
ĠCom isiones
am s
tu lar
ĠB eb
ĠGas set
Ġentr ando
Ġincon di
if f
lam entos
olu cin
al os
ĠCo ordinaciÃ³n
Rec or
Ġdemostr aciÃ³n
ĠH AC
ĠD GT
Ġdirec trices
Ġc ÃŃv
Ġcre ÃŃ
Ġtru co
Ġprac tica
ur s
El lo
Ġpres a
Ġbr inda
ĠCorpor a
Ġcompetid ores
Ġf Ã©r
ĠM ajadahonda
Ã³s ticos
Ġactu arÃ¡
Ġinteres ada
Ġse pul
ci edad
ĠDo wn
Ġsens ibles
Ġan cha
Ġemp ecÃ©
ĠArm ada
F e
Es tado
ver tido
ĠHab ana
Ġind icaciones
Ġart culo
ĠB O
ĠRe psol
ĠAnti guo
et ti
ĠS ede
Ġn ad
ĠAN TI
Ġaprend e
Ġautor izados
Ġescapara te
Ġabaste cimiento
Ġtre in
Ġmultid iscipl
9 00
Ġcen ar
ĠÃģ lex
ĠE col
Ġmon arca
Ġbre ves
Ġtex til
Ġre cip
o cer
ĠA ur
ĠI ru
Bien venido
Ġgratu itamente
ĠD IA
Ġenv ases
br ir
Ġh egem
F und
Ġa ires
Ġrebo te
C amp
Ġaspir ante
Ġtrof eo
AL L
ĠE ur
Ġhacer te
Ġac ento
Ġconsul tora
Ġapues tan
Ġdif icil
Ġimpuls ada
Ġpas arÃ¡n
Ġconsol id
Ġind ÃŃgenas
Ġcivil izaciÃ³n
Ġfemin istas
Ġesc lav
Ġr Ãºs
Ġto cÃ³
EL O
Ġdoc tora
y en
Ġn u
Ġvalora ciones
Con trol
ĠCi U
ĠC uesta
Ġqued arÃŃa
Ġpea tones
Ġse pan
Ġsu cesiÃ³n
ĠOF ICI
may or
CA A
Ġestren Ã³
Ġdes truy
Ġcal do
Ġenrique cer
Ġpreocu pado
Com en
.... ...
Sal udos
Ã² n
Ġex hum
ĠCar bon
Ġexpres Ã³
Ġh ur
Ġadquir idos
ĠUr bana
Ġne vera
Ġat mos
t ha
Ġlabora torios
Ġmasco ta
h el
Ġdistribu idores
Ġcin tas
Ġcel ular
ĠI M
J erez
Ġgan e
ĠFran cis
Ġliter almente
Ġnaz is
ĠteÃ³r ico
A v
i tera
e jos
al les
ĠDe ad
ama cho
F F
Ġas en
Ġch i
ĠF unciÃ³n
ne te
te mos
Ac ceso
Ġcos echa
P ed
Ofre ce
ÃŃf icas
voz populi
Ġpref iero
Ġrod ar
m ada
B ara
Ġdur Ã³
Ġbel las
M ay
R ober
Ġad u
Ġcoopera tivas
Ã¡n icas
Ġtu bo
ĠMar ÃŃtimo
Ġestim aciÃ³n
rec tor
ĠB is
ĠA man
Ġci elos
Ġladr illo
Ġev angel
Soci edad
Ġreto mar
ĠES C
ĠocÃ© ano
Ġpertin entes
tal mente
Ġsurg ir
ĠCons trucciÃ³n
Ġanim ar
Ġestable ciÃ³
im por
Ġviol enta
Un idad
a ci
uc risto
ĠautÃ©n ticos
ĠLic encia
Ġo pa
Ġposi tivamente
n chez
Ġdure za
Ġimag ina
l las
Ġactu ando
ĠBar cel
ĠIntelig encia
Ġpas eos
z gos
Ġt wit
Ġan exo
ĠZ u
M il
Ġcomenzar Ã¡n
cen tro
ĠG eo
Ġejerci tar
Ġpresid ir
Seg ur
amble as
au tor
ĠTa ur
ĠOl iva
Ġch imenea
Ġalber gar
Ġdesgas te
ĠBar ber
Ġarbi tr
IC E
M Ãºsica
Ã©s tico
Ġexten so
ĠSOCI EDAD
Ġsa turado
Ñ ĥ
b ri
ĠGu ate
C ab
ĠPi quÃ©
Ġaler tas
, .
Ġira quÃŃ
Ġsex ualidad
Ġrevel aciÃ³n
Ġsond eos
Ġ198 8
Ġintrod uc
p odemos
Ġmuer ta
Ġmortal idad
F P
b anos
Ġben Ã©
ĠcompaÃ± eras
ĠT ay
n ie
Ġmeter se
p ez
mos o
Ġpo tes
Con cretamente
D icha
Ġh ito
bo ard
ĠprohÃŃ be
Ġfelici tar
ĠCar d
M mm
ir as
Ġbols illos
ck er
Ġpresid ida
Ġpun tuales
Ġtro pic
com ple
ĠV enecia
Ġhaber lo
L L
Fel icidades
ĠPaÃŃs es
et tel
Ġcor tas
Ġedi tar
Ġescul turas
Ġconcentr ado
Ġhab ilitado
im ens
ĠPa ch
ĠAgu as
In gres
Gar cÃŃa
gen os
Ġa ir
Ġdesarroll adas
Ġadelan ta
ÃŃ en
Ġre ten
IJ IJ
Ġinc Ã³gn
Ġalter aciÃ³n
Ġcomun icarse
ĠA G
? Â¿
ĠHa z
Ġmodern idad
Ġveci n
ich os
Ġra tÃ³n
tana torios
ĠFin anzas
Ġtrein tena
Ġenferm erÃŃa
car n
Ġfor zar
Ġ198 6
tÃ¡ c
Ġaplic arÃ¡
ĠCer tamen
Ġcos to
Ġpier da
ĠBen idorm
inter es
Ġse vill
ec edor
ĠAn al
Dis e
ĠSand ra
ĠCab rera
Mari ano
Ġmetro politan
Ġ8 9
Ġdefici encias
Sal amanca
V IN
gu ita
Cam ino
Ġ^ ^
Ġfarma cia
u co
Ġproced erÃ¡
Ġsimpa tizantes
Ġtra tarÃ¡
Ġmar ina
Ġdigital izaciÃ³n
Re paracion
Ġaverigu ar
raf os
Ġmis er
Ġinflu ir
ĠEstad io
ĠSim Ã³n
Ġpublici tario
if icios
Ġexcep ciones
ĠR ita
itan ia
A pl
Ġaconse ja
ĠMon taÃ±a
Emp res
ĠG ram
emp leo
Ġcar encias
pu ch
caste jon
Ġmil a
Ġres uelve
Ġlu cir
ier tan
S il
Notificar me
Ġllegar Ã¡n
r ones
Ġto b
Ġ198 7
ul ce
ĠD ra
Ġdetec ta
Ġremar cado
Ã¡r qu
s ur
erg ias
bi as
Ġdios es
Par tido
Ġfestiv idad
um ado
v iendo
Ġmay Ãºs
Ġprivileg iado
Ġun ida
Ġmec Ã¡nico
ĠD J
Ġrom Ã¡nico
Ġper noc
TA C
Ġutil ice
M ic
Ġvari antes
Ġdese amos
ĠPo zuelo
ĠEs par
ĠdomÃ©s tico
Ġres eÃ±a
ĠRob les
Ġhuel las
Ġalf ombra
ĠCor reos
et x
sanchez castejon
Ġa ero
S C
Ġproces amiento
Ã³ ticos
we en
esti no
ĠPa txi
enci alidad
ĠM ec
ĠBay ern
ĠCl im
ur recciÃ³n
Ġelev ados
ced er
Mas ter
j ala
ĠIra ti
ci no
ce tas
Ġlin ea
Ġidentif ic
Ġcontro vers
Ġcan san
Ġsalv aciÃ³n
Ġretro ceso
adal ajara
A cu
Ġimpres a
Ġen du
Recuer do
Ġplan ificar
ĠpolÃ©m ico
Ġr inde
Ġen seguida
ĠCoci na
en cio
Pin cha
Ġentren adores
ub er
Ġescon der
Ġmer ecido
Ad ver
Ġcontinu Ã³
ĠAud i
j i
w atch
is imo
Ġfacultad es
Ġinvis ible
Ġhomosex uales
Ġcre ados
ĠmÃºs culos
ĠS ou
ig uer
Ġpr enda
Ġfuncion alidades
ĠA cu
Ġenga Ã±ar
Ġcaball ero
Ġcomun istas
Ġreduci endo
ĠR ÃŃos
ĠplÃ¡s ticos
Ġaceler ar
Pon emos
esta ble
Ġpermanecer Ã¡
Ġin quil
Ġrequer imientos
Ġrecon cil
Ġhid rÃ¡ul
Ġdivid ido
Ġvic es
Per iod
Ag entes
ĠaÃ© reas
Ã¡ndo te
Ġpato logÃŃas
s ico
Ġreporta jes
D Ã©
Ġvis ibles
j ect
ĠSal as
Ġapas ionante
gun os
Ġcab les
Ġp use
Ġplan cha
Ġconsol idado
Ġgus tar
Emp i
Cas tellÃ³n
ĠCo opera
Ġdo Ã±a
a ca
em ento
Ġsuf ra
... '
Ġinm enso
ĠP rÃ¡c
A parte
L uc
ĠEN TRE
Ġrecha zÃ³
Ġprim or
9 4
pro ducciÃ³n
Ġdue le
ĠSte ph
Ġlo ca
po tencia
Ġsal gan
ĠCh ic
ĠIN FORMA
Ġrom piÃ³
ĠlingÃ¼ ÃŃstica
Ġm Ãĥ
Ġlevan tÃ³
S tation
ca o
ter es
Ġdesp ierta
m ios
me la
Ġcar tÃ³n
r ales
Ġfin o
R io
em bro
Ġher Ã¡l
Ġmalague Ã±o
Ġrad ios
Ġcamp ing
Ġlo cos
Ġmensaj erÃŃa
Ġpresid encial
Ġimpresion antes
Ġofrecer le
Ġadmi raciÃ³n
Ġexces iva
Ġta p
ĠCons um
Ġes gr
Ġperten encia
Ġconsider ablemente
ab Ã³n
Ġbatal las
m all
Ġcompar timos
Ġsol as
Ġpond rÃ¡n
ĠDo Ã±a
ĠCons erv
r adores
tx e
Ġliber ar
ĠEl iz
Ġsitu ar
Ġsu izo
Ġconstruy endo
ti ano
ĠD ON
Ġ Ð
Ġdic cionario
Ġagro alimentar
P ontevedra
ĠClas es
Ġcorrespon der
Ġtram pa
Ġre car
il y
ĠGe org
Ġfinaliz Ã³
Ġayud arte
Ġalmacen ar
Ġsiste mÃ¡tica
incl uyendo
ĠL G
Ġvari ante
ĠPela yo
igil ancia
S r
Ġdesigualdad es
Ġalter aciones
Ġtitu laciones
Ġtom aron
Ġec olog
ĠCol men
ili ano
Ġterres tre
ĠMan comunidad
Rafa el
Ġgener osidad
fer as
ĠIN D
Ġ198 2
ĠAlc Ã¡zar
em bros
Ġte mer
ĠON CE
ĠP AC
h Ã©ro
Ġglob alizaciÃ³n
Ġn ef
Ġpon entes
ĠRe la
Ġsum ando
/ ?
Ġauditor ÃŃa
ICA CIÃĵN
B e
ja te
Ġadop tadas
Ġapl icada
Imp res
Ġinfl uen
Ġcron ologÃŃa
Ġre ba
Ġn ick
Ġvas cas
or ias
Ġcer Ã¡mica
Ġtor mentas
Ġarres tado
Ġvac un
ĠPre mi
Ġluch an
Ġlarg ome
ĠC AP
Ġdesped ir
Ġperson alizados
Ġrequer ido
Ġinjus to
Ġter tulia
Ġle hendakari
Ġru inas
Ġconsum e
Aprend e
Ġdiver tir
Ġfich as
Ġmi tin
Pr omo
Ġayud en
Ġcal cul
Ġt ÃŃos
Ar ran
Ġaj enos
Ġpatrocin io
Ġo ut
Ġde no
Ġdespe ja
U AL
Ġargu mentar
qu istas
Ġfundam ento
Ġdivers a
Ãģ vila
Ã¡r selo
ĠacompaÃ± amiento
Ġesper aban
ĠCl iente
Ġcons is
ĠK ir
Ġher ir
Ġfinanci ado
ĠR IO
le te
b in
ĠincreÃŃ bles
ĠF R
us te
Ġartes anal
ĠCan tÃ¡
ĠProfes or
IG O
is san
Ġactiv as
ĠLib ros
Pa ge
Ġasum ido
us ta
Ġpol la
Segur amente
Ġpo etas
ĠQuÃŃm ica
cil ler
Ã¡g inas
ĠPro gramas
Ġsal ones
Ġcar peta
Ġgarantiz ada
L M
Ġinter n
b ulo
E UROPA
Ġvuel van
Ġsu d
Ġle ves
Ġpun tual
Ġnaz i
segu ra
Ġba tir
Ġvelocidad es
Ġam en
ĠB ase
Ġpresid enciales
Ġinstrum ental
ĠPo zo
Ġoc tavo
Ġsometer se
ĠMer cad
ÃŃcu lum
if iesto
Ġtu tela
Ġvis itÃ³
Ġvi able
Ġmon tado
Ġestiv al
ĠCarm ona
Ġsum Ã³
Ġar cas
ĠAr cos
Ġcuer das
ĠTex as
Ġestar ÃŃan
I OR
Ġinter rup
Ġases inos
Ġinad ecu
Ġale jado
Ġfabr ica
................ ................
Ac tividades
ĠL ima
Ġinform aron
ĠPl ana
Ġaprob adas
Ġconsul tadas
Ġmach ismo
D omin
ion ados
Ġacredi taciÃ³n
pa in
Ġtraspas o
Ġmus ica
Ġpreced ente
Ġconcre tar
ĠMargar ita
Ġu va
ĠG racia
ĠLe e
Ġilus tra
ĠRe villa
Ġtemp rana
Ġconcen tra
Ġremod elaciÃ³n
Ġcontribuy en
Ġjurisdic ciÃ³n
Asturi as
ĠDav is
ad ia
Ġprevis ible
Ġajus tada
ĠMa estro
ĠIN F
AD E
ĠAl quiler
c able
Ġbi partid
f onos
Ġdel iber
Com unidad
ÃŃ no
r alejo
ĠExplor er
Ġvoc ales
cos a
ĠmÃ© dicas
V ID
w rite
C ala
Ġinyec ciÃ³n
Ġretras os
Ġib Ã©rico
ĠA hor
Ġbaj Ã³
Ġnutr ientes
Ġta tu
y es
Ġbarro co
Ġpun tero
Ġfeste jos
Ġembal se
ĠD O
ĠEx terior
Ġencar garÃ¡
pu ma
ĠAr ti
buen o
ĠFin landia
ee ee
od ia
ba i
Ġinsec tos
Ġo di
Ġdefin en
Ġra cismo
Ġdimi tir
CÃ¡ ceres
ĠfantÃ¡s tica
ĠPra t
Ġcompar tiendo
Bien venidos
Ġlle go
2 000
im ar
Ġfus il
Ġnoctur no
Ġmental idad
Ġasis tieron
ĠEsco cia
ĠmÃºlti ple
Ġe clip
Ġen ormemente
Ġparticip ante
ĠEx tran
Ġ4 50
ĠP ur
Inter net
ill ero
Ġpres tan
IT OS
ĠIn icio
ĠChica go
un den
Ġsustitu yendo
Ġurban ismo
y Ã³
ĠSindica to
Ġimpres iones
F oro
Ġtelevis iones
Di pu
lar se
Ġa ran
Ġju icios
Ġconv icciÃ³n
as cript
Ġcar iÃ±os
ĠP unta
Ġru idos
Ġest Ã³
Alba cete
Ġelectrodom Ã©stico
Ġsin gulares
ĠAnti gua
ick y
Ġinjus ticia
Ġras tre
ur des
TR UC
re paracion
Ġrecur rente
el s
b ola
ob ar
Ġaf ueras
Ġesta tus
Ġor illa
Ġleg ÃŃtimo
ĠVI P
Ġcap taciÃ³n
Ġinfec ciones
t ta
p is
Ġaspira ciones
ĠCuer pos
Ġcompa tibles
ĠCor red
ve lo
Ġase o
igue z
can os
on line
Ġapar ente
ip Ãº
Ġsosten er
ĠMar celo
ĠInma culada
Ġapl ican
Ã©c tor
Ġnombr ar
Ġapro x
Ġdelincu entes
Mu cha
ĠI tur
Ġoportun as
Ġhis tor
y ar
Ġpre lim
Ġsin cron
aliz arse
fer min
C la
Ġf iebre
ĠCr Ã³nica
Sus ana
Ġ197 5
ĠMon tserrat
Ġgen es
Ġdis tra
Ġsec os
... ),
Ġnov el
Ġrelo jes
Ġc una
Ġn omina
S iguiendo
Ġprior i
Buen as
ĠM OR
Ġblan queo
Ġmen cionados
Ġre vertir
Ġutiliz amos
Ġsevil lano
Ġ- >
Ġre embol
? :
Ġorden Ã³
ĠMete or
ĠEn cuen
ĠdemocrÃ¡ ticos
Ġcuar tel
ĠD eb
ĠS elec
Ġgr ueso
ĠMe tal
Ġabier tamente
Ġque ma
Ã©di tos
Ġaber tzale
p ie
Ġpres o
Ġincorpor an
tn am
Ġtr il
Ġurban ÃŃstica
te to
uel tas
ĠCu ar
Ġestren arÃ¡
Ġto men
Ġprecios as
Ġfacil itan
ĠP De
Ġtom amos
Ġpr ud
ĠH y
p ino
Ġamb ientes
ĠAb el
Ġmel an
Ġcar am
Ġexcep cionales
tur ados
g ers
Ġdeten ciones
ol las
ĠA ÃĳOS
Ġr al
Ġindiscu tible
ĠGuate mala
Ġvac una
T j
Lu go
Ġafr icano
ĠCU L
Ġproced en
Ġah i
ĠaÃ© reos
Ġbu ques
Ġinter min
ĠMon um
adr Ã³n
Ã¡ vez
Ġorien tado
Ġinici arÃ¡
Com pr
B OR
ĠDocu mentaciÃ³n
a ga
Ġpel os
Ġresid encias
ĠES TU
Mar ta
Ġsalud os
Al onso
do c
Ġcompa c
Ġquedar me
Ġparticip ando
Ġacep tan
Ġsolici tante
onces valles
Ġcal ado
Ġintegr ales
Ġtrascend encia
n eros
ad illo
ĠD OC
ĠSO CIAL
Ġdesplaz arse
Ġsuger encia
ĠO ce
in vesti
Ġrit mos
Situ ado
Ġb la
ĠT in
Art ÃŃculos
Ġqu im
Ġequivoc ado
Ġide olÃ³gica
Ġcumpl iÃ³
Ġeven tual
Ġdesconoci dos
ĠESPA Ãĳ
ĠSte ve
Ġord inaria
Ġcam isa
p df
Ġrojiblan co
Ġ198 4
Ġfoto volta
truc ciones
Ġdespre cio
Ġto d
om bo
ĠHun grÃŃa
ĠCas tel
ĠF ox
ĠautÃ³c ton
Ġla van
Ġpas arÃŃa
Ġbu zÃ³n
ĠM US
Ġayud ando
Ġgener alizada
Is abel
Ġpond remos
Ġcr Ã³nicas
Ġconced ida
Ġculp ables
can es
ĠP LAN
Ġcur vas
D irig
Ġreg lamentar
oc aciÃ³n
Ġcontinu ada
Ġdeci mo
ran co
ÃŃf eros
Ġhard ware
Ġrecor tar
tin to
Ġencar gÃ³
Ġdi Ã©sel
v ase
Ġse ca
Ġextreme Ã±o
ĠmÃ¡g ica
ĠAlc obendas
Ġocup ados
ĠN UM
Ġmas ac
Ġinter medi
Ġfabr icado
tif ica
Ġinaugur Ã³
po pular
Ġguitar rista
Ãī sta
u ters
ĠP un
Ġma tÃ³
Ġauten ticidad
Ġfelicidad es
Ġta b
A par
Ma il
Ġaud itorio
Ġindirec ta
ĠDef ensor
ĠF MI
Ġ20 21
ĠAuton omÃŃa
ĠAr is
\ ,
Ã ¯
Ġexpor taciÃ³n
ĠMa tt
ÃŃ qu
Med io
ĠJef a
Ġrefer irse
Ġul timo
F orma
me ida
Ġexperim entos
ĠA bierto
Ġgo za
an dos
ci cl
Ġal tar
epend iente
ĠB ajos
vers iones
ble mas
ÃŃr culos
Inf Ã³rmate
Ġar bol
ĠP ales
Ġel ud
Ġmedic amento
Ġgobern antes
In m
ĠFuerte ventura
Ġpublici tarios
Ġartes anÃŃa
ĠVal ores
B uena
An im
ĠL ac
ER ÃįA
Ġreci cl
Res pons
man os
Ġbenef icia
D ragon
Ġacord ar
ĠPrim avera
Ġperder se
Ġte l
Ġso vi
Ġradi aciÃ³n
Ġconten cioso
ĠPS G
Ġcons tar
oc ÃŃa
Ġexperimen tal
bre gat
Ġambul ancia
Ġ9 4
ĠMÃ© dicos
D ia
per iod
Co in
Ġlib rerÃŃas
ĠCam biar
ĠRespons abilidad
ĠCro acia
Ġp ones
C ond
Ġrepas a
pe o
ĠPr incesa
Ãºn ica
ĠC Ã¡r
V ÃįDEO
g ement
Ġin da
ĠCÃ¡n cer
umer ables
Ġyihad ista
ter res
Ġderiv ado
ĠUN IVERS
Ġatre ver
la za
Ġvolv ÃŃ
is on
Ġa pres
ol d
Ġmedie vales
Ġreval or
Ġac amp
Ġreb ajar
Ġh ueso
ĠL lam
Ġvari adas
Ġton to
Ġf ocos
P AL
ĠN aciÃ³n
Ġve to
it ch
Ġ198 1
Ġ Ãĥ
ĠCR IS
e ira
Ġpro cÃ©s
ĠES PE
ol viÃ³
Ġdep ur
Ġqued amos
Ġman uales
Ġacab arÃ¡
ĠO tegi
pa is
ez mann
Ġrecibir Ã¡s
ĠdÃº o
on ancia
ION ES
Ġman chas
Ġsen adores
ĠfilÃ³so fo
Ġvari ados
ich as
Ġcapital ista
ĠPRO FES
ĠB erg
Ġver me
Ġaustral iano
Ġescog ido
Ġvend rÃ¡
En rique
Ġdedic arse
Ġderro tar
us se
ĠIn fo
ch uf
Ġinterpre tado
ĠTEC N
p ÃŃ
Ġperten ecer
Ġaplic ables
ĠValle cas
ĠIP C
P Ã¡gina
Sal v
Ġen fa
Ġlo tes
Ġhabil itar
Ġor n
ĠCres po
Ġvitam inas
Ġexpul sado
B AS
Ġsuscrip tores
Adver tencia
Ġde pre
Ġe terna
c Ã¡r
men da
Ġed ificaciÃ³n
¿ ½
Ġencar gar
vi tado
Ġfund Ã³
dan gar
Ġprefer encia
Ġdig amos
Ġreac cionar
ĠOl iver
Catal uÃ±a
v iene
Ġpsic olÃ³gica
Ocas iÃ³n
a tilidad
J unta
Ġi remos
Ġ `
ĠC AB
Ġtrav s
Ġpel i
Ġ9 7
Ġanunci an
Au to
Ġindivid u
ĠGala xy
Ġpregun tan
Ġir rump
Z amora
au to
istr ibu
Ġentr arÃ¡
Ġl ien
Ãļl tima
ĠclÃŃn icos
Ġcono ces
Ġocurr iendo
ĠE ras
An Ã¡lisis
Ġresal tar
jug ador
Ġhall ado
Ġcan sado
Ġauto estima
Ġelim in
Ġclas ifica
tu aciÃ³n
Ġconoci endo
Ġconvoc ados
ĠBro wn
ĠJ Ã³venes
ĠM P
Ġhomici dio
Ġan ar
ĠpolÃ©m icas
ĠNet work
Ġimpl icar
Ġnotable mente
Ġ ]
ĠCom Ãº
Ġdel ega
ĠF ac
Ġo puesto
Ġtr igo
o th
ĠVic tor
Ġequilib rada
Ġlidera to
lu la
l s
Ġsuf rag
ĠTele comunicaciones
B lan
Ġases inados
Ġde posi
Ġresul taron
Ġdieci s
Ġpeligros as
Ġtu mor
Ġincon venientes
Ġros as
ĠPe Ã±
ale la
Fa cebook
m ul
Ġforma tivos
Ġrode ada
Ġtuv ieran
Ġinquie tud
Ġex ministro
Ġtrem endo
Ġinvestig ando
Ġaven tur
Ġladr ones
Ġatrac ciones
Ġgra f
Ġv Ã©r
teg raciÃ³n
Ġbar baco
ĠHer rero
Ġapropi ado
ĠC B
Ġconserv an
Sim plemente
in ce
olo ga
Ġgr if
Ġrela j
Trabaj amos
ĠRo zas
ĠIN E
Ġv izca
tor s
O cio
C OS
Ġdesa grad
cad ell
Ġincluy a
Ġco oper
Ġcar net
men ts
Ġcinemato grÃ¡fica
ĠVo dafone
ĠJ am
ĠH OR
Ġcons truye
( '
x s
Reci entemente
Mujer es
ga te
ĠEs qu
Di ez
ĠI ceta
ios amente
T Ã©cn
Ġa ch
IM P
ii ii
ĠAran da
ko vic
ĠAn der
Ġdirec tas
Ġvac as
Ġsup rimir
Ġfal lar
ĠAC B
Ġpo ker
Ġal av
Ġprodu zcan
f uer
Ġorganiz Ã³
ĠPe kÃŃn
Ġenga Ã±o
In ici
Ġdifer encial
H ar
ĠRom ano
Ġrecom iendan
Ġtran sex
Ġ( Â¿
S am
ab ier
Ġconec tividad
bi ol
z amos
Ġdi e
ĠFoto grafÃŃa
Ġderiv ada
Ġcorpor aciones
Ġan ces
Ġhor r
Ġgu ipu
ĠdomÃ©s tica
Ġcar pin
ac cion
Ġmol Ã©
Ġe uf
Ġcay endo
Ġin movil
Ġformul arios
Ġins cribirse
Ġenf ad
ĠBaz tÃ¡n
Ġlogr ando
T us
ĠCo ca
ĠMen orca
Ġalum brado
Ġnarra ciÃ³n
ĠM IS
Ġaf ian
Ġfres cos
ipÃº zcoa
ĠAr gÃ¼
Ġdesobed iencia
Ġpresen ten
ĠRam on
ĠdiseÃ± ados
ĠMunicip ales
ĠC uevas
ona than
Ġcar av
ĠestratÃ© gicos
cu les
Ġdesarrollar Ã¡n
Ã £
Ġpodr Ã©is
al lo
S en
qui tos
ĠG ara
tt le
Ġsum arse
Ġminim izar
es or
re ta
ĠBa hÃŃa
CuÃ¡n to
Ġperd idos
Ã¡s tico
ĠMor ena
Ġmur ciano
Ġvolv iendo
ic anas
Ġexpl oraciÃ³n
Ġmuer en
ĠS mart
Ġp df
Ġpu Ã±ado
Compar tir
cel es
ur nal
Ġfran ja
Ġb it
Ġemp erador
Ġmili tante
Ġcompl icidad
AR RO
Ġmara tÃ³n
Ġtranscur rido
Ġad hesiÃ³n
ĠEurope os
tra va
ĠSebasti an
Ġpatr iar
Ã¡lv ame
Ġan tenas
Ġcon g
Ġpublici taria
ĠC umbre
Ġin ox
R ell
ĠEl Ã©ctr
Ġsir io
p id
ĠAs ÃŃ
Ġimpre vis
Ġc lo
Ġpromo tor
Ġagreg Ã³
pr udencia
Ġnoved oso
im i
f oto
Ġchav ales
CH E
Ġes qui
Ġfas cista
Ġartes anos
ï ¿½
es tÃ¡n
Ġque mar
cis iÃ³n
V uelve
Ġfrac tura
Ġyihad istas
Ġpad ece
L eg
Ġsol dado
ĠRo jas
val os
Ġcaus Ã³
Cl ub
C aja
Ġconven cidos
Ġrecopil aciÃ³n
Ġti ran
Ġaux iliares
ĠD OS
Ġcam pan
A tenciÃ³n
ĠConten cioso
Ġs Ã³
Ġenf ri
Ġmi x
Ġsigu ieron
k m
iz ante
ĠF abr
ĠS AB
Ġesca pe
ĠCir cuito
Ġaproxim aciÃ³n
Ġconec tados
Ġviol aciones
Ġsens ores
Ġinaugur al
Ġedi tores
ĠVilla viciosa
Reg istro
Ġsitu adas
Ġo pone
Ġval entÃŃa
Ġemble mÃ¡ticos
ĠanÃ©cdo tas
Ġayud Ã³
Ġlis tos
om an
ĠR elig
ed s
V ila
Ġfraud ul
omin aciÃ³n
ĠM ex
Ġtor tura
Ġconf iado
Ġtribu to
Ġpermitir ÃŃa
k os
Ġ0 9
ĠSE GUR
Ġvis uales
Ġobs esiÃ³n
to me
Ġabog ada
Ġvo taciones
ĠCAS TILLA
dic al
Ġmarch Ã³
b ajo
and ez
Ġacom od
Ġexplos ivos
Ġden tal
B on
Ġh am
ĠPU BL
pr incip
Ġadap tada
il ios
Ġs endas
Ġdes es
Ġencan tados
bal os
Ġcier ran
ĠPu tin
Ġhier ba
D atos
Ġfran co
M M
N ormalmente
Ġamar illos
Ġsec ador
Ġfiscal ÃŃa
r iller
Ġcolabora ciones
Ġsepar ar
Ġsencil lez
Ġser gio
Ġal dea
ĠH idro
Ġles bi
ĠT ÃŃtulo
ĠM Ã¡
Ġrebel des
Ġcompeti tivos
Ġpad ecen
co g
A di
Ġtra tos
TIC AS
Ġconsider ando
av ente
IS TAS
Ġac tas
Ġecos istemas
idente mente
Ġeconom ista
Ġech ado
ĠGom era
Ġme tales
ĠOl im
J us
ina gre
Ġfals edad
qui pos
d ido
ĠUS U
ĠcÃ¡nta bro
Ġcaute lar
IS TE
ri eta
Ġva g
ĠGu adi
ĠO range
a pro
Nues tras
ĠK ong
Ġproduci dos
p oder
ur inho
Ġver gon
200 4
lo ta
Re almente
Ġdesn udo
Ġj od
to das
Selec ciona
ĠElectr Ã³nica
ĠJes ucristo
Ġayud arÃ¡n
ĠNav a
Ġacab ados
ĠV A
Ġvo taron
Ġso Ã±ar
R T
T ADO
t Ã©cn
rib les
Ġale ga
Ġmu d
tr Ã¡n
Ġfl ora
Ha ciendo
ĠNo va
ĠPro gram
Ġinc Ã³mo
Ġpatr onales
ĠI di
Ġed iles
Ġmar rÃ³n
f ia
ok e
Ġdestac ada
Ġinven to
Ã¡n ime
ĠBe goÃ±a
tec ario
qu ien
Ã© jar
is cos
informa cion
ir al
Ġsosp echos
so cia
Ġexten s
ĠRe ales
Cu Ã¡ndo
Ġcono zcan
ĠEs cri
Ġcoord inar
Ġfirm eza
Ġcos tos
ĠT y
Ġgri egos
ĠDistr ito
Ġhom en
ĠCa pa
en co
Ġcontinu as
ĠromÃ¡n tico
Ġrecom pensa
ĠGol d
ĠO ut
f ue
ĠP abellÃ³n
ĠS obre
Ġasegura ba
F L
Ġtom arÃ¡
Se gundo
ĠCasta Ã±o
ĠAbo ga
A ma
Ġtrans ferencias
Se govia
ir ÃŃa
or ros
Ġm ina
D iego
E du
icis tas
Pod rÃ¡s
ĠPac ÃŃfico
en g
V IL
Ġam ig
Ġac trices
ĠBib lia
Ġqu esos
Ġcrim inales
ĠSecre taria
Ġalum nas
ĠI ker
Ġv ien
Ġsu pe
i Ã©ramos
ĠO tros
euro pa
ĠEcon om
ĠRos si
Ġcal ificar
ens io
ech e
Ġe cles
Ġconmemor aciÃ³n
k onia
Ġextraordin arias
v ideo
ĠF ro
Ġcur iosos
ci ados
Ã©n ia
ĠCon ocimiento
ramien tas
Ġbar ras
Ġcan tando
Ġinmobili arias
en an
Ġexig entes
ĠTe am
Ġvac antes
ĠCarr illo
S D
c res
ĠB uena
ens as
ces os
ĠGobier nos
Ġd onosti
ĠBen z
Ġdejar lo
Ġinter cep
Ġinvern adero
Ġco co
Ġinterpre taciones
Ġin tra
tis f
Ġaf in
ĠdiÃ¡ metro
sta tus
Ġcerr arÃ¡
Ġperm itÃŃa
Cu anto
B AN
ĠE g
Ġsuces or
ĠobstÃ¡ culo
iza cin
Ġesf era
S ue
Ġatmos f
ĠCh am
Ġapar ezca
Ġimpac tos
ĠCa teg
Ġdin Ã¡mico
Ġn mero
j amos
Ãģ lv
Ġexpon en
Ġdestin ar
Ġcal zada
Ġorden amiento
ty le
Ġd ama
Ġfacil itados
ĠsÃŃn tesis
Ġad ic
ĠE valuaciÃ³n
Ġmoment Ã¡neo
Ġama teur
ĠCa fÃ©
am ental
Ġtempor almente
Ġval les
ĠcadÃ¡ver es
ĠUE FA
Ġpor cen
Ġadministr adores
Ġmi edos
u tor
Ġpar ecida
Ġser ios
Ãļ nete
Ġad orn
ĠJane iro
Ġer ig
Ġpon encias
Ġprofun das
Ġca Ã±a
ĠCo aliciÃ³n
i w
Ġpar alela
? )
Ġponer le
Ġestim ular
ĠdemÃ³cra ta
ĠGas ol
gu ila
Ġdisco teca
Ġtu ris
eric ord
Ġc ÃŃ
Ġdestin arÃ¡
Ġp Ã³l
M es
Ġin habilitaciÃ³n
Ġsocio econ
Ġsab ÃŃan
on ga
Ġhum ill
ĠCAL LE
ĠK evin
Ġson ar
ĠErnes to
Ġexhaus tivo
ĠromÃ¡n tica
ti tis
Ġex en
Ġcre encia
Ġespa a
ĠHo gar
ĠElectr Ã³nico
C OR
G a
Ġencontr adas
Ġalu cin
Ġcomp ut
ĠMar y
el ud
ĠUr gencias
Ġnavide Ã±as
Ġsorprend entes
Ġsos tienen
Ġcru zado
ĠG ale
ĠTor rent
ĠEx posiciÃ³n
tal gia
Ġro bus
Ġcal ientes
Ġoy entes
ĠI SO
ĠV ista
Ġenvi ando
S istema
Ġc itadas
Ã± Ã³
olog y
Ġl Ã¡c
ĠJun ior
Ġcompa trio
Ġarran cÃ³
Ġpens Ã³
ĠBr uno
Ġur u
Ġasever ado
Ġtom arse
mo h
Ġmol ino
ier ras
Ġproces ador
Ġlider ada
i tia
ĠdemocrÃ¡ ticas
Ġel ef
ĠIn v
Ġportu guesa
Ġdemas iada
Ġporcenta jes
ĠP ues
Ġcol onia
ĠP IN
ĠÃºn ete
Ġafirma ciones
Ġpes os
ĠGa za
ĠS y
Ġnoven a
Ġp Ã¡nico
ĠEx p
d onos
Ġrell eno
Ġtransvers al
ĠT AN
Ġasequ ible
Ġdic tamen
Ġconstruy Ã³
Ġconfid encialidad
Ġlo terÃŃa
r ico
Ġnoctur na
tu ado
Ġva is
Ġcom ed
Ġdecir te
200 5
ĠR oncesvalles
Ġmin eral
Ġlu ce
Ġbenefici arse
Ġrespe tando
Ġay Ãºdanos
ĠAlmacen ado
ĠPrincip al
Ġdisim ular
Ġejecu tivos
Ġdesapar ecida
Ġbole tines
ĠLin k
Ġros tros
Ġro bado
Ġcomple jas
Ġor eja
Ġto tales
Ġimponer se
un ning
Ġub icados
Ġconsol ida
ĠD y
Ġcu bano
Ġampl iado
ti tos
ĠBen jam
ĠHo use
p ÃŃa
ĠRin cÃ³n
Ġj aja
Ġinten tarÃ¡
Ġperder ÃŃa
Ġsustitu ido
Ġser iedad
as u
Ġes qu
Ġl ente
Ġencab eza
presen tantes
Ġimp rim
ĠIndepend iente
Ġcomplementar ias
Log roÃ±o
Ġco he
Ġfol k
Ġfa ceta
ĠNi Ã±os
Ġpales tinos
ĠCoordin adora
e gu
( "
Ġpl uma
Lib ro
Ġter m
Ġllev as
ĠMar tÃŃ
Ġcritic an
Ġan tena
il andia
ĠPrem ier
it t
Ġm ord
ĠMa h
Ġdor ado
Ġjuven iles
Ġval ientes
red edor
Ġhumil dad
Elec ciones
ĠV AR
Ġfalta ba
ĠINTER NA
Ġplante Ã³
Ġprote ÃŃna
ĠofreciÃ©ndo te
pro cÃ©s
Ġeduc ar
Re par
Ġperci be
Ġap u
ĠA PP
ĠF ir
it ÃŃ
P M
Ġasegur arse
ĠSam uel
Ġcansan cio
min istros
ĠfÃ¡ bricas
ĠChris tian
Ġinform an
esti do
ĠPlay Station
Ġadap tados
ĠLeon ardo
Ġgalle tas
Ġincons titu
Ġp edia
Ġnie tos
Ġorden ar
ĠN ig
s un
m ante
Ġesca pa
Ġcontrad ic
ĠVillar ejo
ci f
Ġtre mend
Ġdi am
ĠA E
E va
Gu adalajara
Ġvac ÃŃa
Ġcal ent
ĠÃ© tico
Ġmanifies tan
Ġvolv emos
ves tre
Ġcontra ta
Ġfascin ante
pa cto
Ġpublici tarias
uel ga
Ġprecios os
l icas
Ġpais es
Ġmues tre
Ġrev olu
Ġbo ico
Ġgu ion
Ġor ques
Ġgarantiz an
Ġtecn icos
ĠidÃ³n eo
ala o
Cris tina
frad ÃŃas
Ġdialo gar
Ġasisten cias
Ġexis tan
iz co
Ġrepresen tados
ĠReg ul
Ġmarav illas
Ġdesn uda
ĠSERVI CIO
raf t
vi ado
Ġtom adas
Min isterio
s el
ĠZ ub
trabaj o
Ġmanio bras
Ġsur real
ĠL lar
Ġmor ales
Ġarm ados
ĠclÃ¡s icas
Ġconsul torÃŃa
i arse
Ġte mo
tecn ologÃŃa
ĠAc ceso
Ġmani pular
Ġenamor ado
ĠestÃ³ mago
Ġre za
Ġpl Ã¡
al ba
d eci
Ġpa tologÃŃa
Ġentra Ã±
ĠcÃ³ c
Ġinter vin
Ġasign aciÃ³n
ĠDa ta
ĠmÃ¡r genes
ĠH OM
ĠA pp
Ġgr ada
Ġcomple tado
Ġsustitu ye
Ġ20 30
ĠIn iesta
pos a
Ġmold e
EL EC
vi tal
ĠCol l
ur ne
Ġm y
ĠAr mas
ĠT RAN
Ġpros titu
ĠV ela
Ġfoto grÃ¡fico
Ġinn umerables
Ġfantas ma
ĠB un
Ġpropie taria
ĠPod em
Ġsacerdo tes
Ġesp an
Ġfacil itado
Ġvol Ãºmenes
ol ar
ĠÂ¡ Â¡
Ġse tas
s is
Ġch ic
Ġsolici tantes
Ġmag na
Ġcentr arse
ĠBern ardo
ÃŃ ticos
Sab es
Ġg lu
Ġma Ã±anas
ĠMoto GP
Ġasturi anos
Ġdesconoci da
Ġas iste
Ġdes al
ari ado
is es
Ġdic tado
et ta
Cre e
Ġendu re
Ġ17 0
ta y
Ġdes crito
Ġreci ba
Ġsepar ados
cion e
int za
S OS
Ġin us
ton ia
ĠS ob
vin um
Ġtr ack
ĠP H
Ġmedi anas
Ġro cas
r us
ĠEd ificio
Ġ198 3
Ġponer te
Y M
ĠAlim entos
ĠE A
ĠInter venciÃ³n
e Ã±as
em ias
ĠAboga cÃŃa
Ġasom bros
Ġcan tantes
Ġdes truc
Ġcontra ctu
Ġex tras
Ġcen tran
man as
n n
cin to
Ġpar ciales
Ġat letismo
Ġequip amientos
Ġensal ada
D ate
Ġterap ias
ĠP arro
bur g
Ġde tuvo
ĠZ ur
ĠcatÃ³ licos
Cre emos
ĠB OE
Ġocul to
gan ta
a cuerdo
Ġcol isiÃ³n
v Ã©
ĠMor al
orte o
Ġtradu cir
Ġtener lo
ĠS ea
ĠGÃ©n ova
Ġorden anza
Ġproduci rÃ¡
Z AS
Ġpen Ãºlti
Ġobs ta
Ġcomod idades
er no
Ġsu yas
Ġdesign ado
ci ada
ĠP ERO
Ġdecid imos
ĠmetÃ¡ lico
Ġan imo
ĠNa tional
Ġtama Ã±os
Ġcol gado
I CIA
Ġinoc ente
ti as
car se
Ġba ch
B asta
ĠfÃ³s iles
or ero
b icos
ĠD re
Ġa tras
A gu
Ġpl enos
ĠUnivers ity
ĠFil ip
ĠEsp inosa
Ġapl as
ocu l
Ġparad igma
Ġmante quilla
ĠTr inidad
Ġadmi tiÃ³
Ġv elas
Ġesta tura
ĠE TB
Ġprivileg iada
ĠCl Ã¡sico
ĠInstitu ciones
tori edad
am onte
Ġb all
Por tada
ĠMunicip ios
Ġeleg antes
Ġe ros
Ġtro zo
inosa ur
ĠanÃ©cdo ta
P H
ĠV ital
ĠsÃ³l idos
C Ã³
Ġcere ales
Ġpape letas
ĠT emp
e to
par able
und antes
Ġre posiciÃ³n
ĠUr kullu
ĠRec tor
Ġunivers itarias
Ġd og
F elipe
Ġgo ta
I z
Ġpid ieron
IP O
ĠA ward
ĠSol ar
Ġpisto la
iv ada
Ġsufr ieron
Ġace it
ĠAl am
ĠB R
Ġdel icioso
Ġamp ar
Ġjugue te
pea ce
Ġm ÃŃtica
c ola
Ġorien tada
EE UU
Ġpropor cionado
ĠcÃ¡l ido
Ġsecu estro
Ġregul an
ĠinÃº til
A z
N S
Ġsal ta
Ġvuel vo
Ġvenced or
ed uc
! ",
Ġcompra venta
IT ER
Ġir onÃŃa
Ġtelevis ivo
ĠEuro visiÃ³n
Ġv itales
RE Z
Ġinstruc tor
Detec tamos
Ġdel icado
Ġobserv aciones
cen se
democ racia
L iber
Ġdes venta
Ġsecre ta
Ġcond ens
Ġpes cadores
TU AL
Ġlig ado
ĠT her
Ġdesactiv ando
Es crib
fa cebook
ĠF unda
Ġfrecu entemente
Ġco ch
ins tal
f amil
B C
Ġdescar tar
Ġcombus tibles
Ġllam e
D epend
Ġmostr aba
Ġrelig iones
Ġco Ã±o
Ġfin alidades
ĠL arra
Ġ197 6
Ġins istir
ig no
Ġrio janos
ĠclÃŃn icas
lex iÃ³n
Ġpes ados
em y
ĠFer re
ĠC SS
Ġqued ara
Ġdestac aba
ĠCiudad ano
ĠN aran
r aron
Ġpac ÃŃfica
Ġciudad anas
Ġreduc en
IM O
n io
Ġarti cular
Ġro ta
t ve
sa pp
... ".
ĠUN ESCO
Dan iel
Ġru ina
Ġbeb e
Ġmanifes tar
Ġg in
ĠC ra
ĠM obile
Ġcorrup tos
Ġpol tica
Ġdespla zado
Ġvo tada
Ġseleccion adas
Ġni egan
ĠL amb
Ġmas tur
Ġautor izada
g ara
Ġempi ece
ĠJuan ma
Ġtradu cido
Ġob ispos
Ġinesper ado
Ġc elos
Ġc ÃŃrculos
Ġdecid irÃ¡
Ġgrad u
g iles
Ġdemas iados
Ġsel va
ĠEsp ÃŃritu
ĠNeg ra
Ġver bal
ĠLa go
Ġanunci ada
Ġdesapar ecidos
go vi
Ġcom a
ĠSer ie
Ġestima ciones
ĠO cho
ti ro
pan ol
Ġveter anos
ca uciÃ³n
C e
Ġinf inidad
Ġllama tivo
Ġcircu la
Ġimpec able
Ġasisten cial
Ser Ã¡n
ĠU d
Ġcurr ÃŃculum
Ġcor tado
ĠAN C
ĠEs pec
Ġdes po
ĠCI UDAD
f onÃŃa
Ġdistr itos
Ġdegus taciÃ³n
r ome
Ġvolun tariamente
Ġrecop ila
Ġsac an
Esc uela
ti jo
es tos
ĠAl terna
Ġcumpl imentaciÃ³n
des e
Ġacus Ã³
Ġverdad es
ad ern
Ġex istido
â ģ
Ġmo le
Ġmercan cÃŃa
Ġso porta
Ġdifund ido
l ana
Ġref ieren
ĠfÃŃs icamente
Ġatropel lo
Ġmoto cic
Ġadel ga
gran d
Ġpien sas
Ġplan etas
Ġtranquil os
ĠJU AN
Ġins tado
ĠseÃ± alizaciÃ³n
ĠGu z
ci enden
ĠF ood
Ġmen cionada
ĠÃģ r
ad iÃ³
ĠCÃ¡ ritas
N OS
P uerto
ĠM Ã³vil
Ġcontac ta
Ġleg ÃŃ
Ġllevar lo
Ġconfron taciÃ³n
Ġp ill
Ġhay amos
ĠEs to
' +
Ġgu iada
ci ble
Ġpes a
Ġacus ada
or di
Ġcora zones
ĠD U
Ġtrav esÃŃa
Ã³ var
ðŁ ĩ
Es as
ĠC Ã³mo
Ġg la
Ġch anta
EL L
ĠPolÃŃ gono
Ġrecl u
Ġconsegu imos
ur an
Ġmotiv ado
i ol
ific adas
Ġviv encias
Ġadv ierten
Ġembara zadas
a tres
es tes
Ġplante amientos
Ġven tan
Ġpes ado
ĠCas co
Cas tilla
DE Z
Ġfu Ã©
Ġsocial demÃ³cra
Ġcal entar
Ġtecn ologia
Ġsu aves
Ġrequer ida
Ġdesapar ece
Ġimpl icado
Ġinfl uye
Ġfoto copia
Ġretras ado
w ar
Ġreaccion Ã³
Ġretr ibuciÃ³n
Ġpod casts
Ġcau ce
ĠSco tt
Ġsegur as
ĠÃ³pti ma
p eso
Ġcon du
Ġconsider aba
In icia
ĠCol um
ig ar
Ġmater na
id iÃ³
ĠZapa tillas
ĠT DT
Ġjus tamente
r iente
Ġpar tÃŃ
Ġpermi ti
ester ol
Ġ197 0
Ġpoten cias
ĠL lan
hor as
Ġprofes iones
Ġom bl
ĠH ijo
Ġlo cu
Ġprem isa
T ema
Ġs ombr
ĠDis capacidad
m ones
g Ã¡is
f arro
as i
Ġic onos
tas una
ĠInstitu ciÃ³n
Ġorigin alidad
Ã¡u tico
ĠV iena
Ġequi pado
anto ja
ĠCom prar
Ġdeber Ã¡s
Direc torio
Ġin elud
Ġbrasile Ã±a
ĠG rupos
ĠF ores
Ġcalific Ã³
Ġemble mÃ¡tico
Ġrequer imiento
Ġprogres istas
ĠB ron
ĠVall s
a torio
ĠPRES S
Ġevid encias
Ġaten tos
ĠLo ve
Ġajus tado
Ġren ueva
ĠDES DE
Ġtribu taria
ĠPDe CAT
Ġsuperior idad
ĠMul ti
ĠGin ebra
ĠBl ue
ĠK ur
Ġatra e
ĠCon venciÃ³n
Ġman eja
Ġsustitu to
J ES
Ġcomis arÃŃa
Ġperfec tas
M ADRID
ĠAl d
ĠFerra z
F abr
Ġlleg ados
Ġcolabor an
Ġaver ias
Ġcofinanci ado
Ale jandro
Ġnewslet ters
Ġcos tar
ĠF ri
Ġbipartid ismo
Ġx en
ĠPh il
Ġmis ter
Util izamos
ash ion
Ġson re
Ġacredi tar
Ġconform ar
ĠU m
Â¡Â¡ Â¡Â¡
Ġfal da
Pro bablemente
ĠA tenas
Ġal titud
ĠV ettel
AT OS
ern as
ĠDi pl
ed uca
C ele
En v
ĠEnfer m
Ġindefin ida
cer os
n ab
Ġalmacen es
ĠBus h
Ġrecorr idos
EC ES
ĠRe forma
Ġg Ã³tico
Ġcaj Ã³n
cur r
A mpl
ĠVas ca
ĠEn ter
Ġalm uerzo
ĠGu a
H om
Ġdese ar
Ġto x
Ġreflex ion
Ġir ri
S iete
Ġpin tado
EN TER
Cu al
ĠDirec tora
ĠHond uras
ĠA h
Ġclaus tro
ĠLlo bregat
Ġcab ina
Ġinv ito
Ġblo queda
Ġextra Ã±os
Se gunda
ĠVir ginia
Ġregistr an
ĠCol lado
G e
as tre
an ada
ob liga
Ġp h
Ġper cep
ĠFire fox
Ġinteres ar
Ġpa ternidad
ĠPa ulo
Ġgran o
Mun dial
k ins
fus amente
ĠT ienda
Ġparticipa ciones
Ġdomin ar
olv iendo
D C
Ġres alta
Jos ep
ĠIn vitado
Ã³ j
Ġalquiler es
Ġimp iden
Ġutiliz arse
Ġfirm ada
Ġfirm aron
vo t
Ġcor al
R en
ĠAmeric an
r omo
sen ger
Ġaclar ado
Ġape la
Ġbloqueda or
Ġsond eo
in eros
Ġf ech
Ġcomple tan
tiv ismo
h echo
Ma pa
Ġan ular
Pod Ã©is
Ġpon te
Ġma cho
Ġadver tencia
Ġgo ogle
ĠH idalgo
ĠNUE VA
Ġcurios idades
Ġrefle jado
Ġnavide Ã±o
aran cÃ³n
Ġllev adas
Com prar
Ġmon tada
ĠLlu ÃŃs
d ÃŃas
troceram icas
ĠIN G
Ġex puestas
Ġprestig iosa
ĠMarcel ino
Ġtrans portar
Ġco tiz
Ġdoctor ado
ĠFOR MA
ĠNa cionales
mp le
Ġentre ten
Ġgal erÃŃas
Ġarm ada
Ġt cn
Ġempa tÃŃa
Ġy endo
ĠNie ves
Ġd Ã¡ndole
ĠA x
Ġcolap so
mm mm
Ġagu jeros
Ġdom Ã©sticos
ĠS po
je a
Ġpos te
tiv aciÃ³n
Ġins pira
Ġcontin ental
Ġe cho
Ġchav al
Ġlav adoras
Ġlin do
Ġcontin entes
ĠUr dangar
ic aba
Ġexplic ando
Ġres tante
Ġencom end
Ġpag Ã³
Ġpeda go
Ġide olÃ³gico
ta in
ĠCom par
ĠâĤ¬ .
F I
ri an
bil izar
Ġp se
Ġmis m
ĠZapa tos
ĠC id
Ġpasar Ã¡s
Ġsub san
GP J
ĠCh Ã¡vez
Ġalterna tivos
gues es
ĠNa talia
respon d
Ġanaliz amos
ac tualidad
ĠCÃ¡ tedra
Ġcar dia
ĠJ e
Ġgubernam entales
Ġm igraciÃ³n
ver as
Ġverti ente
S AN
ĠEuro liga
che go
z en
Ġalar mas
lo ween
ĠdÃ³ lar
ĠS ys
Ġte tas
Ġs ientes
ĠPal oma
Ġvis ibil
Ġor ient
Ġob se
Ġjud ÃŃo
Ġaver ia
J ug
ĠEs lo
@@@@@@@@ @@@@@@@@
Par te
me do
Ġdej as
n Ãºmero
Com entario
Ġrespir ar
ĠBo ok
Ġejecu tado
Ġdesem bol
Ġasc ender
Ġarag onesa
Vi toria
ĠJuven tus
ĠH ong
es paÃ±ol
ĠE ul
Ġcaracter ÃŃstico
Ġle a
Ġdesem boc
rea k
Ġad ul
Ġdecid ÃŃ
Ġc ra
Ġman tuvieron
r ama
Ġcier tamente
ul ario
Ġrefor zado
ĠCh eca
Ġcontar Ã¡n
Ã «
Ġrevel an
Ġaprue ban
Ġcons istir
Ġcu pones
Ġdesp idos
Ġamis toso
Ġf ul
om i
Ġur l
Ġtax istas
ĠC od
ĠV arela
Ġser p
Ġcil ind
Ġelev adas
Ġilus iones
Ġexces ivamente
Ġlan zan
ĠME JOR
p son
Ġl us
ĠA itor
ĠA poyo
ĠOri huela
. Â¡
Ġauto car
Ġestr enado
Ġcotidi ano
ĠRa to
Ġmir an
Ġalter n
SÃŃ guenos
cl us
Ġfor zos
Ġtelevis iva
Ġinf arto
Ġmal eta
ĠXX X
Ġn ulidad
Ġch ip
Ġdefens ivo
Ã©ndo le
mu cho
Ġconced iÃ³
tÃ³r ico
Ġpes adilla
ĠU no
Ġpropor cional
Jorn ada
Ġcombina ciones
Ġs endos
ĠC eci
Ġpreco z
Ġan on
Ġsuje ta
Ġind ud
CI NA
Ġdes col
Ġn al
fas is
Ġdiv or
ĠS tore
Ġcar encia
p ico
Ġdefin ida
ĠD ro
Ġcas ado
Ġcompa cto
tad es
GRA MA
a par
Ġauto gobierno
Ġz umo
Ãį AS
ĠfotÃ³graf os
Ġb ul
Ġcol esterol
ĠMo z
Ġcubier tos
ĠJun ts
Ġaj edrez
M L
Ġa ri
tif y
ell ers
Ġdi le
] >
Ġestudi an
Bo letÃŃn
ron to
ĠK u
cord ia
Ġbr us
Ġescri tas
Ġacer tado
Ġfr entes
Ġdir Ã©
Ġeuro pa
Ġprogram adas
ĠÃ© tn
agu do
Ġus ada
ĠH ill
Ġmayor itario
O cho
Ġlig ada
Ġp and
L l
Ġca cer
Ġcarn Ã©
Ġch am
Ġexpec taciÃ³n
Ten iendo
Cas as
Ġbloque ar
ban k
us si
Ġstre aming
ĠmetÃ¡ f
ala ga
CE P
Ġobr era
Ġsex y
m isiones
Ġcam ina
ind ustr
Ġsim ula
la opinion
ne do
Ġpob lado
T re
Ġ Ã©n
Ġcaud al
ĠCN T
Ġadver tir
ĠGuin dos
Ġbu f
Ġdeber se
ĠBar denas
Ġproces ado
Ġven ÃŃan
ĠP aj
ber to
Ġlen tamente
por to
ĠCas ino
ific ador
Ġreproduc ciones
Ġsupon ÃŃa
Ġencontrar la
ph one
ĠTrib unales
Ingres a
Ġprotec tor
C ientos
Ġcay eron
Ġimpl icadas
z arÃ¡
ĠTi po
Ġblan que
Ġnorma tivas
ĠAdo be
mas ter
Ġviol ento
Ġdiver tidos
ĠEx press
ĠCas illas
Ġle ÃŃ
Ġanaliz ando
v adas
Ġtor p
Ġrefer ida
Ã¡m icos
Ġfrustr aciÃ³n
Ġglo bo
ĠS D
Ġsin Ã³nimo
Ġinforma tivas
u Ã±
âĢĶ âĢĶ
F eder
elo cidad
Ġimagen es
T ener
Ġestable zca
Ġtre menda
Ġdemas iadas
Ġla var
Ġcre aron
Ġprome ted
ti b
ien taciÃ³n
Ġcre adas
Ġinfin ito
Ġindifer ente
Ġcomprome tidos
R esta
Cuen ca
Ġacep to
Ġselec ciona
Neces ita
br idge
Ġro ble
Ã©r cules
ĠC amacho
biÃ³ ticos
ĠR AM
Ġlo b
Ġcen as
ins tein
Ġcan ciller
Ġimpos ibles
b Ã©
Ã³ ticas
Ġcha queta
ĠWik ipedia
Ġdes hacer
Ch ina
Ġinici aron
ĠE CON
Ġpersegu ir
Ġt v
Ġdesconoci miento
Q L
Ġacostum brado
Ã³x ido
am par
ria ga
Ġindemn izaciones
inter rump
ĠCal zada
ĠL ama
Ġdes ple
gel ia
ĠE ver
icul as
Ġas fix
comun icaciÃ³n
Ġpro visiÃ³n
tx a
ol s
ab c
ĠIb Ã¡Ã±ez
Ġalcan zando
Ġespecif icaciones
v ida
Ġproduc tiva
Ġcamp anas
ch Ã³
ĠH ome
Ġtraslad ados
Ġnos talgia
Ġconven iencia
Ġobr eros
ID AS
ĠRoy al
ĠTur ÃŃstico
ĠH P
F echa
Ġcontrad icciones
Ġinto x
Ġgener Ã³
ĠdifÃŃcil mente
ĠAcces ibilidad
ĠG obern
ĠLa ur
Ġofens ivo
p end
Ġasfal to
Ġprior itario
Ġqued aban
ĠElec ciones
Form aciÃ³n
Ġombl igo
Segu ir
M s
ĠCa ÃŃdos
ĠS onia
Ã¡zar o
Ex pl
ul tado
ĠL ife
Ġexcur siÃ³n
ĠS how
Hos pital
ones ia
Ġlleg ara
TAM IENTO
ĠP Ã¡gina
p un
ida y
Ġcual ificado
ÃŃ tez
Ġec ologistas
Ġplan tar
ĠN ik
H TML
Ġobserv ado
Ġmarc ando
Ġha gamos
ĠSERVI CIOS
u go
mor al
Ġaj enas
ĠD IG
Ġsac ando
ĠolÃŃmp ico
ĠSe x
Ġhistori adores
Y EC
ĠÃ¡ gil
ĠC CAA
Ġcom posiciones
Ġpele ar
Ġdom ina
Ġacad emia
Ġdivid ir
ĠT era
ĠCons ervatorio
Ġcuen ten
Ġemple ada
ĠtÃ©r mica
Ġna cida
Ġsignifica tivamente
pas a
ĠH AS
Ġform almente
ĠRIO JA
Ġsus to
Ġusu aria
ĠRon cal
Rep as
man uel
Ġcoordin ado
ĠP ens
ĠOC DE
Ġb eta
ĠcuÃ¡n tos
m und
Ġofrecer Ã¡n
G AS
Ġcelebr aron
ĠY olanda
Ġgan aron
Ġem ig
Ġadquis itivo
bi e
tu res
Ġexac titud
Ġrebo tes
Ġop ta
Ġconcurr encia
ĠCon tr
De bate
Ġcan arios
p unto
ĠCOMP LE
Ġte me
I TE
Ġbuscar Ã¡
tor iamente
ĠVer des
ĠN ok
Ġrem ol
Ġf ec
Ġcas illa
Ġcons orcio
[...]
