{"<s>": 0, "<pad>": 1, "</s>": 2, "<unk>": 3, "<mask>": 50261, "[UNUSED-0]": 4, "[UNUSED-1]": 5, "[UNUSED-2]": 6, "[UNUSED-3]": 7, "[UNUSED-4]": 8, "[UNUSED-5]": 9, "[UNUSED-6]": 10, "[UNUSED-7]": 11, "[UNUSED-8]": 12, "[UNUSED-9]": 13, "[UNUSED-10]": 14, "[UNUSED-11]": 15, "[UNUSED-12]": 16, "[UNUSED-13]": 17, "[UNUSED-14]": 18, "[UNUSED-15]": 19, "[UNUSED-16]": 20, "[UNUSED-17]": 21, "[UNUSED-18]": 22, "[UNUSED-19]": 23, "[UNUSED-20]": 24, "[UNUSED-21]": 25, "[UNUSED-22]": 26, "[UNUSED-23]": 27, "[UNUSED-24]": 28, "[UNUSED-25]": 29, "[UNUSED-26]": 30, "[UNUSED-27]": 31, "[UNUSED-28]": 32, "[UNUSED-29]": 33, "[UNUSED-30]": 34, "[UNUSED-31]": 35, "[UNUSED-32]": 36, "[UNUSED-33]": 37, "[UNUSED-34]": 38, "[UNUSED-35]": 39, "[UNUSED-36]": 40, "[UNUSED-37]": 41, "[UNUSED-38]": 42, "[UNUSED-39]": 43, "[UNUSED-40]": 44, "[UNUSED-41]": 45, "[UNUSED-42]": 46, "[UNUSED-43]": 47, "[UNUSED-44]": 48, "[UNUSED-45]": 49, "[UNUSED-46]": 50, "[UNUSED-47]": 51, "[UNUSED-48]": 52, "[UNUSED-49]": 53, "!": 54, "\"": 55, "#": 56, "$": 57, "%": 58, "&": 59, "'": 60, "(": 61, ")": 62, "*": 63, "+": 64, ",": 65, "-": 66, ".": 67, "/": 68, "0": 69, "1": 70, "2": 71, "3": 72, "4": 73, "5": 74, "6": 75, "7": 76, "8": 77, "9": 78, ":": 79, ";": 80, "<": 81, "=": 82, ">": 83, "?": 84, "@": 85, "A": 86, "B": 87, "C": 88, "D": 89, "E": 90, "F": 91, "G": 92, "H": 93, "I": 94, "J": 95, "K": 96, "L": 97, "M": 98, "N": 99, "O": 100, "P": 101, "Q": 102, "R": 103, "S": 104, "T": 105, "U": 106, "V": 107, "W": 108, "X": 109, "Y": 110, "Z": 111, "[": 112, "\\": 113, "]": 114, "^": 115, "_": 116, "`": 117, "a": 118, "b": 119, "c": 120, "d": 121, "e": 122, "f": 123, "g": 124, "h": 125, "i": 126, "j": 127, "k": 128, "l": 129, "m": 130, "n": 131, "o": 132, "p": 133, "q": 134, "r": 135, "s": 136, "t": 137, "u": 138, "v": 139, "w": 140, "x": 141, "y": 142, "z": 143, "{": 144, "|": 145, "}": 146, "~": 147, "\u00a1": 148, "\u00a2": 149, "\u00a3": 150, "\u00a4": 151, "\u00a5": 152, "\u00a6": 153, "\u00a7": 154, "\u00a8": 155, "\u00a9": 156, "\u00aa": 157, "\u00ab": 158, "\u00ac": 159, "\u00ae": 160, "\u00af": 161, "\u00b0": 162, "\u00b1": 163, "\u00b2": 164, "\u00b3": 165, "\u00b4": 166, "\u00b5": 167, "\u00b6": 168, "\u00b7": 169, "\u00b8": 170, "\u00b9": 171, "\u00ba": 172, "\u00bb": 173, "\u00bc": 174, "\u00bd": 175, "\u00be": 176, "\u00bf": 177, "\u00c0": 178, "\u00c1": 179, "\u00c2": 180, "\u00c3": 181, "\u00c4": 182, "\u00c5": 183, "\u00c6": 184, "\u00c7": 185, "\u00c8": 186, "\u00c9": 187, "\u00ca": 188, "\u00cb": 189, "\u00cc": 190, "\u00cd": 191, "\u00ce": 192, "\u00cf": 193, "\u00d0": 194, "\u00d1": 195, "\u00d2": 196, "\u00d3": 197, "\u00d4": 198, "\u00d5": 199, "\u00d6": 200, "\u00d7": 201, "\u00d8": 202, "\u00d9": 203, "\u00da": 204, "\u00db": 205, "\u00dc": 206, "\u00dd": 207, "\u00de": 208, "\u00df": 209, "\u00e0": 210, "\u00e1": 211, "\u00e2": 212, "\u00e3": 213, "\u00e4": 214, "\u00e5": 215, "\u00e6": 216, "\u00e7": 217, "\u00e8": 218, "\u00e9": 219, "\u00ea": 220, "\u00eb": 221, "\u00ec": 222, "\u00ed": 223, "\u00ee": 224, "\u00ef": 225, "\u00f0": 226, "\u00f1": 227, "\u00f2": 228, "\u00f3": 229, "\u00f4": 230, "\u00f5": 231, "\u00f6": 232, "\u00f7": 233, "\u00f8": 234, "\u00f9": 235, "\u00fa": 236, "\u00fb": 237, "\u00fc": 238, "\u00fd": 239, "\u00fe": 240, "\u00ff": 241, "\u0100": 242, "\u0101": 243, "\u0102": 244, "\u0103": 245, "\u0104": 246, "\u0105": 247, "\u0106": 248, "\u0107": 249, "\u0108": 250, "\u0109": 251, "\u010a": 252, "\u010b": 253, "\u010c": 254, "\u010d": 255, "\u010e": 256, "\u010f": 257, "\u0110": 258, "\u0111": 259, "\u0112": 260, "\u0113": 261, "\u0114": 262, "\u0115": 263, "\u0116": 264, "\u0117": 265, "\u0118": 266, "\u0119": 267, "\u011a": 268, "\u011b": 269, "\u011c": 270, "\u011d": 271, "\u011e": 272, "\u011f": 273, "\u0120": 274, "\u0121": 275, "\u0122": 276, "\u0123": 277, "\u0124": 278, "\u0125": 279, "\u0126": 280, "\u0127": 281, "\u0128": 282, "\u0129": 283, "\u012a": 284, "\u012b": 285, "\u012c": 286, "\u012d": 287, "\u012e": 288, "\u012f": 289, "\u0130": 290, "\u0131": 291, "\u0132": 292, "\u0133": 293, "\u0134": 294, "\u0135": 295, "\u0136": 296, "\u0137": 297, "\u0138": 298, "\u0139": 299, "\u013a": 300, "\u013b": 301, "\u013c": 302, "\u013d": 303, "\u013e": 304, "\u013f": 305, "\u0140": 306, "\u0141": 307, "\u0142": 308, "\u0143": 309, "\u0120d": 310, "\u0120e": 311, "\u0120de": 312, "\u0120l": 313, "os": 314, "\u0120p": 315, "\u0120c": 316, "en": 317, "er": 318, "\u0120a": 319, "es": 320, "ar": 321, "as": 322, "on": 323, "ci": 324, "\u0120s": 325, "or": 326, "an": 327, "ad": 328, "ue": 329, "al": 330, "\u0120la": 331, "\u0120m": 332, "\u0120en": 333, "\u00c3\u00b3": 334, "que": 335, "un": 336, "re": 337, "ti": 338, "in": 339, "\u0120que": 340, "\u0120y": 341, "te": 342, "\u0120el": 343, "ta": 344, "tr": 345, "\u0120es": 346, "\u00c3\u00b3n": 347, "to": 348, "\u0120con": 349, "\u00c3\u0143": 350, "\u00c3\u00a1": 351, "\u0120h": 352, "id": 353, "\u0120un": 354, "\u0120n": 355, "is": 356, "om": 357, "ic": 358, "ci\u00c3\u00b3n": 359, "\u0120se": 360, "\u0120f": 361, "\u0120v": 362, "\u0120los": 363, "ro": 364, "do": 365, "ado": 366, "\u0120par": 367, "\u0120del": 368, "\u0120re": 369, "le": 370, "am": 371, "\u0120su": 372, "\u0120in": 373, "\u0120o": 374, "\u00c3\u00a9": 375, "ol": 376, "tu": 377, "\u0120C": 378, "\u0120ha": 379, "res": 380, "ien": 381, "\u0120por": 382, "\u0120com": 383, "\u00c3\u00b1": 384, "im": 385, "\u0120las": 386, "ra": 387, "\u0120al": 388, "ec": 389, "il": 390, "aci\u00c3\u00b3n": 391, "\u0120g": 392, "\u0120para": 393, "\u0120P": 394, "io": 395, "\u0120b": 396, "ter": 397, "\u00c3\u0143a": 398, "\u0120A": 399, "cion": 400, "ab": 401, "\u0120no": 402, "\u0120M": 403, "\u0120una": 404, "\u0120E": 405, "la": 406, "tos": 407, "ten": 408, "em": 409, "\u0120pro": 410, "ente": 411, "qu": 412, "tar": 413, "\u0120S": 414, "ia": 415, "cu": 416, "lo": 417, "..": 418, "ig": 419, "ir": 420, "us": 421, "ed": 422, "\u00c3\u00a1s": 423, "idad": 424, "\u0120tr": 425, "\u0120cu": 426, "ada": 427, "cia": 428, "\u0120des": 429, "\u00c3\u00ba": 430, "ch": 431, "\u0120per": 432, "el": 433, "tes": 434, "ier": 435, "tor": 436, "pa": 437, "iz": 438, "tiv": 439, "ca": 440, "\u0120lo": 441, "ici": 442, "tan": 443, "ur": 444, "ib": 445, "\u0120ac": 446, "\u0120L": 447, "\u0120to": 448, "tas": 449, "ma": 450, "da": 451, "\u0120ex": 452, "El": 453, "iv": 454, "ciones": 455, "\u0120pr": 456, "ues": 457, "\u0120\"": 458, "ales": 459, "\u0120D": 460, "ob": 461, "\u0120G": 462, "ul": 463, "\u0120R": 464, "\u0120como": 465, "\u0120m\u00c3\u00a1s": 466, "co": 467, "\u00c3\u00a1n": 468, "ica": 469, "ido": 470, "\u0120B": 471, "\u0120(": 472, "od": 473, "tal": 474, "tra": 475, "ados": 476, "go": 477, "mp": 478, "\u01202": 479, "\u01201": 480, "\u0120T": 481, "se": 482, "aj": 483, "ando": 484, "\u0120ti": 485, "\u0120j": 486, "tro": 487, "era": 488, "mo": 489, "po": 490, "ios": 491, "\u0120I": 492, "\u0120an": 493, "\u0120mu": 494, "La": 495, "i\u00c3\u00b3n": 496, "tam": 497, "\u0120ser": 498, "\u0120F": 499, "ez": 500, "\u0120res": 501, "\u0120me": 502, "ce": 503, "ud": 504, "ero": 505, "gu": 506, "ran": 507, "\u0120si": 508, "\u0120te": 509, "ico": 510, "\u0120est": 511, "if": 512, "\u0120esta": 513, "orm": 514, "\u0120V": 515, "iento": 516, "bl": 517, "\u0120pre": 518, "par": 519, "ador": 520, "...": 521, "por": 522, "pe": 523, "\u0120r": 524, "\u0120J": 525, "bi": 526, "pa\u00c3\u00b1": 527, "\u0120sus": 528, "\u0120dis": 529, "uc": 530, "\u0120le": 531, "\u0120este": 532, "oci": 533, "00": 534, "tre": 535, "ida": 536, "\u0120a\u00c3\u00b1": 537, "Es": 538, "per": 539, "av": 540, "\u0120im": 541, "\u0120cons": 542, "end": 543, "\u00c3\u00a9n": 544, "En": 545, "\u0120Es": 546, "\u0120pres": 547, "um": 548, "\u0120ma": 549, "encia": 550, "no": 551, "\u0120as": 552, "\u0120N": 553, "\u0120qu": 554, "ri": 555, "ante": 556, "di": 557, "na": 558, "dos": 559, "\u00c3\u00a9s": 560, "con": 561, "\u0120ten": 562, "ion": 563, "cer": 564, "enta": 565, "uev": 566, "\u0120pue": 567, "ga": 568, "\u0120pa": 569, "ara": 570, "br": 571, "emos": 572, "tado": 573, "obre": 574, "\u0120ca": 575, "adas": 576, "los": 577, "gun": 578, "\u0120sin": 579, "tros": 580, "\u0120ar": 581, "\u0120tu": 582, "\u0120H": 583, "\u00c3\u00ban": 584, "pon": 585, "ru": 586, "\u0120sobre": 587, "ens": 588, "\u0120man": 589, "cl": 590, "aliz": 591, "pl": 592, "dad": 593, "ana": 594, "\u0120pas": 595, "\u0120cas": 596, "\u0120di": 597, "son": 598, "\u0120emp": 599, "gr": 600, "amos": 601, "za": 602, "\u0120U": 603, "gar": 604, "ces": 605, "cias": 606, "\u0120O": 607, "ora": 608, "las": 609, "\u0120inter": 610, "\u0120parti": 611, "les": 612, "pos": 613, "ven": 614, "\u00c3\u0143s": 615, "\u0120pod": 616, "uer": 617, "\u0120entre": 618, "\u0120inf": 619, "\u0120pued": 620, "\u0120cam": 621, "\u0120pero": 622, "ers": 623, "it": 624, "\u0120med": 625, "ores": 626, "\u0120ad": 627, "eg": 628, "ba": 629, "\u0120lle": 630, "tic": 631, "\u0120han": 632, "ista": 633, "\u0120tien": 634, "\u0120nuev": 635, "ismo": 636, "amente": 637, "ario": 638, "\u0120prim": 639, "mente": 640, "\u0120person": 641, "lan": 642, "\u0120son": 643, "ento": 644, "bre": 645, "\u0120ya": 646, "\u012020": 647, "ie": 648, "rec": 649, "\u0120or": 650, "alidad": 651, "\u0120nues": 652, "\u0120mar": 653, "\u0120fin": 654, "tin": 655, "\u0120In": 656, "\u0120sol": 657, "tica": 658, "tivo": 659, "ias": 660, "bi\u00c3\u00a9n": 661, "\u0120car": 662, "\u0120ver": 663, "\u0120todo": 664, "entes": 665, "pres": 666, "ech": 667, "\",": 668, "\u0120co": 669, "\".": 670, "ble": 671, "\u0120a\u00c3\u00b1os": 672, "orma": 673, "tras": 674, "duc": 675, "\u0120sal": 676, "ac": 677, "lar": 678, "\u0120comp": 679, "tura": 680, "ena": 681, "\u0120nos": 682, "\u0120ap": 683, "\u00c3\u0143n": 684, "ano": 685, "\u0120ob": 686, "\u0120pos": 687, "\u0120cre": 688, "oc": 689, "til": 690, "\u0120cor": 691, "esti": 692, "\u00c3\u0143as": 693, "min": 694, "abaj": 695, "oy": 696, "\u0120est\u00c3\u00a1": 697, "\u0120much": 698, "\u0120ins": 699, "ras": 700, "pa\u00c3\u00b1a": 701, "\u0120t": 702, "\u0120am": 703, "\u0120trabaj": 704, "eb": 705, "\u0120desd": 706, "je": 707, "\u0120mej": 708, "\u0120-": 709, "\u0120desde": 710, "\u0120tam": 711, "Los": 712, "pu": 713, "cio": 714, "\u01203": 715, "\u0120au": 716, "\u0120ab": 717, "\u0120tan": 718, "\u0120deb": 719, "cional": 720, "eces": 721, "ina": 722, "\u0120dos": 723, "ita": 724, "\u0120of": 725, "\u0120muy": 726, "mas": 727, "\u00c2\u00bf": 728, "asta": 729, "\u0120Con": 730, "icos": 731, "\u0120hay": 732, "jo": 733, "com": 734, "igu": 735, "\u0120mi": 736, "\u0120tambi\u00c3\u00a9n": 737, "ona": 738, "\u0120pol": 739, "idos": 740, "pues": 741, "uro": 742, "entar": 743, "\u0120hab": 744, "ener": 745, "\u0120us": 746, "uel": 747, "\u0120esc": 748, "das": 749, "gan": 750, "\u0120soci": 751, "ver": 752, "og": 753, "ones": 754, "car": 755, "des": 756, "jer": 757, "\u0120201": 758, "\u0120ni": 759, "\u0120mun": 760, "tiva": 761, "enti": 762, "\u0120gran": 763, "mos": 764, "udad": 765, "itar": 766, "\u00c3\u00b1o": 767, "\u0120ter": 768, "\u0120reg": 769, "\u0120Al": 770, "iendo": 771, "cip": 772, "\u0120'": 773, "iudad": 774, "\u0120Mar": 775, "eo": 776, "\u0120po": 777, "icaci\u00c3\u00b3n": 778, "ea": 779, "ond": 780, "\u0120mo": 781, "pi": 782, "\u0120todos": 783, "\u0120men": 784, "\u0120parte": 785, "Por": 786, "mi": 787, "ja": 788, "\u0120ind": 789, "\u0120may": 790, "icio": 791, "lam": 792, "\u0120lu": 793, "\u0120empres": 794, "\u0120hasta": 795, "\u0120San": 796, "ici\u00c3\u00b3n": 797, "iente": 798, "so": 799, "tico": 800, "adr": 801, "emp": 802, "\u0120inform": 803, "iones": 804, "quier": 805, "\u0120can": 806, "\u0120Espa\u00c3\u00b1a": 807, "\u0120contra": 808, "erv": 809, "idades": 810, "man": 811, "ill": 812, "\u0120actu": 813, "istas": 814, "\u0120tra": 815, "\u0120inv": 816, "\u0120DE": 817, "\u0120tiene": 818, "titu": 819, "\u00c3\u00bal": 820, "obier": 821, "aba": 822, "ar\u00c3\u00a1": 823, "pec": 824, "adores": 825, "cial": 826, "edad": 827, "qui": 828, "arios": 829, "du": 830, "\u0120Re": 831, "ub": 832, "\u0120a\u00c3\u00b1o": 833, "\u0120puede": 834, "No": 835, "\u0120ref": 836, "\u0120da": 837, "icas": 838, "\u0120mejor": 839, "\u0120col": 840, "fec": 841, "\u0120serv": 842, "gen": 843, "\u0120cuando": 844, "\u0120tras": 845, "\u0120fue": 846, "),": 847, "\u00c3\u00balti": 848, "cur": 849, "cha": 850, "vo": 851, "\u0120hacer": 852, "t\u00c3\u00b3": 853, "\u0120deci": 854, "toria": 855, "zo": 856, "ve": 857, "\u0120La": 858, "\u00c3\u00babl": 859, "\u0120direc": 860, "can": 861, "eros": 862, "\u0120Un": 863, "obierno": 864, "tur": 865, "\u0120Com": 866, "\u0120neces": 867, "\u0120dif": 868, "der": 869, "\u0120fu": 870, "ivers": 871, "tir": 872, "ton": 873, "\u0120na": 874, "\u0120An": 875, "OS": 876, "unto": 877, "iste": 878, "tados": 879, "teri": 880, "\u0120gra": 881, "\u0120cal": 882, "ER": 883, "Con": 884, "\u00c3\u00b1a": 885, "\u0120pu": 886, "urante": 887, "nos": 888, "g\u00c3\u00ban": 889, "\u0120\u00c3\u00balti": 890, "\u0120forma": 891, "onde": 892, "adrid": 893, "\u0120cual": 894, "uen": 895, "cn": 896, "\u0120conf": 897, "ord": 898, "\u0120cos": 899, "\u0120pla": 900, "\u0120cen": 901, "ay": 902, "ES": 903, "\u0120mis": 904, "\u0120vis": 905, "tante": 906, "\u00c3\u00b3m": 907, "\u0120w": 908, "\u0120fun": 909, "\u0120lib": 910, "vis": 911, "cal": 912, "arro": 913, "ele": 914, "pa\u00c3\u00b1ol": 915, "\u0120cl": 916, "ible": 917, "able": 918, "\u0120d\u00c3\u0143a": 919, "\u0120porque": 920, "\u01204": 921, "tivos": 922, "xim": 923, "\u0120elec": 924, "\u0120acu": 925, "ies": 926, "et": 927, "\u0120algun": 928, "den": 929, "ced": 930, "\u00c3\u0143cu": 931, "\u0120dic": 932, "\u0120ciudad": 933, "\u0120donde": 934, "\u00c3\u00a9r": 935, "anos": 936, "ama": 937, "\u0120vez": 938, "\u0120realiz": 939, "eci": 940, "ilidad": 941, "ino": 942, "\u0120pol\u00c3\u0143": 943, "\u0120tiem": 944, ").": 945, "\u0120ah": 946, "taci\u00c3\u00b3n": 947, "cas": 948, "\u0120\u00c2": 949, "\u0120El": 950, "\u0120reci": 951, "\u0120mes": 952, "yec": 953, "icios": 954, "\u0120cada": 955, "Si": 956, "em\u00c3\u00a1s": 957, "\u0120personas": 958, "\u0120comun": 959, "\u0120bien": 960, "\u0120espe": 961, "\u00c3\u0143an": 962, "Se": 963, "\u0120sec": 964, "\u0120ay": 965, "ef": 966, "idas": 967, "\u0120pe": 968, "r\u00c3\u00a1": 969, "aron": 970, "\u01205": 971, "\u0120sido": 972, "\u0120as\u00c3\u0143": 973, "\u0120estu": 974, "ep": 975, "\u00e2\u0122": 976, "\u0120cr": 977, "\u0120llev": 978, "antes": 979, "\u0120hace": 980, "\u0120form": 981, "almente": 982, "ans": 983, "arse": 984, "\u0120impor": 985, "\u0120his": 986, "icado": 987, "ito": 988, "\u0120Madrid": 989, "\u0120prof": 990, "\u0120ju": 991, "\u0120uno": 992, "\u0120cer": 993, "\u0120gener": 994, "gos": 995, "endo": 996, "\u0120ch": 997, "\u0120mod": 998, "vi": 999, "\u0120incl": 1000, "lec": 1001, "\u0120sig": 1002, "tel": 1003, "\u0120op": 1004, "miento": 1005, "cil": 1006, "\u0120W": 1007, "entos": 1008, "istr": 1009, "\u0120val": 1010, "uci\u00c3\u00b3n": 1011, "uros": 1012, "Las": 1013, "\u0120|": 1014, "EN": 1015, "aciones": 1016, "uy": 1017, "tis": 1018, "\u0120p\u00c3\u00babl": 1019, "\u0120mayor": 1020, "\u0120em": 1021, "\u0120id": 1022, "AS": 1023, "\u0120segu": 1024, "\u0120den": 1025, "\u0120prop": 1026, "\u0120dere": 1027, "\u0120ro": 1028, "\u0120tiempo": 1029, "\u0120produc": 1030, "\u0120u": 1031, "\u0120espa\u00c3\u00b1ol": 1032, "cel": 1033, "AR": 1034, "\u0120Euro": 1035, "arrol": 1036, "illa": 1037, "\u0120pues": 1038, "\u0120sab": 1039, "\u0120def": 1040, "CI": 1041, "\u0120\u00c3\u00a9": 1042, "\u0120viv": 1043, "\u0120durante": 1044, "Al": 1045, "amiento": 1046, "ticas": 1047, "\u00c3\u00b1os": 1048, "\u012019": 1049, "\u0120equi": 1050, "\u0120Ar": 1051, "idente": 1052, "ala": 1053, "\u0120est\u00c3\u00a1n": 1054, "\u0120web": 1055, "mpl": 1056, "\u0120entr": 1057, "\u0120caso": 1058, "me": 1059, "\u0120hech": 1060, "cin": 1061, "\u0120fal": 1062, "incip": 1063, "\u0120hor": 1064, "\u0120mismo": 1065, "gur": 1066, "ON": 1067, "\u0120nuevo": 1068, "i\u00c3\u00b3": 1069, "\u0120otros": 1070, "\u0120publ": 1071, "\u0120mom": 1072, "tores": 1073, "Un": 1074, "ientos": 1075, "\u0120mundo": 1076, "\u0120vida": 1077, "unque": 1078, "\u0120Car": 1079, "\u0120Gobierno": 1080, "\u0120encu": 1081, "\u0120ne": 1082, "\u0120plan": 1083, "pul": 1084, "cho": 1085, "\u0120min": 1086, "\u0120estar": 1087, "\u0120pa\u00c3\u0143s": 1088, "ern": 1089, "\u0120proyec": 1090, "ientes": 1091, "\u0120va": 1092, "\u00c3\u00bas": 1093, "\u0120fuer": 1094, "empre": 1095, "omo": 1096, "\u0120conten": 1097, "eno": 1098, "ard": 1099, "rib": 1100, "tamiento": 1101, "Para": 1102, "pu\u00c3\u00a9s": 1103, "\u0120pon": 1104, "\u0120mill": 1105, "De": 1106, "icar": 1107, "\u0120tanto": 1108, "\u0120princip": 1109, "\u0120menos": 1110, "gres": 1111, "\u0120tres": 1112, "\u0120quier": 1113, "imiento": 1114, "\u0120af": 1115, "cios": 1116, "\u0120ve": 1117, "\u0120profes": 1118, "\u0120cuenta": 1119, "\u0120#": 1120, "\u0120toda": 1121, "\u0120trabajo": 1122, "AL": 1123, "ares": 1124, "\u0120Y": 1125, "\u0120lugar": 1126, "\u0120gru": 1127, "\u0120contr": 1128, "\u0120desarrol": 1129, "izaci\u00c3\u00b3n": 1130, "\u0120Val": 1131, "\u0120expres": 1132, "\u0120bas": 1133, "\u01206": 1134, "\u0120cualquier": 1135, "\u0120dej": 1136, "\u0120les": 1137, "\u0120@": 1138, "\u0120cab": 1139, "\u0120Ca": 1140, "\u0120trans": 1141, "\u0120fr": 1142, "\u0120ra": 1143, "ine": 1144, "\u0120Cas": 1145, "ticos": 1146, "\u0120baj": 1147, "ece": 1148, "\u00c3\u00b3lo": 1149, "AN": 1150, "cor": 1151, "tamente": 1152, "\u0120primera": 1153, "rend": 1154, "\u0120euros": 1155, "\u0120estos": 1156, "\u0120activ": 1157, "tido": 1158, "000": 1159, "\u0120informaci\u00c3\u00b3n": 1160, "\u0120ante": 1161, "zar": 1162, "amil": 1163, "\u0120Le": 1164, "\u0120primer": 1165, "\u0120organ": 1166, "OR": 1167, "aria": 1168, "ial": 1169, "\u0120sub": 1170, "\u0120apar": 1171, "ceso": 1172, "\u0120ev": 1173, "\u0120K": 1174, "\u0120Bar": 1175, "\u0120resul": 1176, "teg": 1177, "\u0120vo": 1178, "\u0120nuestro": 1179, "und": 1180, "\u0120situ": 1181, "\u0120progr": 1182, "jos": 1183, "men": 1184, "\u0120ej": 1185, "cre": 1186, "and": 1187, "bar": 1188, "\u0120siempre": 1189, "che": 1190, "\u0120vol": 1191, "contr": 1192, "ing": 1193, "\u0120difer": 1194, "tac": 1195, "truc": 1196, "mar": 1197, "\u0120millones": 1198, "cen": 1199, "Qu": 1200, "tad": 1201, "tantes": 1202, "\u0120mucho": 1203, "\u0120mujer": 1204, "\u0120encuen": 1205, "\u0120ahora": 1206, "\u0120pasado": 1207, "ombre": 1208, "eza": 1209, "\u0120Par": 1210, "Des": 1211, "\u00c2\u00bb": 1212, "\u0120solo": 1213, "aje": 1214, "\u0120otro": 1215, "\u0120super": 1216, "\u0120mer": 1217, "\u0120util": 1218, "\u0120llam": 1219, "embre": 1220, "isten": 1221, "\u0120noti": 1222, "\u0120todas": 1223, "\u0120segun": 1224, "\u0120poder": 1225, "tamos": 1226, "\u0120tar": 1227, "\u0120\u00c3\u00a1": 1228, "\u0120respon": 1229, "t\u00c3\u00a1": 1230, "wit": 1231, "\u0120era": 1232, "In": 1233, "\u0120gan": 1234, "\u0120obje": 1235, "qu\u00c3\u0143": 1236, "fer": 1237, "ura": 1238, "!!": 1239, "\u0120z": 1240, "\u0120nuestra": 1241, "\u0120d\u00c3\u0143as": 1242, "\u0120trav": 1243, "\u0120momento": 1244, "\u0120hecho": 1245, "\u0120her": 1246, "\u0120podr": 1247, "\u0120exper": 1248, "\u0120inten": 1249, "\u0120pl": 1250, "\u0120Z": 1251, "\u0120proble": 1252, "ros": 1253, "olog": 1254, "AD": 1255, "ecu": 1256, "\u0120social": 1257, "\u0120cele": 1258, "\u0120econ": 1259, "\u0120ta": 1260, "laci\u00c3\u00b3n": 1261, "\u0120red": 1262, "\u0120200": 1263, "\u0120comple": 1264, "\u0120cul": 1265, "\u0120En": 1266, "\u0120As": 1267, "20": 1268, "\u0120[": 1269, "\u0120expl": 1270, "\u0120rela": 1271, "\u0120encontr": 1272, "posici\u00c3\u00b3n": 1273, "\u0120Ch": 1274, "er\u00c3\u0143a": 1275, "\u00c3\u00a9cn": 1276, "\u0120despu\u00c3\u00a9s": 1277, "\u0120unos": 1278, "pro": 1279, "\u0120sigu": 1280, "\u0120buen": 1281, "omin": 1282, "\u0120sem": 1283, "tando": 1284, "igo": 1285, "fici": 1286, "As": 1287, "ieron": 1288, "\u0120hoy": 1289, "\u0120pr\u00c3\u00b3": 1290, "\u0120antes": 1291, "sa": 1292, "\u0120siste": 1293, "\u0120mon": 1294, "witter": 1295, "uso": 1296, "\u0120pes": 1297, "\u01207": 1298, "\u00c3\u0123": 1299, "\u0120tener": 1300, "erg": 1301, "\u0120empresa": 1302, "yo": 1303, "\u0120ese": 1304, "\u0120bus": 1305, "\u0120X": 1306, "ocu": 1307, "tt": 1308, "\u0120recib": 1309, "\u0120famil": 1310, "\u0120otras": 1311, "\u0120investi": 1312, "\u0120trav\u00c3\u00a9s": 1313, "va": 1314, "segu": 1315, "\u0120eso": 1316, "\u0120permi": 1317, "\u0120datos": 1318, "SO": 1319, "\u0120seg\u00c3\u00ban": 1320, "ya": 1321, "Pero": 1322, "\u0120jue": 1323, "\u0120quien": 1324, "gua": 1325, "\u0120conv": 1326, "\u0120hi": 1327, "\u00c3\u00b3mo": 1328, "iencia": 1329, "fr": 1330, "ho": 1331, "ior": 1332, "\u0120aunque": 1333, "\u0120horas": 1334, "tivas": 1335, "\u0120esto": 1336, "\u0120Pro": 1337, "tec": 1338, "cidad": 1339, "\u0120contin": 1340, "abor": 1341, "atro": 1342, "\u00c3\u00b3g": 1343, "arias": 1344, "\u0120partido": 1345, "uda": 1346, "Una": 1347, "\u0120pr\u00c3\u00b3xim": 1348, "\u0120qu\u00c3\u00a9": 1349, "\u0120sea": 1350, "\u0120ofre": 1351, "leg": 1352, "\u0120ir": 1353, "\u0120ser\u00c3\u00a1": 1354, "\u0120algo": 1355, "\u0120equipo": 1356, "ww": 1357, "tada": 1358, "\u0120ven": 1359, "\u0120mas": 1360, "\u0120presidente": 1361, "quel": 1362, "cado": 1363, "icip": 1364, "\u0120apro": 1365, "\u0120nueva": 1366, "cos": 1367, "\u01208": 1368, "tural": 1369, "\u0120comentar": 1370, "\u0120temp": 1371, "\u0120tipo": 1372, "\u00c3\u00a1c": 1373, "\u0120qued": 1374, "oto": 1375, "\u0120medio": 1376, "van": 1377, "\u0120Pa": 1378, "\u0120poco": 1379, "\u0120dar": 1380, "\u0120camb": 1381, "bo": 1382, "gra": 1383, "isi\u00c3\u00b3n": 1384, "\u0120tienen": 1385, "\u0120pueden": 1386, "\u0120otra": 1387, "\u0120PP": 1388, "//": 1389, "\u0120tend": 1390, "\u0120consid": 1391, "\u0120Ma": 1392, "\u0120gu": 1393, "Ad": 1394, "\u0120gus": 1395, "\u0120historia": 1396, "\u0120cur": 1397, "ensa": 1398, "\u0120compr": 1399, "\u0120Na": 1400, "ustr": 1401, "\u0120Se": 1402, "\u0120autor": 1403, "\u0120total": 1404, "omb": 1405, "erdo": 1406, "log": 1407, "zas": 1408, "ttp": 1409, "\u0120tal": 1410, "\u0120pel": 1411, "\u0120se\u00c3\u00b1": 1412, "aran": 1413, "\u0120estas": 1414, "\u0120servicio": 1415, "\u0120s\u00c3\u00b3lo": 1416, "\u00c3\u0143o": 1417, "://": 1418, "\u0120prev": 1419, "\u0120amb": 1420, "ha": 1421, "....": 1422, "gado": 1423, "\u0120apl": 1424, "cep": 1425, "\u0120recu": 1426, "terior": 1427, "\u0120adem\u00c3\u00a1s": 1428, "\u0120ellos": 1429, "ientras": 1430, "\u0120grupo": 1431, "pital": 1432, "\u00e2\u0122\u0135": 1433, "cis": 1434, "Este": 1435, "\u0120mal": 1436, "unci": 1437, "\u00c3\u00bam": 1438, "cul": 1439, "icia": 1440, "\u0120vi": 1441, "\u0120Europa": 1442, "\u0120Co": 1443, "\u0120hum": 1444, "\u0120art": 1445, "chos": 1446, "\u0120apo": 1447, "ola": 1448, "\u0120final": 1449, "\u0120esp": 1450, "\u0120\u00c2\u00ab": 1451, "orn": 1452, "IC": 1453, "\u0120empresas": 1454, "untos": 1455, "torio": 1456, "\u0120utiliz": 1457, "icaciones": 1458, "\u01209": 1459, "\u0120semana": 1460, "vil": 1461, "arra": 1462, "\u0120Di": 1463, "\u00c2\u00a1": 1464, "\u0120\u00c3\u00ban": 1465, "\u0120ba": 1466, "sos": 1467, "\u0120hab\u00c3\u0143a": 1468, "tidad": 1469, "\u0120Jos": 1470, "\u012010": 1471, "\u0120Ju": 1472, "Cu": 1473, "\u0120compar": 1474, "\u0120t\u00c3\u00a9cn": 1475, "\u0120Can": 1476, "ari": 1477, "tera": 1478, "\u0120mil": 1479, "\u0120nin": 1480, "\u0120repres": 1481, "\u0120cier": 1482, "\u0120senti": 1483, "\u0120aquel": 1484, "\u0120\u00c2\u00bf": 1485, "\u0120esa": 1486, "\u0120nada": 1487, "anza": 1488, "\u0120prov": 1489, "\u0120Ay": 1490, "\u0120nav": 1491, "\u0120especial": 1492, "dal": 1493, "\u0120habl": 1494, "\u0120comer": 1495, "\u0120Man": 1496, "\u0120haber": 1497, "\u0120estado": 1498, "\u0120servicios": 1499, "\u0120yo": 1500, "ent": 1501, "\u0120ag": 1502, "ex": 1503, "\u0120conoci": 1504, "\u0120mad": 1505, "\u0120s\u00c3\u0143": 1506, "\u0120interes": 1507, "\u0120pens": 1508, "\u0120recon": 1509, "\u0120Inter": 1510, "\u0120proyecto": 1511, "duci": 1512, "avor": 1513, "ide": 1514, "untamiento": 1515, "\u0120edi": 1516, "\u0120Gu": 1517, "ge": 1518, "\u0120sino": 1519, "imos": 1520, "\u0120profesion": 1521, "SOE": 1522, "ban": 1523, "\u0120efec": 1524, "\u0120n\u00c3\u00bam": 1525, "bol": 1526, "unta": 1527, "\u0120usu": 1528, "\u0120casa": 1529, "cular": 1530, "ell": 1531, "\u0120san": 1532, "\u0120cin": 1533, "\u0120compa\u00c3\u00b1": 1534, "\u0120sim": 1535, "\u0120sistema": 1536, "entaci\u00c3\u00b3n": 1537, "ris": 1538, "\u0120dir": 1539, "Esta": 1540, "\u0120aten": 1541, "\u0120respons": 1542, "Lo": 1543, "ivel": 1544, "\u00c3\u0143f": 1545, "turas": 1546, "\u0120leg": 1547, "\u0120decir": 1548, "aban": 1549, "ome": 1550, "\u00c3\u0143d": 1551, "\u0120De": 1552, "\u0120general": 1553, "encias": 1554, "\u0120cono": 1555, "puesto": 1556, "\u0120pal": 1557, "t\u00c3\u00b3n": 1558, "\u0120Cor": 1559, "cri": 1560, "dida": 1561, "\u012015": 1562, "\u0120ban": 1563, "\u0120manera": 1564, "\u0120bar": 1565, "pre": 1566, "\u0120particip": 1567, "iva": 1568, "iga": 1569, "\u0120pi": 1570, "\u0120municip": 1571, "\u0120k": 1572, "\u0120Fran": 1573, "\u0120estable": 1574, "\u0120favor": 1575, "\u0120ello": 1576, "\u00c3\u00a1g": 1577, "\u0120inm": 1578, "Adem\u00c3\u00a1s": 1579, "\u0120muchos": 1580, "\u0120uso": 1581, "\u00c3\u00a1l": 1582, "\u0120electr": 1583, "TA": 1584, "\u0120peque": 1585, "iversidad": 1586, "unidad": 1587, "\u0120fa": 1588, "itos": 1589, "\u0120capa": 1590, "\u0120lab": 1591, "\u0120especi": 1592, "\u0120he": 1593, "\u0120rev": 1594, "puesta": 1595, "ple": 1596, "usi\u00c3\u00b3n": 1597, "\u0120manten": 1598, "\u0120anti": 1599, "esti\u00c3\u00b3n": 1600, "\u0120lar": 1601, "\u0120tor": 1602, "\u0120vuel": 1603, "ual": 1604, "\u0120auto": 1605, "\u0120nivel": 1606, "all": 1607, "\u0120aqu\u00c3\u0143": 1608, "\u0120c\u00c3\u00b3mo": 1609, "\u0120cara": 1610, "\u0120econ\u00c3\u00b3m": 1611, "\u0120Or": 1612, "\u0120centro": 1613, "\u0120Pol": 1614, "\u0120gas": 1615, "\u0120Estado": 1616, "col": 1617, "',": 1618, "\u0120igu": 1619, "ables": 1620, "\u0120pol\u00c3\u0143tica": 1621, "quil": 1622, "\u0120i": 1623, "eta": 1624, "\u0120jug": 1625, "\u0120programa": 1626, "celona": 1627, "isis": 1628, "\u0120loc": 1629, "twitter": 1630, "\u0120Pres": 1631, "\u0120espa": 1632, "eras": 1633, "\u0120meses": 1634, "\u0120cuatro": 1635, "irm": 1636, "\u0120\u00c3\u0123": 1637, "rim": 1638, "\u0120mientras": 1639, "\u00c3\u00b3r": 1640, "\u0120via": 1641, "gon": 1642, "\u0120PSOE": 1643, "\u0120Nav": 1644, "\u0120estud": 1645, "leo": 1646, "ibilidad": 1647, "\u0120os": 1648, "\u0120\u00c3\u00a9l": 1649, "\u0120contenidos": 1650, "\u0120posible": 1651, "IS": 1652, "\u0120sen": 1653, "\u0120tur": 1654, "\u0120n\u00c3\u00bamero": 1655, "\u0120Cam": 1656, "\u0120acuerdo": 1657, "\u0120habi": 1658, "\u0120algunos": 1659, "\u0120dispon": 1660, "ene": 1661, "\u0120ho": 1662, "\u0120espec": 1663, "nacional": 1664, "\u00c3\u0143culo": 1665, "tancia": 1666, "ar\u00c3\u00a1n": 1667, "\u0120Soci": 1668, "\u0120esper": 1669, "cionales": 1670, "\u0120medi": 1671, "\u0120Ayuntamiento": 1672, "form": 1673, "\u0120distin": 1674, "\u0120decl": 1675, "olog\u00c3\u0143a": 1676, "adora": 1677, "\u0120bo": 1678, "tif": 1679, "enci": 1680, "\u0120sa": 1681, "\u0120Gener": 1682, "reo": 1683, "\u0120organiz": 1684, "\u0120bu": 1685, "icial": 1686, "\u0120Lu": 1687, "\u0120l\u00c3\u0143": 1688, "\u0120Mon": 1689, "gaci\u00c3\u00b3n": 1690, "\u0120cosas": 1691, "\u0120noticias": 1692, "otros": 1693, "hib": 1694, "si\u00c3\u00b3n": 1695, "\u0120nego": 1696, "\u0120so": 1697, "inas": 1698, "\u0120dentro": 1699, "\u0120abr": 1700, "ok": 1701, "fru": 1702, "\u0120ayud": 1703, "dic": 1704, "ber": 1705, "\u0120dirig": 1706, "\u0120continu": 1707, "\u0120instal": 1708, "IN": 1709, "\u0120gente": 1710, "porte": 1711, "\u0120importante": 1712, "\u0120derechos": 1713, "lu": 1714, "\u0120tecn": 1715, "\u0120ley": 1716, "anci": 1717, "c\u00c3\u0143a": 1718, "\u0120rec": 1719, "\u0120nuestros": 1720, "\u0120clas": 1721, "eas": 1722, "\u0120debe": 1723, "\u0120seguir": 1724, "Tam": 1725, "RE": 1726, "raci\u00c3\u00b3n": 1727, "\u0120clar": 1728, "edia": 1729, "cimiento": 1730, "\u0120escri": 1731, "\u0120grandes": 1732, "\u0120consider": 1733, "\u0120situaci\u00c3\u00b3n": 1734, "\u0120Jos\u00c3\u00a9": 1735, "\u0120condi": 1736, "\u0120compe": 1737, "\u0120Sal": 1738, "\u0120refer": 1739, "pas": 1740, "tran": 1741, "\u0120comen": 1742, "rea": 1743, "ibu": 1744, "jas": 1745, "\u0120valor": 1746, "gas": 1747, "\u0120tempor": 1748, "cid": 1749, "iso": 1750, "iera": 1751, "chez": 1752, "\u0120casi": 1753, "epend": 1754, "uela": 1755, "\u0120p\u00c3\u00bablico": 1756, "\u0120LA": 1757, "\u0120segur": 1758, "\u0120ima": 1759, "tud": 1760, "\u0120calidad": 1761, "\u0120unas": 1762, "\u0120llegar": 1763, "\u0120verdad": 1764, "t\u00c3\u00a1n": 1765, "imo": 1766, "\u0120ejemp": 1767, "bado": 1768, "\u0120http": 1769, "tim": 1770, "\u00c3\u00a9c": 1771, "\u0120ur": 1772, "uestra": 1773, "adi": 1774, "\u0120muer": 1775, "\u0120cambio": 1776, "\u0120euro": 1777, "inos": 1778, "\u0120hemos": 1779, "\u0120sector": 1780, "oma": 1781, "\u0120ped": 1782, "\u0120pregun": 1783, "\u0120Barcelona": 1784, "\u0120quer": 1785, "\u0120Su": 1786, "ono": 1787, "\u0120punto": 1788, "\u0120Cons": 1789, "TE": 1790, "\u0120lleg": 1791, "\u0120ase": 1792, "\u0120fuera": 1793, "\u0120m\u00c3\u00a1": 1794, "\u0120funcion": 1795, "ted": 1796, "\u0120ampl": 1797, "\u0120domin": 1798, "\u0120\u00c3\u00baltimo": 1799, "\u0120zona": 1800, "An": 1801, "Su": 1802, "graf": 1803, "\u012018": 1804, "\u0120misma": 1805, "una": 1806, "\u0120igual": 1807, "As\u00c3\u0143": 1808, "\u0120perio": 1809, "ersi\u00c3\u00b3n": 1810, "\u0120dig": 1811, "\u0120repar": 1812, "\u0120solici": 1813, "\u0120celebr": 1814, "\u0120disfru": 1815, "\u0120diferentes": 1816, "\u0120embar": 1817, "nes": 1818, "\u0120Mun": 1819, "\u0120mujeres": 1820, "\u00c3\u00b1as": 1821, "\u0120venta": 1822, "terio": 1823, "he": 1824, "pecto": 1825, "tario": 1826, "\u0120pad": 1827, "posi": 1828, "\u0120presen": 1829, "t\u00c3\u0143n": 1830, "\u0120Ad": 1831, "\u0120Catal": 1832, "\u0120orig": 1833, "\u0120p\u00c3\u00a1g": 1834, "\u0120lim": 1835, "\u0120General": 1836, "lado": 1837, "\u0120docu": 1838, "\u0120trata": 1839, "esta": 1840, "ctu": 1841, "\u0120sue": 1842, "olu": 1843, "iar": 1844, "Que": 1845, "\u0120frente": 1846, "ts": 1847, "\u0120Juan": 1848, "\u0120\u00e2\u0122\u0135": 1849, "zado": 1850, "unca": 1851, "\u0120tus": 1852, "tio": 1853, "\u0120productos": 1854, "\u0120control": 1855, "ima": 1856, "\u0120Gar": 1857, "ol\u00c3\u00b3g": 1858, "anto": 1859, "\u0120consegu": 1860, "201": 1861, "RA": 1862, "\u0120obl": 1863, "\u0120din": 1864, "ecer": 1865, "Me": 1866, "om\u00c3\u0143a": 1867, "\u0120recur": 1868, "\u0120objetivo": 1869, "\u0120ella": 1870, "elo": 1871, "\u0120muchas": 1872, "\u0120sociedad": 1873, "\u00c3\u0135": 1874, "UE": 1875, "\u0120falta": 1876, "\u0120dise": 1877, "\u0120Ex": 1878, "\u0120hora": 1879, "\u0120cumpl": 1880, "esi\u00c3\u00b3n": 1881, "\u00c3\u00a1m": 1882, "ne": 1883, "\u00c3\u00a1nchez": 1884, "II": 1885, "\u0120tele": 1886, "\u0120gracias": 1887, "orte": 1888, "bras": 1889, "\u0120reco": 1890, "greso": 1891, "\u0120No": 1892, "\u0120junto": 1893, "\u0120afec": 1894, "\u012012": 1895, "cido": 1896, "oluci\u00c3\u00b3n": 1897, "tilla": 1898, "\u0120labor": 1899, "\u0120orden": 1900, "ivil": 1901, "\u00c3\u00a1r": 1902, "\u0120exp": 1903, "\u0120registr": 1904, "\u0120desarrollo": 1905, "\u0120Gran": 1906, "omos": 1907, "\u0120Real": 1908, "\u0120conocer": 1909, "\u0120desp": 1910, "\u0120bajo": 1911, "tero": 1912, "\u0120seguridad": 1913, "\u0120ejemplo": 1914, "\u00c3\u0143tu": 1915, "\u0120financi": 1916, "\u0120foto": 1917, "\u0120parece": 1918, "\u0120Med": 1919, "\u0120fund": 1920, "net": 1921, "Tambi\u00c3\u00a9n": 1922, "\u0120cambi": 1923, "ire": 1924, "\u0120proceso": 1925, "z\u00c3\u00b3n": 1926, "m\u00c3\u00a1": 1927, "\u0120hacia": 1928, "\u0120pan": 1929, "\u0120reun": 1930, "\u0120Cen": 1931, "pel": 1932, "istro": 1933, "\u0120inici": 1934, "\u0120personal": 1935, "ibles": 1936, "\u0120mejores": 1937, "\u00c3\u00b1ana": 1938, "\u0120mercado": 1939, "pone": 1940, "\u0120manif": 1941, "port": 1942, "ducaci\u00c3\u00b3n": 1943, "\u0120obs": 1944, "odemos": 1945, "\u0120desa": 1946, "\u0120proced": 1947, "\u0120formaci\u00c3\u00b3n": 1948, "\u0120agua": 1949, "ibuci\u00c3\u00b3n": 1950, "\u0120persona": 1951, "\u0120aum": 1952, "\u0120Ag": 1953, "\u0120alum": 1954, "IL": 1955, "Sin": 1956, "\u0120tard": 1957, "respon": 1958, "\u0120dice": 1959, "para": 1960, "ula": 1961, "fa": 1962, "\u0120puer": 1963, "\u0120actualidad": 1964, "\u0120minu": 1965, "Ha": 1966, "\u0120gobierno": 1967, "\u0120nombre": 1968, "pic": 1969, "gue": 1970, "uego": 1971, "\u0120mos": 1972, "\u0120acep": 1973, "lor": 1974, "turo": 1975, "\u0120sociales": 1976, "\u0120poner": 1977, "\u0120veces": 1978, "istra": 1979, "\u0120partir": 1980, "uye": 1981, "\u0120Nacional": 1982, "ich": 1983, "\u0120div": 1984, "\u00c3\u00b3s": 1985, "\u0120prohib": 1986, "\u0120colec": 1987, "\u0120ale": 1988, "\u0120garan": 1989, "\u0120cir": 1990, "\u0120colabor": 1991, "\u0120director": 1992, "iene": 1993, "\u0120Ciudad": 1994, "dial": 1995, "\u0120fran": 1996, "ajes": 1997, "tend": 1998, "MA": 1999, "\u012030": 2000, "\u0120descu": 2001, "illo": 2002, "lv": 2003, "\u0120alcan": 2004, "\u0120m\u00c3\u00bas": 2005, "\u0120asegur": 2006, "\u00c3\u00a1f": 2007, "\u0120cinco": 2008, "\u0120dem": 2009, "\u0120S\u00c3\u00a1nchez": 2010, "\u0120candida": 2011, "ice": 2012, "\u0120jus": 2013, "\u0120\u00c3\u00baltimos": 2014, "\u0120independ": 2015, "\u0120problema": 2016, "\u0120ejer": 2017, "taciones": 2018, "\u0120nuevos": 2019, "\u0120problemas": 2020, "\u0120pr\u00c3\u00b3ximo": 2021, "\u0120nuevas": 2022, "\u0120puesto": 2023, "itas": 2024, "\u0120acab": 2025, "\u0120Am": 2026, "\u0120estaba": 2027, "\u0120for": 2028, "\u0120liber": 2029, "Desd": 2030, "Desde": 2031, "\u0120gol": 2032, "RO": 2033, "\u0120incluso": 2034, "\u0120embargo": 2035, "\u0120deber": 2036, "r\u00c3\u00a1n": 2037, "Como": 2038, "\u0120derecho": 2039, "red": 2040, "\u0120Ins": 2041, "\u0120puntos": 2042, "\u0120actividades": 2043, "tencia": 2044, "ram": 2045, "lio": 2046, "u\u00c3\u00b1a": 2047, "\u0120electr\u00c3\u00b3n": 2048, "\u0120ocas": 2049, "\u0120sex": 2050, "\u0120contac": 2051, "\u0120et": 2052, "\u0120segunda": 2053, "\u0120Min": 2054, "\u0120mus": 2055, "\u0120selec": 2056, "\u0120pr\u00c3\u00a1c": 2057, "\u0120der": 2058, "\u0120experiencia": 2059, "gel": 2060, "\u0120Universidad": 2061, "\u0120ni\u00c3\u00b1os": 2062, "\u0120termin": 2063, "LA": 2064, "ID": 2065, "\u0120institu": 2066, "nas": 2067, "tual": 2068, "\u0120nosotros": 2069, "th": 2070, "ite": 2071, "cier": 2072, "ministr": 2073, "\u0120Conse": 2074, "\u0120EN": 2075, "\u0120caus": 2076, "\u0120extra": 2077, "dose": 2078, "pular": 2079, "Com": 2080, "\u0120il": 2081, "alizaci\u00c3\u00b3n": 2082, "ip": 2083, "ivo": 2084, "\u0120obra": 2085, "ror": 2086, "pci\u00c3\u00b3n": 2087, "be": 2088, "\u0120nunca": 2089, "izo": 2090, "\u012011": 2091, "odos": 2092, "\u0120palab": 2093, "\u0120a\u00c3\u00ban": 2094, "\u0120jorn": 2095, "\u0120buena": 2096, "\u0120provin": 2097, "ron": 2098, "\u0120lado": 2099, "ves": 2100, "\u0120anim": 2101, "echa": 2102, "\u0120paso": 2103, "\u0120abs": 2104, "icul": 2105, "puestos": 2106, "\u0120promo": 2107, "\u0120ed": 2108, "\u0120alcal": 2109, "blo": 2110, "\u0120nacional": 2111, "\u0120m\u00c3\u00a9": 2112, "\u0120on": 2113, "\u0120actividad": 2114, "\u0120recom": 2115, "\u0120Per": 2116, "irma": 2117, "--": 2118, "ciendo": 2119, "\u0120tenemos": 2120, "\u0120van": 2121, "zos": 2122, "termin": 2123, "\u0120segundo": 2124, "\u0120blog": 2125, "\u0120l\u00c3\u0143n": 2126, "ajo": 2127, "\u0120siendo": 2128, "\u0120prue": 2129, "\u0120dicho": 2130, "\u0120realidad": 2131, "pti": 2132, "\u0120mayor\u00c3\u0143a": 2133, "IA": 2134, "gles": 2135, "\u0120defin": 2136, "\u0120ma\u00c3\u00b1ana": 2137, "\u0120catal": 2138, "\u0120estudi": 2139, "\u0120ofer": 2140, "\u0120li": 2141, "\u0120pa\u00c3\u0143ses": 2142, "mento": 2143, "\u0120conj": 2144, "\u0120europe": 2145, "\u0120elecciones": 2146, "peraci\u00c3\u00b3n": 2147, "edro": 2148, "\u0120Europe": 2149, "v\u00c3\u0143a": 2150, "ducci\u00c3\u00b3n": 2151, "\u0120centr": 2152, "\u0120Fern": 2153, "\u0120capital": 2154, "\u0120logr": 2155, "Re": 2156, "ificaci\u00c3\u00b3n": 2157, "\u0120futuro": 2158, "\u0120agr": 2159, "\u0120viol": 2160, "\u0120fil": 2161, "\u0120sentido": 2162, "\u00c3\u0143culos": 2163, "\u0120hombre": 2164, "iza": 2165, "\u0120ben": 2166, "\u0120correspon": 2167, "\u0120salud": 2168, "icidad": 2169, "\u0120realizar": 2170, "rera": 2171, "\u0120encontrar": 2172, "\u0120all": 2173, "\u0120Is": 2174, "\u0120conven": 2175, "\u0120medios": 2176, "\u0120haya": 2177, "rar": 2178, "abilidad": 2179, "\u0120fueron": 2180, "\u012025": 2181, "\u0120naveg": 2182, "ir\u00c3\u00a1": 2183, "\u0120a\u00c3\u00b1ad": 2184, "ific": 2185, "enas": 2186, "ind": 2187, "Seg": 2188, "\u0120natural": 2189, "bra": 2190, "\u0120familia": 2191, "\u0120acer": 2192, "jar": 2193, "\u012013": 2194, "\u0120mens": 2195, "\u0120pin": 2196, "\u0120se\u00c3\u00b1al": 2197, "tbol": 2198, "\u0120actual": 2199, "TO": 2200, "\u0120condiciones": 2201, "tonces": 2202, "\u0120dep": 2203, "ik": 2204, "\u0120algunas": 2205, "\u0120mostr": 2206, "\u00c3\u0143c": 2207, "\u0120miem": 2208, "\u0120priv": 2209, "To": 2210, "ck": 2211, "\u0120m\u00c3\u00a1xim": 2212, "esa": 2213, "\u0120comunicaci\u00c3\u00b3n": 2214, "rado": 2215, "\u0120pob": 2216, "ular": 2217, "\u0120recor": 2218, "\u0120fi": 2219, "\u0120Tor": 2220, "\u0120acceso": 2221, "\u0120varios": 2222, "\u0120relaci\u00c3\u00b3n": 2223, "\u0120prem": 2224, "\u0120jun": 2225, "\u0120quiere": 2226, "\u0120largo": 2227, "\u0120obten": 2228, "\u0120Ley": 2229, "\u0120secre": 2230, "ale": 2231, "\u0120tarde": 2232, "inaci\u00c3\u00b3n": 2233, "\u0120ru": 2234, "\u0120opin": 2235, "\u0120entidad": 2236, "\u0120program": 2237, "\u0120apoyo": 2238, "\u0120conver": 2239, "\u0120etc": 2240, "t\u00c3\u00b3r": 2241, "\u0120libro": 2242, "\u0120pel\u00c3\u0143cu": 2243, "istencia": 2244, "fo": 2245, "\u0120norm": 2246, "ender": 2247, "\u0120nov": 2248, "\u0120serie": 2249, "\u0120entrada": 2250, "\u0120\u00c3\u00baltima": 2251, "EL": 2252, "\u0120eleg": 2253, "ital": 2254, "\u0120sos": 2255, "\u0120avan": 2256, "edor": 2257, "\u0120mov": 2258, "enda": 2259, "\u00c3\u00a1nd": 2260, "visi\u00c3\u00b3n": 2261, "\u0120juego": 2262, "ulio": 2263, "op": 2264, "\u0120mano": 2265, "\u0120art\u00c3\u0143culo": 2266, "ger": 2267, "\u0120habr": 2268, "\u0120ES": 2269, "\u0120consul": 2270, "rez": 2271, "\u0120mul": 2272, "\u0120/": 2273, "lex": 2274, "\u0120resto": 2275, "\u0120precio": 2276, "\u0120partici": 2277, "\u0120partidos": 2278, "\u0120f\u00c3\u00a1": 2279, "bas": 2280, "imen": 2281, "\u0120inte": 2282, "\u0120dici": 2283, "\u0120mor": 2284, "daluc": 2285, "si": 2286, "\u0120cuer": 2287, "\u01200": 2288, "curso": 2289, "\u0120obras": 2290, "ic\u00c3\u0143a": 2291, "tagon": 2292, "iernes": 2293, "cter": 2294, "\u0120claro": 2295, "icamente": 2296, "\u0120er": 2297, "ociaci\u00c3\u00b3n": 2298, "\u0120conte": 2299, "reg": 2300, "\u0120comentarios": 2301, "OM": 2302, "\u0120decid": 2303, "\u0120usuarios": 2304, "\u0120EL": 2305, "\u0120direcci\u00c3\u00b3n": 2306, "\u0120fon": 2307, "\u012014": 2308, "\u00c3\u012f": 2309, "ar\u00c3\u0143a": 2310, "\u0120reserv": 2311, "ombres": 2312, "\u0120depor": 2313, "\u0120dinero": 2314, "30": 2315, "\u0120veci": 2316, "\u0120declar": 2317, "tiene": 2318, "ler": 2319, "\u00c3\u00b3p": 2320, "\u0120espa\u00c3\u00b1ola": 2321, "ques": 2322, "\u0120siguiente": 2323, "tiz": 2324, "\u0120calle": 2325, "\u0120encuentra": 2326, "\u0120impl": 2327, "\u0120repro": 2328, "\u0120esti": 2329, "\u00c3\u00a1p": 2330, "\u0120abier": 2331, "ign": 2332, "ienda": 2333, ".-": 2334, "\u0120Q": 2335, "ug": 2336, "\u0120l\u00c3\u0143der": 2337, "\u0120cap": 2338, "\u0120inicia": 2339, "\u0120gen": 2340, "\u0120Ba": 2341, "\u0120sitio": 2342, "\u0120temporada": 2343, "\u0120puedes": 2344, "\u0120oport": 2345, "\u0120espacio": 2346, "\u0120cri": 2347, "\u00c3\u00a9is": 2348, "\u0120Podemos": 2349, "Cuando": 2350, "\u0120edici\u00c3\u00b3n": 2351, "\u0120imagen": 2352, "\u0120deba": 2353, "Seg\u00c3\u00ban": 2354, "\u0120materi": 2355, "\u0120podr\u00c3\u0143a": 2356, "\u0120empez": 2357, "\u0120benef": 2358, "adie": 2359, "eder": 2360, "\u012016": 2361, "eron": 2362, "edades": 2363, "...]": 2364, "\u0120Mar\u00c3\u0143a": 2365, "alizar": 2366, "of": 2367, "igos": 2368, "anas": 2369, "\u0120relacion": 2370, "\u0120cla": 2371, "\u0120lec": 2372, "\u0120Pu": 2373, "\u0120sigue": 2374, "ient": 2375, "\u0120determin": 2376, "\u012024": 2377, "\u0120Los": 2378, "\u0120sac": 2379, "\u0120ocur": 2380, "\u0120noche": 2381, "bros": 2382, "\u0120inclu": 2383, "\u0120investigaci\u00c3\u00b3n": 2384, "ticia": 2385, "\u00c3\u00bc": 2386, "\u0120alguna": 2387, "\u0120campa\u00c3\u00b1a": 2388, "char": 2389, "\u0120conse": 2390, "\u0120p\u00c3\u00bablica": 2391, "tru": 2392, "\u0120protagon": 2393, "trucci\u00c3\u00b3n": 2394, "villa": 2395, "\u0120primero": 2396, "\u0120p\u00c3\u00a1gina": 2397, "\u0120escu": 2398, "bal": 2399, "Est\u00c3\u00a1": 2400, "\u0120ning\u00c3\u00ban": 2401, "\u0120prepar": 2402, "inar": 2403, "\u0120mediante": 2404, "\u0120identi": 2405, "venes": 2406, "\u0120anterior": 2407, "\u0120respecto": 2408, "\u0120sor": 2409, "\u0120energ": 2410, "\u012017": 2411, "\u0120Ra": 2412, "tina": 2413, "\u0120correo": 2414, "\u0120Pr": 2415, "\u0120estudio": 2416, "ili": 2417, "\u0120atra": 2418, "\u0120propio": 2419, "\u0120saber": 2420, "\u0120ofrece": 2421, "OL": 2422, "\u0120acom": 2423, "\u00c3\u00b3vil": 2424, "\u0120pasar": 2425, "ilar": 2426, "19": 2427, "tecci\u00c3\u00b3n": 2428, "erra": 2429, "\u0120dejar": 2430, "izar": 2431, "\u0120gesti\u00c3\u00b3n": 2432, "Ah": 2433, "\u0120medidas": 2434, "illas": 2435, "tia": 2436, "\u0120enfer": 2437, "gn": 2438, "\u0120presid": 2439, "\u0120Po": 2440, "\u0120real": 2441, "\u0120profesionales": 2442, "\u0120Comunidad": 2443, "\u00c3\u0143tulo": 2444, "amb": 2445, "\u0120Pla": 2446, "\u0120Mo": 2447, "bles": 2448, "ional": 2449, "\u0120ries": 2450, "\u00c3\u0143deo": 2451, "tonio": 2452, "\u0120Ac": 2453, "xto": 2454, "\u0120fe": 2455, "tar\u00c3\u00a1": 2456, "aja": 2457, "torial": 2458, "\u0120particular": 2459, "\u0120anunci": 2460, "quis": 2461, "\u0120escrib": 2462, "abr": 2463, "\u0120titu": 2464, "ete": 2465, "\u0120blan": 2466, "\u0120casos": 2467, "\u0120ases": 2468, "\u0120resultados": 2469, "\u0120facil": 2470, "\u0120siglo": 2471, "\u0120sur": 2472, "TI": 2473, "\u0120reconoci": 2474, "\u0120viernes": 2475, "\u0120veh": 2476, "\u0120minutos": 2477, "unes": 2478, "\u0120podemos": 2479, "\u0120apor": 2480, "osa": 2481, "\u0120encar": 2482, "\u0120record": 2483, "rag": 2484, "\u0120modelo": 2485, "\u0120Au": 2486, "\u0120patr": 2487, "\u0120ningun": 2488, "\u0120distr": 2489, "\u0120Luis": 2490, "\u0120evitar": 2491, "ministra": 2492, "val": 2493, "uerra": 2494, "\u0120estr": 2495, "\u0120crisis": 2496, "\u0120m\u00c3\u00basica": 2497, "\u0120aprend": 2498, "\u0120public": 2499, "\u0120\u00c3\u00a9s": 2500, "\u0120exig": 2501, "cend": 2502, "adio": 2503, "\u00c3\u0135N": 2504, "www": 2505, "\u00c3\u00b3venes": 2506, "oven": 2507, "\u0120rel": 2508, "\u0120papel": 2509, "\u0120Cal": 2510, "Hay": 2511, "izquier": 2512, "\u0120posi": 2513, "\u0120tema": 2514, "tadas": 2515, "ende": 2516, "\u0120Por": 2517, "i\u00c3\u00a9n": 2518, "\u0120industr": 2519, "Pue": 2520, "daluc\u00c3\u0143a": 2521, "\u0120Pedro": 2522, "r\u00c3\u0143": 2523, "\u0120gal": 2524, "UN": 2525, "ablo": 2526, "ifica": 2527, "\u0120prohibida": 2528, "\u0120Pre": 2529, "\u0120fo": 2530, "\u0120ocu": 2531, "ase": 2532, "\u0120demo": 2533, "imon": 2534, "\u0120Agencia": 2535, "\u0120Des": 2536, "genes": 2537, "\u0120cuar": 2538, "\u0120rom": 2539, "\u0120imp": 2540, "venci\u00c3\u00b3n": 2541, "\u0120s\u00c3\u00a1": 2542, "\u0120perd": 2543, "ense": 2544, "\u0120modo": 2545, "\u0120Emp": 2546, "\u0120vas": 2547, "\u0120precios": 2548, "\u0120period": 2549, "\u0120divers": 2550, "\u0120dado": 2551, "\u0120prensa": 2552, "isterio": 2553, "Qu\u00c3\u00a9": 2554, "\u0120entonces": 2555, "\u0120disfrutar": 2556, "\u0120Cl": 2557, "forma": 2558, "\u0120constitu": 2559, "\u0120marcha": 2560, "\u0120lan": 2561, "\u0120permite": 2562, "\u0120sesi\u00c3\u00b3n": 2563, "\u0120mater": 2564, "\u0120bal": 2565, "ix": 2566, "\u0120Reg": 2567, "ap": 2568, "\u0120hizo": 2569, "trod": 2570, "eos": 2571, "\u0120excl": 2572, "rido": 2573, "ti\u00c3\u00b3": 2574, "\u0120cuanto": 2575, "\u0120oblig": 2576, "\u0120nuestras": 2577, "\u0120perfec": 2578, "ctubre": 2579, "ancia": 2580, "ueva": 2581, "l\u00c3\u00a9": 2582, "\u0120ellas": 2583, "iado": 2584, "\u0120tenido": 2585, "\u0120tercer": 2586, "\u0120Las": 2587, "\u00c3\u0125": 2588, "\u0120izquier": 2589, "\u0120ten\u00c3\u0143a": 2590, "\u0120incre": 2591, "ducir": 2592, "\u0120cabo": 2593, "culo": 2594, "\u0120ayer": 2595, "\u0120Ro": 2596, "\u0120detal": 2597, "ajoy": 2598, "\u0120resultado": 2599, "emor": 2600, "Pro": 2601, "\u0120Gal": 2602, "\u0120destac": 2603, "\u0120Navarra": 2604, "EC": 2605, "puestas": 2606, "\u0120estamos": 2607, "\u0120media": 2608, "\u0120mayo": 2609, "\u0120recibir": 2610, "ht": 2611, "voca": 2612, "\u0120concre": 2613, "\u0120[...]": 2614, "adoras": 2615, "\u0120Catalu\u00c3\u00b1a": 2616, "ila": 2617, "\u0120junio": 2618, "\u0120presentar": 2619, "ciales": 2620, "\u0120ll": 2621, "\u0120hub": 2622, "iesta": 2623, "\u0120alim": 2624, "\u0120jornada": 2625, "\u0120plazo": 2626, "dica": 2627, "\u0120Go": 2628, "tavo": 2629, "iscal": 2630, "\u0120capacidad": 2631, "ira": 2632, "\u0120j\u00c3\u00b3venes": 2633, "\u0120importantes": 2634, "\u0120edad": 2635, "\u0120coci": 2636, "\u0120cerca": 2637, "\u0120\u00c3\u00banico": 2638, "rio": 2639, "\u0120principales": 2640, "\u0120deten": 2641, "\u0120color": 2642, "\u0120base": 2643, "\u0120ayuda": 2644, "\u0120presu": 2645, "\u0120estra": 2646, "\u0120Press": 2647, "\u0120atenci\u00c3\u00b3n": 2648, "\u0120pueblo": 2649, "mientos": 2650, "\u0120proyectos": 2651, "\u0120seis": 2652, "\u0120tes": 2653, "\u0120principal": 2654, "\u0120espa\u00c3\u00b1oles": 2655, "\u0120curso": 2656, "\u0120aud": 2657, "\u0120domingo": 2658, "\u0120esos": 2659, "onos": 2660, "\u0120caracter": 2661, "\u0120vig": 2662, "\u00c3\u0143tica": 2663, "ministraci\u00c3\u00b3n": 2664, "\u0120envi": 2665, "iano": 2666, "\u0120represen": 2667, "eria": 2668, "\u0120correspond": 2669, "\u0120univers": 2670, "uales": 2671, "\u0120cuen": 2672, "\u0120fac": 2673, "\u0120Serv": 2674, "cionar": 2675, "\u0120internacional": 2676, "\u0120Cul": 2677, "\u0120sens": 2678, "\u0120even": 2679, "\u0120Andaluc\u00c3\u0143a": 2680, "\u0120alg\u00c3\u00ban": 2681, "\u0120llevar": 2682, "ev": 2683, "\u0120desta": 2684, "\u0120ejerci": 2685, "\u00e2\u0122\u0136": 2686, "\u0120propia": 2687, "\u0120Junta": 2688, "\u0120lleva": 2689, "\u0120r\u00c3\u00a1p": 2690, "ental": 2691, "\u0120diciembre": 2692, "turi": 2693, "\u0120Rey": 2694, "\u0120anun": 2695, "\u0120previo": 2696, "\u0120impres": 2697, "ptiembre": 2698, "\u0120Fa": 2699, "\u0120adel": 2700, "\u0120nadie": 2701, "\u0120\u00c3\u00a9x": 2702, "\u0120joven": 2703, "tora": 2704, "\u0120tienes": 2705, "\u0120conseguir": 2706, "Esto": 2707, "ED": 2708, "ile": 2709, "\u0120libre": 2710, "\u0120incor": 2711, "Yo": 2712, "\u0120Jo": 2713, "\u0120tengo": 2714, "\u0120Carlos": 2715, "\u0120sufr": 2716, "or\u00c3\u0143a": 2717, "inal": 2718, "\u012050": 2719, "\u0120necesario": 2720, "\u0120electr\u00c3\u00b3nico": 2721, "\u0120vari": 2722, "estiv": 2723, "\u0120disposici\u00c3\u00b3n": 2724, "toral": 2725, "\u0120resta": 2726, "\u0120acced": 2727, "nov": 2728, "onas": 2729, "\u0120compa\u00c3\u00b1\u00c3\u0143a": 2730, "\u0120Congreso": 2731, "\u00c3\u00baa": 2732, "ecen": 2733, "\u0120sign": 2734, "\u0120hos": 2735, "\u0120democ": 2736, "\u0120do": 2737, "\u0120dijo": 2738, "\u0120Valencia": 2739, "are": 2740, "torno": 2741, "\u0120Antonio": 2742, "cto": 2743, "line": 2744, "\u0120plante": 2745, "mail": 2746, "Tras": 2747, "\u0120septiembre": 2748, "\u0120hist\u00c3\u00b3r": 2749, "ueves": 2750, "ches": 2751, "\u0120encan": 2752, "\u0120grupos": 2753, "\u0120alter": 2754, "\u0120Garc\u00c3\u0143a": 2755, "\u0120Sa": 2756, "\u0120cierto": 2757, "\u0120Pe": 2758, "\u0120varias": 2759, "\u0120Pal": 2760, "\u0120hacen": 2761, "t\u00c3\u00a9": 2762, "10": 2763, "\u0120tendr\u00c3\u00a1": 2764, "viembre": 2765, "\u0120empleo": 2766, "\u0120creo": 2767, "Le": 2768, "\u0120octubre": 2769, "\u0120campo": 2770, "dico": 2771, "\u0120pueda": 2772, "\u0120luego": 2773, "eric": 2774, "\u0120alta": 2775, "tino": 2776, "\u0120visto": 2777, "\u0120acompa\u00c3\u00b1": 2778, "\u0120s\u00c3\u00a1bado": 2779, "jero": 2780, "\u00c3\u00a1ndez": 2781, "\u0120Unidos": 2782, "umo": 2783, "\u0120Estados": 2784, "\u0120Direc": 2785, "\u0120consenti": 2786, "crib": 2787, "\u0120presenta": 2788, "Todos": 2789, "\u0120profesional": 2790, "itan": 2791, "Ya": 2792, "\u00c3\u0143stica": 2793, "\u0120respe": 2794, "\u0120informa": 2795, "isla": 2796, "\u0120lunes": 2797, "chas": 2798, "\u0120volver": 2799, "\u0120localidad": 2800, "torios": 2801, "\u0120inter\u00c3\u00a9s": 2802, "\u0120f\u00c3\u00a1cil": 2803, "\u0120alcald": 2804, "dap": 2805, "\u0120jur": 2806, "\u0120ado": 2807, "Entre": 2808, "jes": 2809, "\u0120fundam": 2810, "\u0120contenido": 2811, "\u0120edif": 2812, "\u0120verano": 2813, "\u0120pesar": 2814, "ke": 2815, "\u0120emple": 2816, "\u0120redes": 2817, "t\u00c3\u0143a": 2818, "iguel": 2819, "\u0120t\u00c3\u00a9cnico": 2820, "\u0120vir": 2821, "\u0120br": 2822, "\u0120pud": 2823, "ardia": 2824, "UR": 2825, "\u0120clientes": 2826, "Te": 2827, "\u00c3\u0143cti": 2828, "cionado": 2829, "\u0120Igles": 2830, "\u0120Mart\u00c3\u0143n": 2831, "\u0120Col": 2832, "fil": 2833, "\u0120mir": 2834, "\u0120idea": 2835, "\u0120ata": 2836, "\u0120gusta": 2837, "\u0120julio": 2838, "\u0120ciudadanos": 2839, "\u00c3\u012b": 2840, "\u0120presente": 2841, "\u0120apoy": 2842, "PA": 2843, "\u0120conjunto": 2844, "\u0120Jav": 2845, "\u0120tri": 2846, "tales": 2847, "\u0120100": 2848, "\u0120vic": 2849, "lamento": 2850, "\u0120CON": 2851, "\u0120marca": 2852, "\u0120trabajadores": 2853, "\u0120hablar": 2854, "\u0120Santa": 2855, "\u0120enferm": 2856, "\u0120amor": 2857, "\u0120ofici": 2858, "\u0120ofrecer": 2859, "CION": 2860, "\u0120+": 2861, "oro": 2862, "\u0120recl": 2863, "\u0120Social": 2864, "\u0120incorpor": 2865, "\u0120pasa": 2866, "\u012021": 2867, "\u01202018": 2868, "\u0120neg": 2869, "\u0120consentimiento": 2870, "\u0120queda": 2871, "ideo": 2872, "ting": 2873, "\u0120l\u00c3\u0143nea": 2874, "\u0120libertad": 2875, "au": 2876, "__": 2877, "mbi": 2878, "\u0120podr\u00c3\u00a1": 2879, "\u0120To": 2880, "\u0120Ter": 2881, "\u0120participaci\u00c3\u00b3n": 2882, "\u0120m\u00c3\u0143n": 2883, "Ahora": 2884, "\u0120seman": 2885, "ober": 2886, "\u0120encuentro": 2887, "\u0120estre": 2888, "\u0120Bo": 2889, "\u0120expresamente": 2890, "taria": 2891, "\u00c3\u0143sticas": 2892, "\u0120\u00c2\u00a1": 2893, "Ar": 2894, "fe": 2895, "\u0120primeros": 2896, "ema": 2897, "\u01202017": 2898, "mon": 2899, "\u0120posibilidad": 2900, "ordin": 2901, "mentos": 2902, "itario": 2903, "\u0120perman": 2904, "gl": 2905, "\u0120muestra": 2906, "\u0120organizaci\u00c3\u00b3n": 2907, "\u0120cantidad": 2908, "ilidades": 2909, "\u0120elem": 2910, "Ref": 2911, "\u0120ib": 2912, "unal": 2913, "\u0120IN": 2914, "\u0120provincia": 2915, "olo": 2916, "\u0120Centro": 2917, "\u0120proces": 2918, "\u0120quienes": 2919, "\u0120usuario": 2920, "\u0120descar": 2921, "\u0120v\u00c3\u0143cti": 2922, "\u0120acto": 2923, "\u0120terri": 2924, "\u0120adap": 2925, "\u0120acus": 2926, "IO": 2927, "duca": 2928, "\u0120ide": 2929, "\u0120muerte": 2930, "irse": 2931, "\u0120olv": 2932, "\u0120conce": 2933, "elos": 2934, "\u0120m\u00c3\u00b3vil": 2935, "\u0120integr": 2936, "\u0120medida": 2937, "\u0120Ban": 2938, "\u0120cuerpo": 2939, "M\u00c3\u00a1s": 2940, "\u0120palabras": 2941, "\u0120Mor": 2942, "\u0120producto": 2943, "\u0120miembros": 2944, "ural": 2945, "\u0120doc": 2946, "\u0120D\u00c3\u0143a": 2947, "\u0120Castilla": 2948, "\u0120marzo": 2949, "\u0120tuvo": 2950, "omas": 2951, "\u0120Tur": 2952, "idar": 2953, "\u0120acog": 2954, "\u0120t\u00c3\u00a9r": 2955, "\u0120respuesta": 2956, "\u0120pic": 2957, "eja": 2958, "\u0120local": 2959, "rac": 2960, "\u00c3\u0143amos": 2961, "AM": 2962, "\u0120tom": 2963, "\u0120\u00c3\u00a1mbi": 2964, "aro": 2965, "\u0120Ministerio": 2966, "\u0120abril": 2967, "\u0120ser\u00c3\u0143a": 2968, "\u0120Plan": 2969, "\u0120pol\u00c3\u0143ticos": 2970, "\u0120plata": 2971, "\u0120noviembre": 2972, "\u0120dif\u00c3\u0143": 2973, "\u0120aplicaci\u00c3\u00b3n": 2974, "\u0120concl": 2975, "\u0120todav\u00c3\u0143a": 2976, "\u0120kil": 2977, "\u0120siguientes": 2978, "\u0120participar": 2979, "\u0120Sevilla": 2980, "tion": 2981, "gr\u00c3\u00a1f": 2982, "\u0120elim": 2983, "\u0120elabor": 2984, "ient\u00c3\u0143f": 2985, "\u0120luz": 2986, "\u0120pol\u00c3\u0143tico": 2987, "\u0120Mer": 2988, "\u0120esf": 2989, "\u0120Rajoy": 2990, "\u0120jueves": 2991, "\u0120tradi": 2992, "\u0120responsable": 2993, "\u0120centros": 2994, "brero": 2995, "\u0120resid": 2996, "\u0120comien": 2997, "\u0120Consejo": 2998, "z\u00c3\u00b3": 2999, "prend": 3000, "\u0120dipu": 3001, "\u0120auton": 3002, "rupo": 3003, "\u0120fel": 3004, "\u0120vista": 3005, "\u0120carrera": 3006, "\u00c2\u00bb.": 3007, "tividad": 3008, "\u0120mejorar": 3009, "\u0120m\u00c3\u0143": 3010, "'.": 3011, "\u0120And": 3012, "\u0120cad": 3013, "\u0120len": 3014, "\u0120mantener": 3015, "\u0120alumnos": 3016, "ka": 3017, "ramien": 3018, "\u0120contacto": 3019, "\u0120pel\u00c3\u0143cula": 3020, "\u0120ser\u00c3\u00a1n": 3021, "\u0120enfr": 3022, "fica": 3023, "su": 3024, "Hoy": 3025, "\u0120colaboraci\u00c3\u00b3n": 3026, "\u0120entren": 3027, "\u0120lista": 3028, "\u00c3\u00b3d": 3029, "\u0120cabeza": 3030, "alizado": 3031, "\u00c2\u00bb,": 3032, "\u0120decisi\u00c3\u00b3n": 3033, "\u0120fecha": 3034, "ecre": 3035, "\u0120existen": 3036, "guien": 3037, "\u0120conserv": 3038, "onz": 3039, "\u0120deman": 3040, "\u0120riesgo": 3041, "\u0120destin": 3042, "\u0120poc": 3043, "\u0120presencia": 3044, "\u0120ub": 3045, "\u0120Cris": 3046, "\u0120recursos": 3047, "\u0120cargo": 3048, "\u0120asegu": 3049, "\u0120menor": 3050, "\u0120sir": 3051, "\u00c3\u00batbol": 3052, "eda": 3053, "\u0120Civil": 3054, "\u0120haciendo": 3055, "\u0120camino": 3056, "\u0120Mus": 3057, "\u0120mayores": 3058, "talla": 3059, "\u0120gratis": 3060, "\u0120cosa": 3061, "arlo": 3062, "vista": 3063, "torias": 3064, "Res": 3065, "\u0120\u00c3\u00a9xito": 3066, "formaci\u00c3\u00b3n": 3067, "\u0120alto": 3068, "\u0120alcalde": 3069, "alo": 3070, "\u0120hom": 3071, "\u0120aquellos": 3072, "rab": 3073, "taron": 3074, "vech": 3075, "\u00c3\u00a1cter": 3076, "\u0120crear": 3077, "\u0120Cu": 3078, "\u0120atr": 3079, "\u0120impul": 3080, "\u0120club": 3081, "\u0120dom": 3082, "undaci\u00c3\u00b3n": 3083, "Nos": 3084, "\u01202016": 3085, "coles": 3086, "enos": 3087, "\u0120duda": 3088, "ruz": 3089, "\u012022": 3090, "ela": 3091, "\u0120cine": 3092, "\u0120ninguna": 3093, "\u0120oficial": 3094, "jus": 3095, "oco": 3096, "bro": 3097, "\u0120comunidad": 3098, "\u0120sean": 3099, "Ex": 3100, "\u0120car\u00c3\u00a1cter": 3101, "di\u00c3\u00b3": 3102, "\u0120bol": 3103, "\u0120espera": 3104, "\u0120versi\u00c3\u00b3n": 3105, "\u0120pron": 3106, "\u0120enero": 3107, "\u0120199": 3108, "\u0120Ale": 3109, "iblio": 3110, "\u0120poten": 3111, "\u0120solu": 3112, "\u0120seguro": 3113, "igue": 3114, "lez": 3115, "\u0120Trib": 3116, "\u0120pol\u00c3\u0143ticas": 3117, "\u0120env": 3118, "\u0120poblaci\u00c3\u00b3n": 3119, "ci\u00c3\u00b3": 3120, "\u0120digital": 3121, "\u0120metros": 3122, "\u0120interna": 3123, "tivamente": 3124, "\u0120gratu": 3125, "istribuci\u00c3\u00b3n": 3126, "\u0120amigos": 3127, "cisco": 3128, "\u00c3\u00a1lisis": 3129, "\u0120comb": 3130, "\u0120expreso": 3131, "\u0120Her": 3132, "ut": 3133, "turales": 3134, "cados": 3135, "\u0120puesta": 3136, "teriores": 3137, "\u0120necesidad": 3138, "imonio": 3139, "pan": 3140, "enso": 3141, "trodu": 3142, "\u0120Rod": 3143, "\u012040": 3144, "\u0120cultura": 3145, "iendas": 3146, "cima": 3147, "\u0120hombres": 3148, "\u0120incluy": 3149, "\u0120trabajar": 3150, "via": 3151, "\u0120Pablo": 3152, "\u0120ense": 3153, "\u0120Miguel": 3154, "\u0120madre": 3155, "\u0120extre": 3156, "estival": 3157, "\u0120adecu": 3158, "\u0120mucha": 3159, "irmado": 3160, "echo": 3161, "CO": 3162, "\u0120propor": 3163, "tiendo": 3164, "\u0120corr": 3165, "\u0120pis": 3166, "\u0120preocu": 3167, "\u0120arte": 3168, "\u0120interior": 3169, "Cons": 3170, "\u0120Institu": 3171, "\u0120Mu": 3172, "Aunque": 3173, "\u0120Ind": 3174, "\u0120visita": 3175, "\u0120est\u00c3\u00a9": 3176, "\u0120temas": 3177, "bier": 3178, "cam": 3179, "\u00c2\u00ab": 3180, "\u00c3\u00a9m": 3181, "200": 3182, "\u00c3\u00a1ndo": 3183, "\u0120artis": 3184, "\u0120herramien": 3185, "\u00c3\u00b3nica": 3186, "\u0120viene": 3187, "\u0120demos": 3188, "\u0120\u00c3\u00banica": 3189, "\u0120gr": 3190, "\u0120asegura": 3191, "uelo": 3192, "\u0120jud": 3193, "ifusi\u00c3\u00b3n": 3194, "\u0120acon": 3195, "\u0120deben": 3196, "\u0120categ": 3197, "illos": 3198, "\u0120agu": 3199, "\u0120previs": 3200, "ter\u00c3\u0143a": 3201, "\u0120Polic\u00c3\u0143a": 3202, "\u00c3\u00a9rcoles": 3203, "iro": 3204, "book": 3205, "\u0120im\u00c3\u00a1": 3206, "\u0120paci": 3207, "teca": 3208, "\u0120Internet": 3209, "\u0120aband": 3210, "Portal": 3211, "\u0120salida": 3212, "tender": 3213, "\u0120Comun": 3214, "uerto": 3215, "\u0120hijos": 3216, "\u0120Manuel": 3217, "\u0120dise\u00c3\u00b1o": 3218, "\u0120dob": 3219, "imientos": 3220, "\u0120oferta": 3221, "\u0120especialmente": 3222, "pr": 3223, "oso": 3224, "\u0120busc": 3225, "\u0120redistribuci\u00c3\u00b3n": 3226, "\u0120Espa\u00c3\u00b1ol": 3227, "\u0120competi": 3228, "acci\u00c3\u00b3n": 3229, "\u0120Mur": 3230, "ese": 3231, "\u0120violencia": 3232, "\u0120propuesta": 3233, "tavoz": 3234, "\u0120puedan": 3235, "r\u00c3\u0143a": 3236, "tarse": 3237, "EM": 3238, "iencias": 3239, "\u0120comprom": 3240, "\u0120martes": 3241, "\u0120Europea": 3242, "\u0120sencil": 3243, "\u0120im\u00c3\u00a1genes": 3244, "tar\u00c3\u0143a": 3245, "\u0120aire": 3246, "IT": 3247, "\u0120recuer": 3248, "\u0120t\u00c3\u00a9rmin": 3249, "CI\u00c3\u0135N": 3250, "ivos": 3251, "\u0120produ": 3252, "mite": 3253, "\u0120pier": 3254, "\u0120estruc": 3255, "\u0120num": 3256, "\u0120moder": 3257, "\u0120vamos": 3258, "50": 3259, "itada": 3260, "\u0120f\u00c3\u0143s": 3261, "gosto": 3262, "\u0120usted": 3263, "\u0120vecinos": 3264, "ly": 3265, "\u0120Gonz": 3266, "\u0120Qu": 3267, "we": 3268, "olver": 3269, "\u0120redifusi\u00c3\u00b3n": 3270, "\u0120trad": 3271, "entemente": 3272, "ivid": 3273, "ierra": 3274, "\u0120ciento": 3275, "mad": 3276, "uras": 3277, "idores": 3278, "\u012028": 3279, "bilidad": 3280, "edores": 3281, "\u0120leer": 3282, "CA": 3283, "\u0120\u00c3\u00a1rea": 3284, "lad": 3285, "\u0120esca": 3286, "\u0120econ\u00c3\u00b3mica": 3287, "itado": 3288, "\u0120guerra": 3289, "ical": 3290, "Mu": 3291, "\u0120d\u00c3\u00a9": 3292, "\u0120laboral": 3293, "\u0120dem\u00c3\u00a1s": 3294, "\u0120garanti": 3295, "\u0120creaci\u00c3\u00b3n": 3296, "\u0120llega": 3297, "\u0120UN": 3298, "\u0120ah\u00c3\u0143": 3299, "\u0120registrado": 3300, "iedo": 3301, "\u0120prueba": 3302, "one": 3303, "var": 3304, "\u0120Twitter": 3305, "\u0120descon": 3306, "\u0120consecu": 3307, "\u0120directo": 3308, "\u0120volun": 3309, "itat": 3310, "\u0120pen": 3311, "\u0120ambos": 3312, "\u0120debate": 3313, "\u0120\\": 3314, "\u0120DEL": 3315, "\u0120Internacional": 3316, "aliza": 3317, "\u0120esas": 3318, "vin": 3319, "Ma": 3320, "\u0120alguien": 3321, "\u0120derecha": 3322, "\u0120manifes": 3323, "\u0120recuper": 3324, "\u0120recomend": 3325, "\u0120agrad": 3326, "partam": 3327, "\u0120pelig": 3328, "\u0120manos": 3329, "\u0120Educaci\u00c3\u00b3n": 3330, "siones": 3331, "Todo": 3332, "\u0120dif\u00c3\u0143cil": 3333, "\u00e2\u0124": 3334, "\u0120concier": 3335, "\u0120vend": 3336, "\u00e2\u0124\u00ac": 3337, "\u00c3\u00a1tico": 3338, "\u0120cambiar": 3339, "ianza": 3340, "itaci\u00c3\u00b3n": 3341, "CH": 3342, "\u0120entorno": 3343, "bria": 3344, "Par": 3345, "ticamente": 3346, "\u0120Ej": 3347, "\u0120convoca": 3348, "\u0120podr\u00c3\u00a1n": 3349, "\u0120explica": 3350, "\u0120Ur": 3351, "\u0120supone": 3352, "\u0120coleg": 3353, "\u0120contar": 3354, "\u0120Seg": 3355, "\u0120opini\u00c3\u00b3n": 3356, "\u0120Fundaci\u00c3\u00b3n": 3357, "\u0120consum": 3358, "\u0120aprob": 3359, "\u0120t\u00c3\u0143tulo": 3360, "imismo": 3361, "taba": 3362, "\u0120informe": 3363, "\u0120mi\u00c3\u00a9rcoles": 3364, "\u0120dese": 3365, "\u0120diez": 3366, "\u0120escen": 3367, "\u0120educa": 3368, "\u0120eran": 3369, "\u0120aprovech": 3370, "\u0120defini": 3371, "\u0120dud": 3372, "\u0120Ciudadanos": 3373, "\u0120equipos": 3374, "Mar": 3375, "\u0120emo": 3376, "\u0120suced": 3377, "\u0120bastante": 3378, "\u0120iniciativa": 3379, "\u00c3\u00a1mara": 3380, "\u0120materia": 3381, "\u0120bueno": 3382, "\u00c3\u00a9l": 3383, "\u0120Lo": 3384, "\u0120P\u00c3\u00babl": 3385, "\u0120oposici\u00c3\u00b3n": 3386, "\u0120Ha": 3387, "laga": 3388, "itaria": 3389, "\u0120Dipu": 3390, "Car": 3391, "\u0120mismos": 3392, "iles": 3393, "\u0120estoy": 3394, "\u0120fotos": 3395, "\u012026": 3396, "\u0120padres": 3397, "OD": 3398, "\u0120grand": 3399, "\u0120v\u00c3\u0143a": 3400, "\u0120Le\u00c3\u00b3n": 3401, "\u0120precis": 3402, "\u00c3\u0143do": 3403, "\u00c3\u0143stico": 3404, "pir": 3405, "\u0120az": 3406, "\u0120opera": 3407, "\u0120demostr": 3408, "\u0120exclus": 3409, "\u0120contemp": 3410, "\u0120Ho": 3411, "\u012023": 3412, "http": 3413, "racia": 3414, "\u0120provoc": 3415, "izado": 3416, "\u0120terc": 3417, "rig": 3418, "\u0120acci\u00c3\u00b3n": 3419, "\u0120lid": 3420, "ecido": 3421, "\u0120concep": 3422, "estion": 3423, "\u0120educaci\u00c3\u00b3n": 3424, "\u0120izquierda": 3425, "\u0120Ne": 3426, "\u0120reproducci\u00c3\u00b3n": 3427, "\u0120\u00c3\u00a9po": 3428, "\u0120defensa": 3429, "\u0120estudios": 3430, "\u0120semanas": 3431, "\u00c3\u00a9ctr": 3432, "\u0120correc": 3433, "\u0120simple": 3434, "graf\u00c3\u0143a": 3435, "\u00c3\u00b3pez": 3436, "\u0120beb": 3437, "tabria": 3438, "\u0120Res": 3439, "\u0120civil": 3440, "\u0120fabr": 3441, "\u0120s\u00c3\u00a9": 3442, "\u00c3\u00a1ndose": 3443, "Pre": 3444, "\u0120importancia": 3445, "\u0120permitir": 3446, "\u0120p\u00c3\u00bablicos": 3447, "\u00c3\u00b3me": 3448, "\u0120fuerza": 3449, "lares": 3450, "\u0120libros": 3451, "tida": 3452, "onso": 3453, "dem": 3454, "\u0120coche": 3455, "\u0120hotel": 3456, "Dis": 3457, "\u0120disposi": 3458, "\u0120bel": 3459, "logo": 3460, "cebook": 3461, "\u0120recha": 3462, "ique": 3463, "\u0120Mundial": 3464, "\u0120Ja": 3465, "\u0120Francisco": 3466, "amientos": 3467, "todo": 3468, "\u0120video": 3469, "\u0120absolu": 3470, "\u0120sed": 3471, "racias": 3472, "\u0120cient\u00c3\u0143f": 3473, "\u0120motivo": 3474, "\u0120ganar": 3475, "\u0120sabe": 3476, "guez": 3477, "\u0120cif": 3478, "\u0120popular": 3479, "\u0120individ": 3480, "\u00e2\u0122\u00a2": 3481, "vela": 3482, "\u0120salir": 3483, "\u0120zonas": 3484, "ian": 3485, "\u0120texto": 3486, "\u0120jugar": 3487, "\u0120apues": 3488, "gada": 3489, "Ten": 3490, "\u0120producci\u00c3\u00b3n": 3491, "\u0120pone": 3492, "lic": 3493, "\u00c3\u00a9rica": 3494, "\u0120Asociaci\u00c3\u00b3n": 3495, "\u0120Ben": 3496, "fes": 3497, "\u0120comentario": 3498, "\u0120Me": 3499, "\u0120Jes": 3500, "\u0120pretend": 3501, "\u0120LOS": 3502, "ws": 3503, "\u0120terror": 3504, "\u0120tomar": 3505, "\u0120antigu": 3506, "\u0120relig": 3507, "\u0120norma": 3508, "\u0120m\u00c3\u00a1ximo": 3509, "\u0120esfuer": 3510, "\u0120enla": 3511, "\u0120municipal": 3512, "\u0120Grupo": 3513, "jal": 3514, "cripci\u00c3\u00b3n": 3515, "ciona": 3516, "VA": 3517, "gre": 3518, "endas": 3519, "\u0120sufici": 3520, "\u0120pul": 3521, "icante": 3522, "\u00c3\u00a1laga": 3523, "\u0120acceder": 3524, "\u0120cic": 3525, "\u0120tecnolog\u00c3\u0143a": 3526, "ngel": 3527, "ogle": 3528, "\u0120oportunidad": 3529, "\u0120Bil": 3530, "\u0120superior": 3531, "\u0120ren": 3532, "\u0120padre": 3533, "\u0120debido": 3534, "\u0120existe": 3535, "\u0120portavoz": 3536, "\u0120b\u00c3\u00a1s": 3537, "\u0120presentaci\u00c3\u00b3n": 3538, "\u0120observ": 3539, "\u0120rod": 3540, "\u0120denunci": 3541, "\u0120dedic": 3542, "\u0120opci\u00c3\u00b3n": 3543, "uncia": 3544, "\u0120encima": 3545, "tamientos": 3546, "\u0120construcci\u00c3\u00b3n": 3547, "\u0120principio": 3548, "\u0120\u00c3\u00a1mbito": 3549, "Son": 3550, "\u0120interpre": 3551, "poner": 3552, "ican": 3553, "\u0120efectos": 3554, "ines": 3555, "\u0120origen": 3556, "udo": 3557, "\u0120pide": 3558, "\u0120somos": 3559, "titud": 3560, "tiago": 3561, "este": 3562, "\u0120utilizar": 3563, "\u0120agosto": 3564, "\u0120recono": 3565, "\u0120\u00c3\u00baltimas": 3566, "\u0120viaje": 3567, "\u0120soy": 3568, "\u0120impa": 3569, "\u0120perten": 3570, "\u0120considera": 3571, "\u0120realizado": 3572, "\u0120febrero": 3573, "\u0120innov": 3574, "\u0120necesidades": 3575, "\u0120momentos": 3576, "CE": 3577, "\u0120deja": 3578, "\u0120L\u00c3\u00b3pez": 3579, "mer": 3580, "elas": 3581, "\u0120compra": 3582, "\u0120demas": 3583, "\u0120busca": 3584, "her": 3585, "\u0120buscar": 3586, "ald": 3587, "\u0120fuerte": 3588, "\u0120Javier": 3589, "\u0120blo": 3590, "12": 3591, "Cas": 3592, "\u0120vin": 3593, "\u0120ingres": 3594, "\u0120dan": 3595, "\u0120administra": 3596, "Durante": 3597, "\u0120Casa": 3598, "\u0120crecimiento": 3599, "\u0120negocio": 3600, "icada": 3601, "\u01202010": 3602, "\u00c3\u00a9di": 3603, "\u0120plaza": 3604, "ificar": 3605, "\u0120perder": 3606, "an\u00c3\u0143a": 3607, "\u0120Ol": 3608, "\u0120online": 3609, "\u0120conduc": 3610, "\u0120tratamiento": 3611, "\u0120reno": 3612, "\u0120instalaciones": 3613, "tituci\u00c3\u00b3n": 3614, "\u0120inmedia": 3615, "\u0120electoral": 3616, "mpoco": 3617, "encial": 3618, "\u0120hacerlo": 3619, "\u0120hijo": 3620, "\u0120Sol": 3621, "\u0120reuni\u00c3\u00b3n": 3622, "\u0120noticia": 3623, "\u00c3\u00b3l": 3624, "\u0120dise\u00c3\u00b1": 3625, "ri\u00c3\u00b3": 3626, "\u0120Fern\u00c3\u00a1ndez": 3627, "\u0120bon": 3628, "\u0120econom\u00c3\u0143a": 3629, "\u0120estilo": 3630, "\u00c3\u00a1lez": 3631, "\u00c3\u0133": 3632, "\u0120cambios": 3633, "apa": 3634, "arago": 3635, "\u0120baja": 3636, "adamente": 3637, "\u0120siete": 3638, "\u0120cob": 3639, "\u0120funciones": 3640, "\u0120pagar": 3641, "\u0120econ\u00c3\u00b3mico": 3642, "\u0120lucha": 3643, "\u0120nota": 3644, "\u0120amena": 3645, "\u0120protecci\u00c3\u00b3n": 3646, "\u0120Pas": 3647, "\u0120Comisi\u00c3\u00b3n": 3648, "remos": 3649, "\u0120identif": 3650, "\u0120necesita": 3651, "\u0120v\u00c3\u0143deo": 3652, "rump": 3653, "\u0120>": 3654, "\u0120ofrec": 3655, "tron": 3656, "\u0120ense\u00c3\u00b1": 3657, "\u0120ejecu": 3658, "\u0120celebra": 3659, "\u0120supuesto": 3660, "\u0120estrateg": 3661, "arte": 3662, "usk": 3663, "\u0120SE": 3664, "\u01202011": 3665, "\u0120programas": 3666, "San": 3667, "\u00c3\u00a9nero": 3668, "\u0120obtener": 3669, "Pu": 3670, "\u0120consumo": 3671, "capa": 3672, "iel": 3673, "\u0120disco": 3674, "\u0120prob": 3675, "US": 3676, "\u0120vuelta": 3677, "\u0120perm": 3678, "\u0120responsabilidad": 3679, "\u01202019": 3680, "\u0120investig": 3681, "\u0120pil": 3682, "\u0120tampoco": 3683, "\u0120apun": 3684, "\u0120hab\u00c3\u0143an": 3685, "\u0120trabajos": 3686, "\u01202015": 3687, "\u0120tel\u00c3\u00a9": 3688, "\u0120acciones": 3689, "ins": 3690, "\u0120sosten": 3691, "Sus": 3692, "quitec": 3693, "\u0120significa": 3694, "\u0120Uni\u00c3\u00b3n": 3695, "\u0120tel\u00c3\u00a9f": 3696, "\u0120propi": 3697, "\u0120fem": 3698, "\u0120familias": 3699, "cidente": 3700, "\u0120vivienda": 3701, "ampl": 3702, "\u0120Der": 3703, "jud": 3704, "\u0120material": 3705, "\u0120cliente": 3706, "ezas": 3707, "\u0120Fer": 3708, "ps": 3709, "\u0120His": 3710, "\u0120com\u00c3\u00ban": 3711, "\u0120Vic": 3712, "\u0120pers": 3713, "\u0120Prem": 3714, "zan": 3715, "tidos": 3716, "\u0120alterna": 3717, "antil": 3718, "\u0120aver": 3719, "\u0120Ver": 3720, "\u0120peque\u00c3\u00b1o": 3721, "dalu": 3722, "ARA": 3723, "\u0120cris": 3724, "\u0120has": 3725, "\u0120cocina": 3726, "\u0120estrel": 3727, "aya": 3728, "\u0120fra": 3729, "\u0120an\u00c3\u00a1lisis": 3730, "\u0120escrito": 3731, "\u0120C\u00c3\u00a1": 3732, "pol": 3733, "\u0120referencia": 3734, "\u0120constru": 3735, "orme": 3736, "lamentar": 3737, "\u0120tran": 3738, "quiler": 3739, "\u0120Ru": 3740, "\u0120all\u00c3\u0143": 3741, "\u0120desapar": 3742, "\u0120tram": 3743, "\u0120norte": 3744, "\u0120acud": 3745, "ciaciones": 3746, "\u0120tierra": 3747, "\u0120email": 3748, "\u0120central": 3749, "teles": 3750, "tarios": 3751, "\u0120Super": 3752, "teras": 3753, "\u0120ejercicio": 3754, "\u0120x": 3755, "TR": 3756, "\u0120funci\u00c3\u00b3n": 3757, "er\u00c3\u00a1": 3758, "\u0120sorprend": 3759, "iere": 3760, "alu": 3761, "ko": 3762, "ic\u00c3\u00b3": 3763, "\u0120distintos": 3764, "Di": 3765, "\u0120jugadores": 3766, "vers": 3767, "\u0120Econ": 3768, "ner": 3769, "\u0120f\u00c3\u00batbol": 3770, "\u0120fuentes": 3771, "\u0120el\u00c3\u00a9ctr": 3772, "\u0120Tribunal": 3773, "\u0120causa": 3774, "queda": 3775, "\u0120dio": 3776, "\u0120premio": 3777, "itad": 3778, "\u012027": 3779, "iales": 3780, "\u0120Lib": 3781, "\u0120ministro": 3782, "DE": 3783, "\u0120proteg": 3784, "\u0120Cab": 3785, "QU": 3786, "\u0120\u00c3\u00a9poca": 3787, "\u0120locales": 3788, ".,": 3789, "\u0120dev": 3790, "\u0120recog": 3791, "\u0120energ\u00c3\u0143a": 3792, "\u0120suel": 3793, "alidades": 3794, "\u0120clave": 3795, "onda": 3796, "\u0120convertir": 3797, "\u0120Gonz\u00c3\u00a1lez": 3798, "IM": 3799, "\u0120mundial": 3800, "\u0120alma": 3801, "\u0120Univers": 3802, "desa": 3803, "entro": 3804, "\u0120entidades": 3805, "\u0120sum": 3806, "\u0120conocimiento": 3807, "\u0120pid": 3808, "ij": 3809, "\u0120Cultura": 3810, "menes": 3811, "\u0120ocasiones": 3812, "uridad": 3813, "\u0120Vil": 3814, "\u0120celeb": 3815, "\u0120crea": 3816, "!!!": 3817, "\u0120dura": 3818, "\u0120CU": 3819, "pia": 3820, "Gracias": 3821, "idor": 3822, "\u0120ambiente": 3823, "umen": 3824, "IB": 3825, "jeros": 3826, "ick": 3827, "\u0120\u00c3\u0123ngel": 3828, "aragoza": 3829, "alla": 3830, "\u0120desarrollar": 3831, "\u0120Cantabria": 3832, "\u0120Feder": 3833, "\u0120descubr": 3834, "\u0120raz": 3835, "\u0120Partido": 3836, "\u0120grande": 3837, "LE": 3838, "sas": 3839, "\u0120tenga": 3840, "\u0120falle": 3841, "\u0120cr\u00c3\u0143": 3842, "\u0120monta": 3843, "reas": 3844, "\u0120distintas": 3845, "\u0120exposici\u00c3\u00b3n": 3846, "\u0120glo": 3847, "\u0120Jus": 3848, "alizada": 3849, "\u0120mitad": 3850, "ICA": 3851, "\u0120hechos": 3852, "\u0120inversi\u00c3\u00b3n": 3853, "ag": 3854, "\u0120compromiso": 3855, "\u0120Ber": 3856, "caciones": 3857, "\u0120quin": 3858, "\u0120avis": 3859, "\u0120vivir": 3860, "\u0120Red": 3861, "\u0120fir": 3862, "recu": 3863, "\u0120\u00c3\u00b3r": 3864, "gl\u00c3\u00a9s": 3865, "\u0120ens": 3866, "avid": 3867, "Nues": 3868, "iestas": 3869, "\u0120dia": 3870, "\u0120declara": 3871, "\u0120entrega": 3872, "\u0120Francia": 3873, "tana": 3874, "\u0120posici\u00c3\u00b3n": 3875, "\u0120Ram": 3876, "c\u00c3\u00a9s": 3877, "culos": 3878, "\u0120convoc": 3879, "\u0120Asturi": 3880, "\u0120negoci": 3881, "\u0120actuaci\u00c3\u00b3n": 3882, "\u0120clase": 3883, "\u0120clases": 3884, "11": 3885, "\u0120QUE": 3886, "\u0120numeros": 3887, "\u0120sistemas": 3888, "\u0120gri": 3889, "Rec": 3890, "\u0120presentado": 3891, "emoria": 3892, "IEN": 3893, "\u0120cultural": 3894, "\u0120Prim": 3895, "\u0120concen": 3896, "\u0120arch": 3897, "\u0120diario": 3898, "\u0120desarroll": 3899, "\u0120victoria": 3900, "igura": 3901, "\u0120Cos": 3902, "entis": 3903, "\u0120lig": 3904, "\u0120quieren": 3905, "\u0120incluye": 3906, "\u0120contrario": 3907, "\u0120M\u00c3\u00a9": 3908, "paci\u00c3\u00b3n": 3909, "\u0120sede": 3910, "\u00c2\u0143": 3911, "\u0120raz\u00c3\u00b3n": 3912, "\u0120Loc": 3913, "\u0120habr\u00c3\u00a1": 3914, "\u0120mol": 3915, "ierte": 3916, "\u0120Aud": 3917, "\u0120fondo": 3918, "vieron": 3919, "ieran": 3920, "ella": 3921, "\u0120piel": 3922, "\u0120veh\u00c3\u0143culos": 3923, "\u00c2\u00a9": 3924, "\u01202012": 3925, "\u0120inicio": 3926, "tancias": 3927, "\u0120cora": 3928, "\u0120Murcia": 3929, "\u0120pien": 3930, "icados": 3931, "ulas": 3932, "\u0120traslad": 3933, "\u0120selecci\u00c3\u00b3n": 3934, "\u0120regi\u00c3\u00b3n": 3935, "\u0120cump": 3936, "\u0120pun": 3937, "\u0120Dis": 3938, "\u0120Santiago": 3939, "\u00c3\u00a9rez": 3940, "crip": 3941, "\u0120integ": 3942, "\u0120jef": 3943, "\u0120mensaje": 3944, "\u0120cuyo": 3945, "\u0120pago": 3946, "\u0120d\u00c3\u00a9c": 3947, "\u0120satis": 3948, "\u0120matr": 3949, "pera": 3950, "\u0120depend": 3951, "iego": 3952, "\u0120finales": 3953, "\u0120cree": 3954, "\u0120eta": 3955, "\u0120Seguridad": 3956, "\u0120ocho": 3957, "\u0120May": 3958, "LO": 3959, "obern": 3960, "adal": 3961, "\u0120espec\u00c3\u0143f": 3962, "ioso": 3963, "\u0120Guardia": 3964, "\u0120ocasi\u00c3\u00b3n": 3965, "\u0120regres": 3966, "\u0120produci": 3967, "\u0120compl": 3968, "Despu\u00c3\u00a9s": 3969, "qu\u00c3\u00a9": 3970, "\u0120Instituto": 3971, "\u0120terr": 3972, "\u0120debes": 3973, "Asimismo": 3974, "\u0120entender": 3975, "\u0120visi": 3976, "\u0120At": 3977, "\u0120regul": 3978, "\u0120comerciales": 3979, "vesti": 3980, "ox": 3981, "quir": 3982, "\u00c3\u00b3digo": 3983, "\u0120partes": 3984, "\u0120Web": 3985, "\u0120publicado": 3986, "\u0120tiempos": 3987, "\u00c3\u00a1tica": 3988, "etas": 3989, "\u0120cita": 3990, "\u0120mejora": 3991, "\u0120municipio": 3992, "\u0120all\u00c3\u00a1": 3993, "rique": 3994, "\u0120M\u00c3\u00a1laga": 3995, "\u0120Dios": 3996, "\u0120valores": 3997, "\u0120televisi\u00c3\u00b3n": 3998, "\u00c3\u00a9nd": 3999, "rantes": 4000, "\u0120aut\u00c3\u00b3n": 4001, "\u0120AL": 4002, "lev": 4003, "\u0120elementos": 4004, "\u0120llegado": 4005, "\u0120hici": 4006, "ork": 4007, "isa": 4008, "mentar": 4009, "genti": 4010, "tral": 4011, "itales": 4012, "dan": 4013, "partamento": 4014, "\u0120candidato": 4015, "\u0120ciudades": 4016, "\u0120imag": 4017, "\u0120kil\u00c3\u00b3me": 4018, "\u0120Fernando": 4019, "\u0120jugador": 4020, "\u0120agentes": 4021, "erte": 4022, "\u0120votos": 4023, "\u0120Administraci\u00c3\u00b3n": 4024, "\u0120Da": 4025, "estruc": 4026, "r\u00c3\u0143guez": 4027, "del": 4028, "\u0120contrato": 4029, "\u0120soluci\u00c3\u00b3n": 4030, "\u0120menores": 4031, "\u0120ahor": 4032, "\u0120completo": 4033, "\u0120pareja": 4034, "\u0120emb": 4035, "\u00c3\u013c": 4036, "\u00c3\u0142": 4037, "\u0120perfil": 4038, "med": 4039, "\u0120Alber": 4040, "\u0120movimiento": 4041, "\u0120efecto": 4042, "\u0120Jor": 4043, "\u0120impuls": 4044, "cla": 4045, "\u0120llamada": 4046, "\u0120art\u00c3\u0143culos": 4047, "amplona": 4048, "\u0120pr\u00c3\u00a1ctica": 4049, "\u0120go": 4050, "\u0120dim": 4051, "\u0120ayudar": 4052, "\u0120militar": 4053, "viv": 4054, "\u0120Ser": 4055, "\u012060": 4056, "\u0120Riv": 4057, "\u0120secretario": 4058, "\u0120Ab": 4059, "\u0120domici": 4060, "??": 4061, "\u0120cerr": 4062, "\u0120calles": 4063, "lano": 4064, "\u0120carre": 4065, "\u0120lleg\u00c3\u00b3": 4066, "\u0120cuesti\u00c3\u00b3n": 4067, "\u0120edificio": 4068, "mb": 4069, "\u0120instituciones": 4070, "\u0120comprar": 4071, "\u0120fron": 4072, "\u0120invers": 4073, "\u0120b\u00c3\u00bas": 4074, "\u0120juicio": 4075, "\u0120conoc": 4076, "pero": 4077, "\u0120expresa": 4078, "\u0120v\u00c3\u0143ctimas": 4079, "EMA": 4080, "\u0120objetivos": 4081, "\u0120habla": 4082, "\u0120propuestas": 4083, "rupci\u00c3\u00b3n": 4084, "hab": 4085, "\u0120hon": 4086, "DO": 4087, "\u0120escol": 4088, "\u0120encuentran": 4089, "Ac": 4090, "\u00c3\u00b3nd": 4091, "\u0120ideas": 4092, "\u0120estar\u00c3\u00a1": 4093, "Pues": 4094, "\u0120naturaleza": 4095, "\u0120Parlamento": 4096, "\u0120doble": 4097, "\u0120puerta": 4098, "\u0120is": 4099, "idado": 4100, "\u0120profesor": 4101, "direc": 4102, "isiones": 4103, "\u0120reforma": 4104, "\u0120coin": 4105, "\u00c3\u0143os": 4106, "\u00c3\u00a9g": 4107, "iter": 4108, "\u0120Mas": 4109, "\u0120suelo": 4110, "rue": 4111, "\u0120voto": 4112, "\u0120completa": 4113, "\u0120banda": 4114, "\u0120fundamental": 4115, "\u0120compartir": 4116, "arial": 4117, "\u0120pleno": 4118, "\u0120Sociedad": 4119, "\u0120formas": 4120, "tique": 4121, "\u0120renov": 4122, "\u0120entrar": 4123, "\u0120famos": 4124, "\u0120representa": 4125, "tres": 4126, "\u0120luc": 4127, "Puedes": 4128, "\u0120RE": 4129, "Per": 4130, "telig": 4131, "\u0120primeras": 4132, "\u0120levan": 4133, "\u0120UE": 4134, "15": 4135, "\u0120pocos": 4136, "\u0120Rio": 4137, "\u0120sil": 4138, "\u0120pensar": 4139, "\u0120g\u00c3\u00a9nero": 4140, "\u0120alred": 4141, "\u0120auton\u00c3\u00b3m": 4142, "\u0120marco": 4143, "\u0120directamente": 4144, "eso": 4145, "\u0120pregunta": 4146, "\u01202009": 4147, "\u0120campe": 4148, "\u0120retir": 4149, "\u0120pruebas": 4150, "\u0120coloc": 4151, "\u0120comunicado": 4152, "\u0120Rodr\u00c3\u0143guez": 4153, "\u0120Popular": 4154, "VI": 4155, "\u0120P\u00c3\u00a9rez": 4156, "\u0120dol": 4157, "\u0120Hos": 4158, "\u0120mesa": 4159, "\u0120introdu": 4160, "\u0120recibido": 4161, "\u0120concurso": 4162, "t\u00c3\u00a1s": 4163, "\u0120reclam": 4164, "mania": 4165, "ADO": 4166, "\u0120ps": 4167, "zada": 4168, "\u0120bor": 4169, "\u0120elev": 4170, "\u0120consigu": 4171, "edra": 4172, "\u0120Empres": 4173, "\u0120iba": 4174, "\u0120conflic": 4175, "\u0120EE": 4176, "18": 4177, "\u0120Jes\u00c3\u00bas": 4178, "\u0120navegador": 4179, "san": 4180, "tador": 4181, "\u0120realmente": 4182, "\u0120excel": 4183, "\u0120queremos": 4184, "ff": 4185, "\u0120quieres": 4186, "\u0120cuentas": 4187, "\u0120Vi": 4188, "Aqu\u00c3\u0143": 4189, "\u0120periodo": 4190, "\u0120tre": 4191, "\u0120notif": 4192, "\u0120Google": 4193, "C\u00c3\u00b3mo": 4194, "\u0120informado": 4195, "Ca": 4196, "ph": 4197, "tiles": 4198, "\u0120XX": 4199, "\u0120Facebook": 4200, "ormente": 4201, "\u00c3\u00b3nde": 4202, "rag\u00c3\u00b3n": 4203, "ismos": 4204, "\u00c3\u00a9tica": 4205, "\u0120propie": 4206, "cepci\u00c3\u00b3n": 4207, "\u0120vac": 4208, "\u0120fiscal": 4209, "\u0120extran": 4210, "\u0120Galicia": 4211, "\u0120obliga": 4212, "\u0120fru": 4213, "\u0120cuales": 4214, "\u0120Asturias": 4215, "\u0120https": 4216, "\u0120previa": 4217, "\u0120fiesta": 4218, "cci\u00c3\u00b3n": 4219, "ju": 4220, "\u0120quiero": 4221, "IG": 4222, "\u0120ges": 4223, "ices": 4224, "\u0120llama": 4225, "ont": 4226, "\u0120voy": 4227, "\u0120taller": 4228, "odas": 4229, "\u0120distribuci\u00c3\u00b3n": 4230, "\u0120\u00c3\u0143n": 4231, "\u0120explicado": 4232, "\u0120argu": 4233, "jado": 4234, "genier": 4235, "\u0120relaciones": 4236, "istir": 4237, "\u0120usar": 4238, "cidos": 4239, "\u0120deporte": 4240, "\u00c3\u00a9gimen": 4241, "Estos": 4242, "Quier": 4243, "\u0120ni\u00c3\u00b1o": 4244, "hor": 4245, "\u0120conocido": 4246, "itarios": 4247, "iental": 4248, "\u0120eres": 4249, "\u0120peque\u00c3\u00b1os": 4250, "\u0120Br": 4251, "como": 4252, "ol\u00c3\u00b3gico": 4253, "\u0120Tele": 4254, "\u01202008": 4255, "\u0120modelos": 4256, "\u0120lic": 4257, "\u0120diferencia": 4258, "\u0120prefer": 4259, "\u0120av": 4260, "ciden": 4261, "tell": 4262, "quer": 4263, "\u0120Ejecu": 4264, "\u0120evento": 4265, "\u0120equ": 4266, "Tu": 4267, "\u0120Nueva": 4268, "\u0120Blan": 4269, "anes": 4270, "ificado": 4271, "\u0120velo": 4272, "\u0120cru": 4273, "\u0120ded": 4274, "xico": 4275, "ki": 4276, "\u0120tercera": 4277, "\u0120personales": 4278, "\u0120fan": 4279, "\u0120Zaragoza": 4280, "\u0120refle": 4281, "\u00c3\u00a1fico": 4282, "AT": 4283, "\u0120miles": 4284, "\u0120posib": 4285, "\u0120mag": 4286, "iados": 4287, "\u0120The": 4288, "ware": 4289, "\u0120socialista": 4290, "ficial": 4291, "ival": 4292, "cito": 4293, "\u0120reflex": 4294, "\u0120Pol\u00c3\u0143tica": 4295, "\u0120puertas": 4296, "\u0120verd": 4297, "arca": 4298, "rans": 4299, "mentaci\u00c3\u00b3n": 4300, "\u0120Buen": 4301, "\u0120juez": 4302, "\u0120transporte": 4303, "\u0120asum": 4304, "\u0120rue": 4305, "Mi": 4306, "zca": 4307, "\u0120198": 4308, "gal": 4309, "\u0120Iglesias": 4310, "\u0120t\u00c3\u00a9cnicos": 4311, "\u0120directa": 4312, "\u0120dispu": 4313, "\u0120du": 4314, "trum": 4315, "\u0120peor": 4316, "\u0120firma": 4317, "\u0120animales": 4318, "teriormente": 4319, "UU": 4320, "Ch": 4321, "\u0120II": 4322, "\u0120frecu": 4323, "\u0120aumento": 4324, "\u0120actuaciones": 4325, "\u0120lugares": 4326, "%,": 4327, "\u0120abandon": 4328, "\u0120peque\u00c3\u00b1a": 4329, "\u0120aven": 4330, "\u0120suerte": 4331, "gul": 4332, "\u0120rad": 4333, "cun": 4334, "\u00c3\u0143m": 4335, "\u0120cuya": 4336, "rit\u00c3\u00a1n": 4337, "\u0120bre": 4338, "\u0120puestos": 4339, "\u0120inau": 4340, "\u0120acces": 4341, "\u0120tas": 4342, "\u0120reb": 4343, "bao": 4344, "ega": 4345, "\u0120bienes": 4346, "\u0120t\u00c3\u00ba": 4347, "\u0120deber\u00c3\u0143a": 4348, "unid": 4349, "\u0120comercial": 4350, "\u0120voz": 4351, "\u012080": 4352, "\u0120limpi": 4353, "\u0120Cruz": 4354, "af": 4355, "\u0120q": 4356, "\u0120cl\u00c3\u00a1s": 4357, "cons": 4358, "ee": 4359, "\u0120tel\u00c3\u00a9fono": 4360, "\u0120principios": 4361, "imas": 4362, "\u0120mec": 4363, "\u0120legal": 4364, "\u0120generales": 4365, "\u0120Ven": 4366, "\u0120PS": 4367, "\u0120dificul": 4368, "\u0120Espa\u00c3\u00b1ola": 4369, "\u0120pie": 4370, "\u0120Depor": 4371, "RES": 4372, "Pres": 4373, "\u0120humanos": 4374, "\u0120ul": 4375, "inado": 4376, "menta": 4377, "talia": 4378, "\u0120totalmente": 4379, "\u0120pod\u00c3\u0143a": 4380, "\u0120cuan": 4381, "\u0120blanco": 4382, "\u0120hu": 4383, "\u0120kil\u00c3\u00b3metros": 4384, "\u0120abierto": 4385, "\u0120plataforma": 4386, "\u0120qui\u00c3\u00a9n": 4387, "\u00c3\u0143r": 4388, "jer\u00c3\u0143a": 4389, "tig": 4390, "\u0120iniciado": 4391, "\u0120conec": 4392, "\u0120marcas": 4393, "yas": 4394, "\u0120empi": 4395, "anda": 4396, "Sal": 4397, "\u0120oper": 4398, "\u0120coraz\u00c3\u00b3n": 4399, "\u0120ajus": 4400, "ombr": 4401, "EMAIL": 4402, "\u0120Esc": 4403, "\u0120tradicional": 4404, "\u0120reparaci\u00c3\u00b3n": 4405, "dar": 4406, "\u0120gobern": 4407, "40": 4408, "\u0120categor\u00c3\u0143a": 4409, "\u0120supon": 4410, "terios": 4411, "\u0120turismo": 4412, "tuales": 4413, "\u0120pretende": 4414, "\u0120sob": 4415, "\u0120fines": 4416, "\u0120Pala": 4417, "\u0120escenario": 4418, "estre": 4419, "\u0120Ros": 4420, "leta": 4421, "cionados": 4422, "CIA": 4423, "\u0120sentencia": 4424, "onia": 4425, "\u0120original": 4426, "doba": 4427, "\u0120afirma": 4428, "ral": 4429, "pectos": 4430, "\u0120intereses": 4431, "\u0120adquir": 4432, "\u0120convers": 4433, "ped": 4434, "cad": 4435, "AC": 4436, "\u0120mues": 4437, "\u0120entrevista": 4438, "weet": 4439, "\u0120pedir": 4440, "\u0120deleg": 4441, "\u0120circu": 4442, "\u0120vino": 4443, "\u0120susp": 4444, "\u0120compro": 4445, "\u0120convocatoria": 4446, "\u0120hogar": 4447, "\u012029": 4448, "lid": 4449, "\u0120publicidad": 4450, "\u0120ayudas": 4451, "\u0120b\u00c3\u00basqueda": 4452, "\u0120fich": 4453, "\u0120Medio": 4454, "\u0120mantiene": 4455, "\u0120terceros": 4456, "\u0120intentar": 4457, "\u0120podido": 4458, "\u0120Municip": 4459, "t\u00c3\u00a9n": 4460, "\u0120emprend": 4461, "\u0120Generalitat": 4462, "\u0120Edi": 4463, "bi\u00c3\u00b3": 4464, "\u0120Mart\u00c3\u0143nez": 4465, "\u0120objeto": 4466, "\u0120vuelve": 4467, "amble": 4468, "\u0120titular": 4469, "idencia": 4470, "\u0120Esta": 4471, "\u0120actos": 4472, "AB": 4473, "\u0120p\u00c3\u00a9r": 4474, "\u0120arquitec": 4475, "\u0120estadounid": 4476, "\u0120Granada": 4477, "\u0120puedo": 4478, "\u0120Salud": 4479, "\u0120democracia": 4480, "\u0120huel": 4481, "tien": 4482, "\u0120alquiler": 4483, "tander": 4484, "oo": 4485, "\u0120fase": 4486, "\u0120Inf": 4487, "\u0120sof": 4488, "\u0120adelante": 4489, "uno": 4490, "\u0120demasiado": 4491, "\u0120toma": 4492, "\u0120fondos": 4493, "\u0120Diputaci\u00c3\u00b3n": 4494, "\u0120compa": 4495, "\u0120triun": 4496, "\u0120impos": 4497, "\u0120se\u00c3\u00b1alado": 4498, "\u0120Servicio": 4499, "ren": 4500, "\u0120NO": 4501, "\u0120hubiera": 4502, "\u0120\u00c2\u00bb": 4503, "ensi\u00c3\u00b3n": 4504, "madura": 4505, "quiera": 4506, "\u0120cumplir": 4507, "\u0120hospital": 4508, "\u0120vacaciones": 4509, "Hab": 4510, "\u0120territorio": 4511, "\u0120derro": 4512, "\u0120Ib": 4513, "\u0120c\u00c3\u00a1n": 4514, "\u0120familiar": 4515, "\u0120incend": 4516, "ray": 4517, "\u0120pedido": 4518, "olog\u00c3\u0143as": 4519, "\u0120Patr": 4520, "\u0120adop": 4521, "Deb": 4522, "\u0120post": 4523, "Eso": 4524, "arrollo": 4525, "\u0120Bel": 4526, "\u0120comprome": 4527, "\u0120oc": 4528, "\u0120formul": 4529, "TER": 4530, "\u0120pase": 4531, "\u0120Pamplona": 4532, "\u0120interesante": 4533, "\u0120David": 4534, "\u0120apenas": 4535, "\u0120Ana": 4536, "dio": 4537, "\u0120presupuesto": 4538, "\u0120propios": 4539, "\u0120conci": 4540, "\u0120brit\u00c3\u00a1n": 4541, "\u0120tr\u00c3\u00a1fico": 4542, "Man": 4543, "\u0120amigo": 4544, "\u0120asegurado": 4545, "\u0120vesti": 4546, "\u0120respec": 4547, "\u0120mala": 4548, "\u0120estudiantes": 4549, "\u0120visitar": 4550, "\u0120jur\u00c3\u0143d": 4551, "\u0120posibles": 4552, "mano": 4553, "\u0120capaz": 4554, "\u0120Alm": 4555, "\u0120utilizaci\u00c3\u00b3n": 4556, "echos": 4557, "\u0120espacios": 4558, "\u0120efica": 4559, "\u0120figura": 4560, "ort": 4561, "\u0120quiz": 4562, "VE": 4563, "americ": 4564, "\u0120sacar": 4565, "ivacidad": 4566, "\u0120agres": 4567, "\u0120pelo": 4568, "\u0120Dan": 4569, "\u0120Justicia": 4570, "\u0120intervenci\u00c3\u00b3n": 4571, "\u0120aspectos": 4572, "tus": 4573, "\u0120confianza": 4574, "Publ": 4575, "gram": 4576, "\u0120parcial": 4577, "\u0120competen": 4578, "\u0120dejado": 4579, "c\u00c3\u00b3n": 4580, "ecn": 4581, "\u0120fuerzas": 4582, "\u0120pr\u00c3\u00b3xima": 4583, "\u0120internet": 4584, "\u0120llegada": 4585, "gencias": 4586, "16": 4587, "\u0120contras": 4588, "\u0120p\u00c3\u00bablicas": 4589, "\u0120palabra": 4590, "ade": 4591, "\u0120Museo": 4592, "\u0120nie": 4593, "teratura": 4594, "\u0120torno": 4595, "\u0120Bal": 4596, "\u0120acerca": 4597, "Estas": 4598, "\u0120independentis": 4599, "\u0120\u00c2\u00b7": 4600, "dicos": 4601, "\u0120reservados": 4602, "\u0120arti": 4603, "\u0120at": 4604, "\u0120legisla": 4605, "\u0120opciones": 4606, "uta": 4607, "\u0120domicilio": 4608, "utr": 4609, "\u0120circun": 4610, "\u0120ojos": 4611, "\u0120evalu": 4612, "\u0120renta": 4613, "\u0120Plaza": 4614, "\u0120esfuerzo": 4615, "\u0120suf": 4616, "\u0120Sec": 4617, "\u0120pais": 4618, "UM": 4619, "\u0120Extre": 4620, "\u0120Vas": 4621, "\u0120p\u00c3\u00a1ginas": 4622, "\u0120resulta": 4623, "\u0120cuadr": 4624, "\u0120www": 4625, "laz": 4626, "\u0120cm": 4627, "tible": 4628, "icepres": 4629, "\u0120mic": 4630, "TOR": 4631, "\u0120estaban": 4632, "\u0120sustitu": 4633, "\u0120detec": 4634, "censo": 4635, "\u0120fiestas": 4636, "Cada": 4637, "\u0120financiaci\u00c3\u00b3n": 4638, "rile": 4639, "\u0120ja": 4640, "tid": 4641, "\u0120continuaci\u00c3\u00b3n": 4642, "\u0120carta": 4643, "ong": 4644, "\u0120funcionamiento": 4645, "\u0120enfermedad": 4646, "\u0120vie": 4647, "\u0120exten": 4648, "\u0120siguen": 4649, "\u0120ol": 4650, "\u0120comunidades": 4651, "\u0120peso": 4652, "\u0120celebraci\u00c3\u00b3n": 4653, "eli": 4654, "\u0120acord": 4655, "\u0120documento": 4656, "\u0120destino": 4657, "\u0120ingl\u00c3\u00a9s": 4658, "ticias": 4659, "\u0120caracter\u00c3\u0143sticas": 4660, "\u0120Bur": 4661, "\u0120Rec": 4662, "\u0120Pl": 4663, "iares": 4664, "\u0120parlamentar": 4665, "\u0120viviendas": 4666, "iblioteca": 4667, "\u0120recuerda": 4668, "Reci": 4669, "\u0120industria": 4670, "\u0120Arag\u00c3\u00b3n": 4671, "\u0120separ": 4672, "%.": 4673, "\u0120catal\u00c3\u00a1n": 4674, "........": 4675, "\u0120convertido": 4676, "\u0120barrio": 4677, "\u0120demanda": 4678, "ame": 4679, "\u0120internacionales": 4680, "\u0120Jun": 4681, "\u0120mantenimiento": 4682, "\u0120pena": 4683, "\u0120maes": 4684, "\u0120popul": 4685, "diz": 4686, "m\u00c3\u00a1tica": 4687, "\u0120velocidad": 4688, "\u0120amar": 4689, "\u0120satisf": 4690, "\u0120acaba": 4691, "\u0120anteriores": 4692, "ilo": 4693, "orca": 4694, "\u0120delante": 4695, "\u0120tipos": 4696, "\u0120ido": 4697, "\u0120juegos": 4698, "\u0120*": 4699, "dura": 4700, "\u0120denuncia": 4701, "\u0120concreto": 4702, "\u0120COM": 4703, "\u0120moda": 4704, "\u0120repe": 4705, "\u0120expertos": 4706, "\u00f0\u0141": 4707, "mitir": 4708, "\u0120miedo": 4709, "ml": 4710, "unda": 4711, "\u0120sala": 4712, "raestruc": 4713, "ecuci\u00c3\u00b3n": 4714, "\u0120ital": 4715, "\u0120Sem": 4716, "\u0120pr\u00c3\u00b3ximos": 4717, "table": 4718, "\u0120sindica": 4719, "\u0120memoria": 4720, "ife": 4721, "\u0120mez": 4722, "\u0120197": 4723, "ol\u00c3\u00b3gica": 4724, "arma": 4725, "PE": 4726, "\u0120justif": 4727, "\u0120cursos": 4728, "\u0120denomin": 4729, "\u0120declaraciones": 4730, "\u0120compa\u00c3\u00b1eros": 4731, "\u0120peri\u00c3\u00b3": 4732, "\u0120estrategia": 4733, "ll": 4734, "\u0120VI": 4735, "\u0120arro": 4736, "\u0120Er": 4737, "\u0120nega": 4738, "\u0120lanz": 4739, "\u0120intelig": 4740, "\u0120Te": 4741, "\u0120reducir": 4742, "igles": 4743, "amp": 4744, "\u00c3\u0143simo": 4745, "\u0120pantalla": 4746, "\u0120Rioja": 4747, "\u0120bloque": 4748, "arla": 4749, "\u0120rece": 4750, "oder": 4751, "\u0120adi": 4752, "\u0120rend": 4753, "\u0120peti": 4754, "ardo": 4755, "\u0120explo": 4756, "\u0120tarje": 4757, "\u0120conden": 4758, "\u0120cr\u00c3\u00a9di": 4759, "Pa": 4760, "\u0120municipales": 4761, "laciones": 4762, "triz": 4763, "25": 4764, "\u0120socialistas": 4765, "\u0120plazas": 4766, "ry": 4767, "\u0120mismas": 4768, "GT": 4769, "uencias": 4770, "\u0120abog": 4771, "\u0120regional": 4772, "Algun": 4773, "\u0120coste": 4774, "\u0120obstante": 4775, "\u0120tempera": 4776, "Porque": 4777, "it\u00c3\u00a9": 4778, "\u0120planta": 4779, "\u0120trabajando": 4780, "istros": 4781, "\u0120ON": 4782, "ity": 4783, "idamente": 4784, "\u0120aparece": 4785, "\u0120llamado": 4786, "yos": 4787, "\u0120don": 4788, "\u00c3\u00a7": 4789, "\u0120rey": 4790, "\u0120come": 4791, "\u0120respeto": 4792, "\u0120azul": 4793, "\u0120urb": 4794, "\u0120golpe": 4795, "\u0120ganas": 4796, "tillo": 4797, "\u0120premios": 4798, "ime": 4799, "raf": 4800, "\u0120Rom": 4801, "\u0120consecuencia": 4802, "tx": 4803, "\u012070": 4804, "\u0120fas": 4805, "abel": 4806, "\u0120apuesta": 4807, "\u0120trib": 4808, "\u0120Turismo": 4809, "\u0120negro": 4810, "\u00c3\u00b3rdoba": 4811, "\u0120marc": 4812, "\u0120concentr": 4813, "TU": 4814, "onte": 4815, "inales": 4816, "\u0120materiales": 4817, "\u0120ep": 4818, "\u0120Leg": 4819, "g\u00c3\u00bc": 4820, "\u0120autorizaci\u00c3\u00b3n": 4821, "\u0120frances": 4822, "\u0120circuns": 4823, "\u0120T\u00c3\u00a9cn": 4824, "Ver": 4825, "\u0120Ejecutivo": 4826, "\u0120alcanzar": 4827, "\u0120jefe": 4828, "\u0120andalu": 4829, "Espa\u00c3\u00b1a": 4830, "\u0120diferente": 4831, "BA": 4832, "\u0120destacado": 4833, "\u0120Alf": 4834, "\u0120veh\u00c3\u0143culo": 4835, "SS": 4836, "\u0120prom": 4837, "\u01202013": 4838, "\u0120humano": 4839, "Co": 4840, "\u0120ofertas": 4841, "\u0120pasada": 4842, "\u00c3\u0143da": 4843, "\u0120concur": 4844, "ciente": 4845, "\u0120evoluci\u00c3\u00b3n": 4846, "\u0120Hum": 4847, "\u0120espect\u00c3\u00a1": 4848, "\u0120conced": 4849, "V\u00c3\u0143deo": 4850, "\u0120t\u00c3\u00a9rminos": 4851, "\u0120preguntas": 4852, "teros": 4853, "unya": 4854, "\u0120asisten": 4855, "dr\u00c3\u00a1": 4856, "\u0120har\u00c3\u00a1": 4857, "\u0120Club": 4858, "ablemente": 4859, "\u0120quedado": 4860, "\u0120etapa": 4861, "\u0120amplia": 4862, "\u0120revista": 4863, "\u0120elegir": 4864, "\u0120fom": 4865, "\u0120Torre": 4866, "\u0120apre": 4867, "\u0120habitual": 4868, "uegos": 4869, "\u0120prisi\u00c3\u00b3n": 4870, "\u0120Vir": 4871, "\u0120cuarto": 4872, "tigo": 4873, "\u0120fer": 4874, "\u0120D\u00c3\u0143az": 4875, "ye": 4876, "\u01202014": 4877, "IER": 4878, "\u0120juz": 4879, "\u0120Cer": 4880, "\u0120aler": 4881, "cimientos": 4882, "\u0120protes": 4883, "\u0120concierto": 4884, "iber": 4885, "17": 4886, "\u0120Puig": 4887, "\u0120escribir": 4888, "\u0120Az": 4889, "\u0120tratar": 4890, "\u0120deber\u00c3\u00a1": 4891, "onato": 4892, "\u0120navegando": 4893, "\u0120aper": 4894, "\u0120hac": 4895, "\u0120compor": 4896, "\u0120Bilbao": 4897, "\u0120descan": 4898, "\u0120AN": 4899, "tienen": 4900, "\u0120propiedad": 4901, "\u0120disponible": 4902, "\u0120Tecn": 4903, "\u0120dicha": 4904, "Fue": 4905, "estiones": 4906, "\u0120instrum": 4907, "\u0120reto": 4908, "enciana": 4909, "\u0120conseguido": 4910, "m\u00c3\u00a1n": 4911, "\u0120exterior": 4912, "\u0120lograr": 4913, "\u0120lejos": 4914, "\u0120personajes": 4915, "\u0120participantes": 4916, "\u0120Reino": 4917, "\u0120certif": 4918, "entales": 4919, "ebas": 4920, "p\u00c3\u00babl": 4921, "13": 4922, "\u0120\u00c3\u00a9ste": 4923, "\u0120urg": 4924, "\u0120haga": 4925, "\u0120escuela": 4926, "\u0120igles": 4927, "vi\u00c3\u00b3": 4928, "\u0120exped": 4929, "\u0120actualmente": 4930, "\u0120Alemania": 4931, "\u0120alrededor": 4932, "mites": 4933, "\u0120Comer": 4934, "\u0120aus": 4935, "Hasta": 4936, "\u0120buenas": 4937, "ificados": 4938, "pes": 4939, "alizados": 4940, "\u0120fis": 4941, "\u0120publicaci\u00c3\u00b3n": 4942, "capacidad": 4943, "venciones": 4944, "e\u00c3\u00b1a": 4945, "king": 4946, "\u0120herramientas": 4947, "\u0120prior": 4948, "\u0120conex": 4949, "\u0120resoluci\u00c3\u00b3n": 4950, "\u0120hipo": 4951, "\u0120reform": 4952, "\u0120igualdad": 4953, "\u0120colores": 4954, "\u0120pac": 4955, "\u0120cualquiera": 4956, "\u0120vers": 4957, "\u0120asoci": 4958, "\u012035": 4959, "\u0120beneficios": 4960, "\u0120presidenta": 4961, "\u0120abrir": 4962, "tenci\u00c3\u00b3n": 4963, "grama": 4964, "\u0120destaca": 4965, "at": 4966, "\u0120defend": 4967, "oj": 4968, "\u0120estructura": 4969, "\u0120delito": 4970, "\u0120mur": 4971, "\u012090": 4972, "\u0120consol": 4973, "\u0120Constituci\u00c3\u00b3n": 4974, "\u0120&": 4975, "\u0120l\u00c3\u0143neas": 4976, "\u0120tamb": 4977, "\u0120hist\u00c3\u00b3rico": 4978, "\u0120tama": 4979, "\u0120niveles": 4980, "\u0120comida": 4981, "\u0120Ob": 4982, "or\u00c3\u0143as": 4983, "\u0120deriv": 4984, "\u0120Pa\u00c3\u0143s": 4985, "\u0120responsables": 4986, "enado": 4987, "\u0120madrile": 4988, "\u0120unidad": 4989, "gados": 4990, "cir": 4991, "iana": 4992, "\u0120suficiente": 4993, "\u0120dicen": 4994, "iosa": 4995, "\u0120pese": 4996, "\u0120campos": 4997, "\u0120radio": 4998, ",...": 4999, "pal": 5000, "amblea": 5001, "\u0120tex": 5002, "land": 5003, "itados": 5004, "\u0120dibu": 5005, "\u012031": 5006, "Ay": 5007, "\u0120colectivo": 5008, "\u0120fotograf": 5009, "\u0120representantes": 5010, "\u0120rural": 5011, "\u0120larga": 5012, "\u0120\u00e2\u0122\u0136": 5013, "\u0120Provin": 5014, "\u0120previsto": 5015, "\u0120impar": 5016, "\u0120cond": 5017, "\u0120Eusk": 5018, "Lu": 5019, "\u0120declaraci\u00c3\u00b3n": 5020, "tima": 5021, "\u0120parque": 5022, "aman": 5023, "blos": 5024, "\u0120Fu": 5025, "\u0120Extremadura": 5026, "\u0120facilitar": 5027, "\u0120Desarrollo": 5028, "\u0120documen": 5029, "\u0120t\u00c3\u00a9cnica": 5030, "\u0120asociaci\u00c3\u00b3n": 5031, "\u0120compon": 5032, "erop": 5033, "enaje": 5034, "\u0120Liga": 5035, "\u0120some": 5036, "\u0120impacto": 5037, "Hace": 5038, "\u0120operaci\u00c3\u00b3n": 5039, "\u0120hayan": 5040, "obili": 5041, "\u0120gestion": 5042, "\u0120garantizar": 5043, "\u0120ileg": 5044, "\u0120ms": 5045, "\u0120gastos": 5046, "\u0120Fiscal": 5047, "\u0120independencia": 5048, "aremos": 5049, "cina": 5050, "\u0120recorrido": 5051, "\u0120err": 5052, "\u0120Premio": 5053, "\u0120posibilidades": 5054, "\u0120motor": 5055, "\u0120instalaci\u00c3\u00b3n": 5056, "tios": 5057, "\u0120Valle": 5058, "\u0120teniendo": 5059, "lada": 5060, "\u0120tienda": 5061, "\u0120dando": 5062, "\u0120r\u00c3\u00a9gimen": 5063, "\u0120prac": 5064, "\u0120apos": 5065, "ENT": 5066, "\u0120ace": 5067, "\u0120Pen": 5068, "\u0120Tea": 5069, "\u0120cumple": 5070, "\u0120pronto": 5071, "\u0120m\u00c3\u0143nimo": 5072, "pado": 5073, "\u0120acuer": 5074, "\u0120altura": 5075, "\u0120Don": 5076, "Mientras": 5077, "UL": 5078, "\u0120d\u00c3\u00b3nde": 5079, "\u0120dificultad": 5080, "\u0120arran": 5081, "\u0120estuvo": 5082, "\u0120optim": 5083, "\u0120diversas": 5084, "\u0120pend": 5085, "\u0120diversos": 5086, "\u0120lis": 5087, "\u0120est\u00c3\u00a1s": 5088, "mana": 5089, "\u0120Si": 5090, "\u0120atr\u00c3\u00a1s": 5091, "\u0120novela": 5092, "\u0120promoci\u00c3\u00b3n": 5093, "ayo": 5094, "\u0120superfici": 5095, "ello": 5096, "\u0120Canarias": 5097, "\u0120herman": 5098, "Jos": 5099, "uevo": 5100, "\u0120entradas": 5101, "ienen": 5102, "\u0120habr\u00c3\u0143a": 5103, "\u0120d\u00c3\u00b3": 5104, "\u0120accidente": 5105, "\u0120Be": 5106, "\u0120pacientes": 5107, "demont": 5108, "\u00c3\u0143tulos": 5109, "\u0120perdido": 5110, "\u0120Mancha": 5111, "\u0120detalles": 5112, "\u0120M\u00c3\u00a9xico": 5113, "org": 5114, "cind": 5115, "\u0120conform": 5116, "Cor": 5117, "\u0120benefici": 5118, "\u0120intenci\u00c3\u00b3n": 5119, "\u0120reiv": 5120, "\u0120Bol": 5121, ");": 5122, "ec\u00c3\u0143a": 5123, "\u0120dorm": 5124, "\u0120bomb": 5125, "\u0120aplicaciones": 5126, "tr\u00c3\u00a1s": 5127, "\u0120bio": 5128, "\u0120infantil": 5129, "tudes": 5130, "\u0120novedades": 5131, "bil": 5132, "\u0120musical": 5133, "\u0120ataque": 5134, "Serv": 5135, "\u0120finalmente": 5136, "\u0120CO": 5137, "\u0120oportun": 5138, "\u0120Europeo": 5139, "aa": 5140, "right": 5141, "ker": 5142, "____": 5143, "\u0120procedimiento": 5144, "\u0120c\u00c3\u00b3digo": 5145, "\u0120procesos": 5146, "\u0120justicia": 5147, "\u0120Iglesia": 5148, "jan": 5149, "\u0120Del": 5150, "ys": 5151, "\u0120reac": 5152, "\u0120familiares": 5153, "jera": 5154, "\u0120di\u00c3\u00a1": 5155, "\u0120alguno": 5156, "publ": 5157, "\u0120error": 5158, "\u0120firm": 5159, "eci\u00c3\u00b3": 5160, "\u0120tengan": 5161, "Bar": 5162, "\u0120soluciones": 5163, "e\u00c3\u00b1o": 5164, "\u0120empezar": 5165, "\u0120and": 5166, "\u0120Villa": 5167, "\u0120SER": 5168, "uelas": 5169, "DI": 5170, "\u0120acre": 5171, "\u0120CAS": 5172, "\u0120democr\u00c3\u00a1": 5173, "ondo": 5174, "ples": 5175, "\u0120Ga": 5176, "\u0120atrac": 5177, "60": 5178, "\u0120incluyendo": 5179, "quina": 5180, "\u0120franc\u00c3\u00a9s": 5181, "\u0120Servicios": 5182, "\u0120t\u00c3\u00a9cnicas": 5183, "\u0120autoridades": 5184, "\u0120polic\u00c3\u0143a": 5185, "\u0120desem": 5186, "\u0120m\u00c3\u00a1xima": 5187, "\u0120comprend": 5188, "\u0120concepto": 5189, "\u0120teatro": 5190, "p\u00c3\u00bablica": 5191, "\u0120acum": 5192, "\u0120deuda": 5193, "bamos": 5194, "\u0120Industr": 5195, "\u0120c\u00c3\u00a1r": 5196, "\u0120nueve": 5197, "\u0120efici": 5198, "\u0120magn": 5199, "\u0120realiza": 5200, "iaci\u00c3\u00b3n": 5201, "posiciones": 5202, "\u0120contin\u00c3\u00baa": 5203, "\u0120Amb": 5204, "\u0120ingresos": 5205, "keting": 5206, "\u0120arm": 5207, "\u0120sentir": 5208, "eles": 5209, "\u0120secci\u00c3\u00b3n": 5210, "\u0120On": 5211, "ielo": 5212, "\u0120respond": 5213, "Or": 5214, "14": 5215, "\u0120tendr\u00c3\u00a1n": 5216, "timos": 5217, "\u0120ton": 5218, "\u0120judicial": 5219, "\u0120aso": 5220, "ienes": 5221, "abora": 5222, "\u0120POR": 5223, "\u0120llevado": 5224, "gran": 5225, "\u0120necesaria": 5226, "\u0120Aut\u00c3\u00b3n": 5227, "\u0120hija": 5228, "\u0120correspondiente": 5229, "\u0120multi": 5230, "\u0120artista": 5231, "\u0120sectores": 5232, "@@": 5233, "\u0120\u00c3\u00ba": 5234, "\u0120Santander": 5235, "lle": 5236, "\u0120discurso": 5237, "\u0120administraci\u00c3\u00b3n": 5238, "\u0120normal": 5239, "\u0120concejal": 5240, "html": 5241, "\u0120independiente": 5242, "gna": 5243, "anzas": 5244, "\u0120visi\u00c3\u00b3n": 5245, "aldad": 5246, "\u0120Festival": 5247, "jor": 5248, "\u0120empa": 5249, "\u0120buenos": 5250, "\u0120inver": 5251, "\u0120dudas": 5252, "\u0120decisiones": 5253, "hn": 5254, "\u0120pel\u00c3\u0143culas": 5255, "dis": 5256, "\u0120bur": 5257, "\u0120defender": 5258, "\u0120convir": 5259, "\u0120decidido": 5260, "r\u00c3\u00a1f": 5261, "\u0120normas": 5262, "t\u00c3\u0143": 5263, "cienda": 5264, "ajas": 5265, "\u0120entra": 5266, "\u0120refug": 5267, "\u0120Trans": 5268, "\u0120enti": 5269, "\u0120TOD": 5270, "enar": 5271, "ladolid": 5272, "gentina": 5273, "22": 5274, "\u00c3\u00a1nica": 5275, "\u0120aproxim": 5276, "\u0120PARA": 5277, "\u0120Norte": 5278, "\u0120se\u00c3\u00b1ala": 5279, "\u0120comba": 5280, "\u0120constante": 5281, "\u0120podr\u00c3\u0143an": 5282, "\u0120fuego": 5283, "\u0120profund": 5284, "Pued": 5285, "icci\u00c3\u00b3n": 5286, "Puede": 5287, "\u0120acabar": 5288, "tol": 5289, "Incl": 5290, "\u0120Catalunya": 5291, "\u0120Elec": 5292, "\u0120pudo": 5293, "tismo": 5294, "\u0120miembro": 5295, "\u0120gobier": 5296, "DA": 5297, "pp": 5298, "\u0120resca": 5299, "\u0120Du": 5300, "quilib": 5301, "vel": 5302, "ledo": 5303, "\u0120coincid": 5304, "\u0120peligros": 5305, "\u0120ambas": 5306, "\u0120periodista": 5307, "\u0120buscando": 5308, "\u0120revis": 5309, "\u00c3\u00a8": 5310, "\u0120Mi": 5311, "\u0120anunciado": 5312, "log\u00c3\u0143a": 5313, "cab": 5314, "ive": 5315, "SE": 5316, "\u0120global": 5317, "\u0120aprender": 5318, "of\u00c3\u0143a": 5319, "\u0120progres": 5320, "\u0120rit": 5321, "\u0120exac": 5322, "\u0120contempor": 5323, "\u0120cumplimiento": 5324, "\u0120Sur": 5325, "\u0120lin": 5326, "\u0120generaci\u00c3\u00b3n": 5327, "\u0120Este": 5328, "ou": 5329, "\u0120reduci": 5330, "\u0120\u00c3\u00a1n": 5331, "rer": 5332, "\u0120Unido": 5333, "\u0120Investi": 5334, "\u0120dec": 5335, "\u0120For": 5336, "\u0120aquellas": 5337, "\u0120Valladolid": 5338, "\u0120CE": 5339, "\u0120genera": 5340, "\u0120recuperaci\u00c3\u00b3n": 5341, "deras": 5342, "III": 5343, "idez": 5344, "\u0120identidad": 5345, "\u0120grave": 5346, "yright": 5347, "tadores": 5348, "usa": 5349, "\u0120Trab": 5350, "\u0120AC": 5351, "\u0120coches": 5352, "ulta": 5353, "\u0120playa": 5354, "tum": 5355, "\u0120Gre": 5356, "\u0120seg": 5357, "\u0120PRO": 5358, "24": 5359, "\u0120dolor": 5360, "t\u00c3\u00baa": 5361, "\u0120simplemente": 5362, "\u0120requier": 5363, "\u0120recuperar": 5364, "\u0120tren": 5365, "\u0120sexual": 5366, "\u0120autores": 5367, "\u0120editorial": 5368, "\u0120nombr": 5369, "\u00c2\u00a1\u00c2\u00a1": 5370, "\u0120Th": 5371, "\u0120documentos": 5372, "tag": 5373, "\u0120Fin": 5374, "\u0120aumentar": 5375, "Madrid": 5376, "Uno": 5377, "\u0120enlace": 5378, "\u0120reconocimiento": 5379, "\u0120Alcal": 5380, "\u0120regal": 5381, "\u0120necesarios": 5382, "bus": 5383, "\u0120salv": 5384, "\u0120habitaciones": 5385, "igrantes": 5386, "\u0120podr\u00c3\u00a1s": 5387, "\u0120Bas": 5388, "iores": 5389, "\u0120acad": 5390, "uos": 5391, "\u0120abre": 5392, "\u0120Agu": 5393, "\u0120organizaciones": 5394, "\u0120consejero": 5395, "\u0120relacionados": 5396, "\u0120distancia": 5397, "\u0120\u00c3\u00a1r": 5398, "ota": 5399, "\u0120Hospital": 5400, "\u0120guard": 5401, "\u0120Mic": 5402, "\u0120lengu": 5403, "\u0120Mos": 5404, "\u0120cierre": 5405, "\u0120cadena": 5406, "\u0120verde": 5407, "\u0120confer": 5408, "\u0120asistencia": 5409, "\u0120marav": 5410, "\u0120espa\u00c3\u00b1olas": 5411, "\u0120llevan": 5412, "\u0120km": 5413, "Emp": 5414, "ane": 5415, "ull": 5416, "\u0120casas": 5417, "ua": 5418, "\u0120recurso": 5419, "echas": 5420, "Actu": 5421, "yecto": 5422, "\u0120orien": 5423, "\u0120Municipal": 5424, "\u0120infer": 5425, "\u0120pr\u00c3\u00a1cticas": 5426, "ADOS": 5427, "ance": 5428, "\u0120suje": 5429, "ebasti": 5430, "\u0120resolver": 5431, "\u0120requis": 5432, "\u0120corto": 5433, "cida": 5434, "\u0120adelan": 5435, "\u0120otor": 5436, "\u0120incid": 5437, "\u0120corrupci\u00c3\u00b3n": 5438, "\u0120Rivera": 5439, "\u0120vicepres": 5440, "\u0120artistas": 5441, "quez": 5442, "\u0120diver": 5443, "\u0120gastron": 5444, "\u0120formar": 5445, "\u0120C\u00c3\u00b3rdoba": 5446, "ierno": 5447, "ecuencias": 5448, "\u0120lectura": 5449, "\u0120situado": 5450, "\u0120ilustr": 5451, "tacular": 5452, "\u0120dispar": 5453, "\u0120Consejer\u00c3\u0143a": 5454, "\u0120ciencia": 5455, "\u0120ses": 5456, "uelos": 5457, "\u0120quedan": 5458, "\u0120Italia": 5459, "\u0120excep": 5460, "\u0120comenz": 5461, "bur": 5462, "\u0120conm": 5463, "\u0120manda": 5464, "PP": 5465, "\u0120pueblos": 5466, "\u0120sale": 5467, "\u0120literatura": 5468, "\u0120Reyes": 5469, "):": 5470, "riba": 5471, "\u0120Copa": 5472, "tware": 5473, "\u0120esperar": 5474, "\u0120futbol": 5475, "\u0120Em": 5476, "timo": 5477, "\u0120sorpres": 5478, "tz": 5479, "tuvo": 5480, "ivamente": 5481, "\u0120dej\u00c3\u00b3": 5482, "\u0120bases": 5483, "oria": 5484, "\u0120hubo": 5485, "\u0120sola": 5486, "\u0120alimentos": 5487, "\u0120Direcci\u00c3\u00b3n": 5488, "\u0120Imp": 5489, "----": 5490, "\u0120ba\u00c3\u00b1o": 5491, "arnos": 5492, "\u0120galle": 5493, "\u0120planes": 5494, "inter": 5495, "\u0120definitiva": 5496, "usia": 5497, "\u0120movil": 5498, "\u0120r\u00c3\u0143o": 5499, "\u0120ideal": 5500, "\u0120grado": 5501, "\u0120fres": 5502, "\u0120normativa": 5503, "\u0120femen": 5504, "premo": 5505, "\u0120mensajes": 5506, "\u0120aumen": 5507, "ni": 5508, "\u0120creado": 5509, "olina": 5510, "itamos": 5511, "\u0120homenaje": 5512, "\u0120eventos": 5513, "Buen": 5514, "\u0120municipios": 5515, "\u0120human": 5516, "\u0120Os": 5517, "\u0120urban": 5518, "\u0120escuchar": 5519, "\u0120Mad": 5520, "\u0120dispone": 5521, "\u0120Alicante": 5522, "ack": 5523, "\u0120Sin": 5524, "\u0120Profes": 5525, "emia": 5526, ".\"": 5527, "\u0120guar": 5528, "\u0120gasto": 5529, "vas": 5530, "ET": 5531, "\u0120piezas": 5532, "\u0120reciente": 5533, "\u0120suma": 5534, "\u0120viajes": 5535, "\u0120antigua": 5536, "\u0120estadounidense": 5537, "let": 5538, "\u0120infraestruc": 5539, "ivas": 5540, "\u0120c\u00c3\u00a1rcel": 5541, "Ob": 5542, "\u0120sabemos": 5543, "\u0120reca": 5544, "\u0120anal": 5545, "\u0120Lena": 5546, "Sobre": 5547, "Gu": 5548, "\u0120propias": 5549, "\u00c3\u00b3gica": 5550, "\u0120comenz\u00c3\u00b3": 5551, "ir\u00c3\u00a1n": 5552, "\u0120consecuencias": 5553, "\u0120boca": 5554, "qu\u00c3\u0143a": 5555, "\u0120Gas": 5556, "\u00c3\u00a1ticos": 5557, "\u0120Navidad": 5558, "\u0120se\u00c3\u00b1or": 5559, "\u0120enorme": 5560, "\u0120Trump": 5561, "\u0120consulta": 5562, "\u0120aplic": 5563, "\u0120afron": 5564, "\u0120Ta": 5565, "Ins": 5566, "\u0120tama\u00c3\u00b1o": 5567, "\u0120bici": 5568, "\u0120Tr": 5569, "\u0120\u00c3\u0123lv": 5570, "\u0120corpor": 5571, "\u0120cifra": 5572, "\u0120paz": 5573, "\u0120justo": 5574, "\u0120anuncios": 5575, "\u0120Teatro": 5576, "\u0120recibe": 5577, "\u0120d\u00c3\u00b3lares": 5578, "\u0120camp": 5579, "\u0120Radio": 5580, "mor": 5581, "Dos": 5582, "\u0120Hern": 5583, "\u0120Sebasti": 5584, "\u0120Banco": 5585, "\u0120antiguo": 5586, "\u0120situaciones": 5587, "\u0120oro": 5588, "\u0120querido": 5589, "\u01202007": 5590, "iciales": 5591, "pira": 5592, "tidas": 5593, "elipe": 5594, "\u0120defien": 5595, "Val": 5596, "\u0120China": 5597, "\u0120pobre": 5598, "He": 5599, "igna": 5600, "Ju": 5601, "\u0120detr\u00c3\u00a1s": 5602, "d\u00c3\u0143a": 5603, "\u0120rem": 5604, "\u0120Rafa": 5605, "\u0120precisamente": 5606, "\u0120admi": 5607, "\u0120cuestiones": 5608, "\u0120carretera": 5609, "\u0120madera": 5610, "\u0120iglesia": 5611, "\u0120asunto": 5612, "sal": 5613, "\u0120anuncio": 5614, "\u0120aquella": 5615, "\u0120escal": 5616, "\u0120representaci\u00c3\u00b3n": 5617, "\u0120populares": 5618, "\u0120especiales": 5619, "!!!!": 5620, "\u0120afirm": 5621, "\u0120lider": 5622, "Quieres": 5623, "\u0120Lond": 5624, "\u0120isla": 5625, "\u0120historias": 5626, "\u0120vivo": 5627, "IDAD": 5628, "\u0120festival": 5629, "gaciones": 5630, "\u0120critic": 5631, "\u0120extraordin": 5632, "ters": 5633, "\u0120jard": 5634, "\u0120tro": 5635, "\u0120herramienta": 5636, "Pod": 5637, "\u0120imposible": 5638, "\u0120Sala": 5639, "RC": 5640, "\u0120realizaci\u00c3\u00b3n": 5641, "\u0120ocul": 5642, "\u00c3\u0143p": 5643, "\u0120motivos": 5644, "\u0120entend": 5645, "\u0120fol": 5646, "\u0120York": 5647, "legio": 5648, "\u0120idi": 5649, "\u0120ciclo": 5650, "\u0120debemos": 5651, "\u0120pag": 5652, "\u0120incremento": 5653, "\u0120barr": 5654, "\u0120Mariano": 5655, "\u0120siquiera": 5656, "\u0120restaur": 5657, "\u0120recordar": 5658, "\u0120C\u00c3\u00a1diz": 5659, "Fin": 5660, "\u0120presi\u00c3\u00b3n": 5661, "\u0120Econom\u00c3\u0143a": 5662, "\u0120existencia": 5663, "\u0120Secre": 5664, "\u0120aut\u00c3\u00a9n": 5665, "tillas": 5666, "\u0120Carmen": 5667, "\u0120razones": 5668, "\u0120Tra": 5669, "\u0120comisi\u00c3\u00b3n": 5670, "izada": 5671, "nidad": 5672, "\u0120lengua": 5673, "\u0120bra": 5674, "\u0120abord": 5675, "\u0120europeo": 5676, "gica": 5677, "\u0120solicitud": 5678, "\u0120compues": 5679, "\u0120Par\u00c3\u0143s": 5680, "\u0120estan": 5681, "\u0120europeos": 5682, "\u0120vein": 5683, "S\u00c3\u0143": 5684, "cesi\u00c3\u00b3n": 5685, "\u0120m\u00c3\u00a9dico": 5686, "ulo": 5687, "\u0120sexo": 5688, "\u0120modalidad": 5689, "\u0120escas": 5690, "\u0120Informaci\u00c3\u00b3n": 5691, "\u00c3\u0143deos": 5692, "\u0120restaurante": 5693, "\u0120artes": 5694, "\u0120psic": 5695, "luencia": 5696, "\u0120Local": 5697, "\u0120votar": 5698, "Hola": 5699, "\u0120tecnolog\u00c3\u0143as": 5700, "\u00c3\u00a1is": 5701, "\u0120esco": 5702, "\u0120bara": 5703, "\u0120Federaci\u00c3\u00b3n": 5704, "\u0120colecci\u00c3\u00b3n": 5705, "operaci\u00c3\u00b3n": 5706, "\u0120ros": 5707, "\u0120canal": 5708, "\u0120ras": 5709, "\u0120vul": 5710, "ICO": 5711, "ferencia": 5712, "ato": 5713, "uebles": 5714, "\u0120rema": 5715, "21": 5716, "avera": 5717, "\u0120za": 5718, "\u0120enfren": 5719, "\u0120Vasco": 5720, "\u0120apartado": 5721, "igur": 5722, "\u0120LAS": 5723, "\u0120abierta": 5724, "\u0120registro": 5725, "\u0120Ap": 5726, "\u0120ventas": 5727, "\u0120competencia": 5728, "\u0120Portu": 5729, "GA": 5730, "\u0120juven": 5731, "Del": 5732, "\u0120conviv": 5733, "\u0120audio": 5734, "\u0120produce": 5735, "\u0120vive": 5736, "\u0120\u00c2\u00a9": 5737, "\u0120revistas": 5738, "leza": 5739, "tista": 5740, "\u0120dur": 5741, "\u0120negocios": 5742, "\u0120r\u00c3\u00a1pido": 5743, "pin": 5744, "\u0120fras": 5745, "\u0120espectacular": 5746, "i\u00c3\u00b1o": 5747, "\u0120Rub": 5748, "\u0120protagonista": 5749, "\u0120formato": 5750, "\u0120Escuela": 5751, "uelva": 5752, "iversario": 5753, "usto": 5754, "ibuy": 5755, "\u0120Supremo": 5756, "IV": 5757, "\u0120publicar": 5758, "\u0120a\u00c3\u00b1adido": 5759, "\u0120mercados": 5760, "sen": 5761, "\u00c3\u00a9mica": 5762, "-,": 5763, "\u0120Mal": 5764, "\u0120europea": 5765, "\u0120asi": 5766, "icultura": 5767, "\u00c3\u0143sticos": 5768, "\u0120reda": 5769, "\u0120voluntad": 5770, "\u0120ofrecen": 5771, "\u0120confirm": 5772, "\u0120impuestos": 5773, "berg": 5774, "\u0120\u00c3\u00a1reas": 5775, "r\u00c3\u00a1s": 5776, "\u0120pasos": 5777, "\u0120celebrar\u00c3\u00a1": 5778, "\u0120industrial": 5779, "\u0120Tweet": 5780, "\u0120Alba": 5781, "\u0120tranquil": 5782, "pen": 5783, "\u0120telef": 5784, "500": 5785, "\u0120contam": 5786, "\u0120apertura": 5787, "ini": 5788, "IF": 5789, "\u0120impu": 5790, "\u0120adjud": 5791, "\u0120aloj": 5792, "\u0120fen": 5793, "\u0120fuente": 5794, "\u00c3\u00b3rm": 5795, "uena": 5796, "crito": 5797, "\u0120adv": 5798, "\u0120aerop": 5799, "\u0120vues": 5800, "\u0120Zapa": 5801, "\u0120canciones": 5802, "\u0120patrimonio": 5803, "cipl": 5804, "\u0120mostrar": 5805, "\u0120escrita": 5806, "MP": 5807, "\u0120distribu": 5808, "\u0120llu": 5809, "\u0120calor": 5810, "\u0120conflicto": 5811, "\u0120costa": 5812, "\u0120comerci": 5813, "\u0120Parque": 5814, "\u0120afi": 5815, "\u0120\u00c3\u00a9sta": 5816, "uf": 5817, "\u0120XV": 5818, "\u0120recoge": 5819, "\u0120c\u00c3\u00a1mara": 5820, "\u0120continuar": 5821, "\u0120estim": 5822, "ultos": 5823, "\u0120Publ": 5824, "\u0120actor": 5825, "ks": 5826, "itor": 5827, "\u0120Puigdemont": 5828, "\u0120entrenador": 5829, "\u0120cerc": 5830, "\u0120decor": 5831, "\u0120explicar": 5832, "\u0120aspecto": 5833, "\u0120defens": 5834, "\u0120colegio": 5835, "\u0120\u00cc": 5836, "GO": 5837, "\u0120grab": 5838, "Todas": 5839, "bla": 5840, "eca": 5841, "\u0120reivind": 5842, "erva": 5843, "\u0120pasando": 5844, "\u0120gratuita": 5845, "istema": 5846, "\u0120cel": 5847, "\u0120minuto": 5848, "ADA": 5849, "\u00c3\u00a9tico": 5850, "iri": 5851, "\u0120ciudadan\u00c3\u0143a": 5852, "zco": 5853, "\u0120pros": 5854, "\u0120Form": 5855, "\u0120ruta": 5856, "\u0120centen": 5857, "\u0120Sh": 5858, "\u0120visitantes": 5859, "\u0120subray": 5860, "\u0120planeta": 5861, "\u0120investidura": 5862, "\u0120dich": 5863, "\u00c3\u00b3mez": 5864, "\u0120utiliza": 5865, "\u0120Jorge": 5866, "\u0120Alonso": 5867, "\u0120RES": 5868, "\u0120%": 5869, "Estamos": 5870, "\u0120band": 5871, "\u0120organizado": 5872, "\u0120h\u00c3\u00a1": 5873, "\u0120ganado": 5874, "\u0120puso": 5875, "\u0120asesor": 5876, "ang": 5877, "\u0120discu": 5878, "Gran": 5879, "\u0120M\u00c3\u00a1s": 5880, "'s": 5881, "\u0120\u00c3\u00b3": 5882, "ambio": 5883, "\u0120Ram\u00c3\u00b3n": 5884, "\u00c3\u00a9ndum": 5885, "\u0120Organ": 5886, "\u0120comercio": 5887, "\u0120jornadas": 5888, "\u0120pond": 5889, "\u0120suele": 5890, "\u0120Audiencia": 5891, "\u0120Guerra": 5892, "\u00c3\u00b3sito": 5893, "\u0120plantilla": 5894, "\u0120silen": 5895, "undo": 5896, "\u0120coordin": 5897, "Pos": 5898, "\u0120ropa": 5899, "Bus": 5900, "\u0120Cur": 5901, "\u0120honor": 5902, "\u0120implan": 5903, "\u0120encanta": 5904, "\u0120Derecho": 5905, "23": 5906, "\u0120indica": 5907, "\u0120pref": 5908, "\u0120Hacienda": 5909, "99": 5910, "\u0120escuch": 5911, "\u0120indicado": 5912, "quia": 5913, "\u0120ritmo": 5914, "\u0120carga": 5915, "\u0120500": 5916, "\u0120lav": 5917, "\u0120Ir": 5918, "\u0120innovaci\u00c3\u00b3n": 5919, "\u0120intens": 5920, "\u0120desac": 5921, "\u0120cuentan": 5922, "amanca": 5923, "IR": 5924, "\u0120paro": 5925, "\u0120encontrado": 5926, "Creo": 5927, "Queda": 5928, "\u0120PA": 5929, "\u0120Sil": 5930, "\u0120LO": 5931, "\u0120disponibles": 5932, "\u0120cubier": 5933, "\u0120indirec": 5934, "\u0120hac\u00c3\u0143a": 5935, "\u0120vincul": 5936, "\u0120conocimientos": 5937, "\u0120comienza": 5938, "\u0120cuad": 5939, "\u0120empleados": 5940, "\u0120aplicar": 5941, "\u0120jam": 5942, "\u0120r\u00c3\u00a1pida": 5943, "SA": 5944, "tiquetas": 5945, "\u0120personaje": 5946, "\u0120diputados": 5947, "\u0120Londres": 5948, "\u0120privado": 5949, "\u0120digo": 5950, "\u0120Mujer": 5951, "IP": 5952, "UP": 5953, "\u0120detenido": 5954, "Fu": 5955, "\u0120peligro": 5956, "\u0120naturales": 5957, "\u0120establecer": 5958, "ciar": 5959, "icina": 5960, "\u0120salvo": 5961, "ueve": 5962, "\u0120similar": 5963, "\u0120opiniones": 5964, "\u0120cantante": 5965, "\u0120fl": 5966, "\u0120nacionales": 5967, "\u0120reserva": 5968, "\u0120TV": 5969, "\u0120C\u00c3\u00a1mara": 5970, "\u0120vaya": 5971, "\u0120presentes": 5972, "\u0120SO": 5973, "https": 5974, "\u0120construir": 5975, "Can": 5976, "\u0120300": 5977, "\u0120Alberto": 5978, "\u0120Hotel": 5979, "igital": 5980, "\u0120pacto": 5981, "\u0120trim": 5982, "\u0120Bor": 5983, "\u0120profesores": 5984, "isos": 5985, "\u0120superficie": 5986, "\u0120ca\u00c3\u0143da": 5987, "amento": 5988, "\u0120Puerto": 5989, "\u0120petici\u00c3\u00b3n": 5990, "ty": 5991, "\u0120pas\u00c3\u00b3": 5992, "\u0120rig": 5993, "\u0120enf": 5994, "abe": 5995, "\u0120organiza": 5996, "\u0120contratos": 5997, "\u0120hicieron": 5998, "\u0120indic": 5999, "tena": 6000, "\u0120duro": 6001, "70": 6002, "m\u00c3\u00a1s": 6003, "Cam": 6004, "\u0120formulario": 6005, "\u0120quedar": 6006, "\u0120limpieza": 6007, "\u0120di\u00c3\u00a1logo": 6008, "\u0120c\u00c3\u00a1ncer": 6009, "\u0120eliminar": 6010, "\u0120Palacio": 6011, "\u0120sorte": 6012, "\u0120rum": 6013, "\u0120empresarial": 6014, "\u0120t\u00c3\u00a9rmino": 6015, "\u0120p\u00c3\u00a9rdida": 6016, "rael": 6017, "\u0120v\u00c3\u0143ctima": 6018, "\u0120arreg": 6019, "\u0120socios": 6020, "arr": 6021, "\u0120solicitar": 6022, "ss": 6023, "\u0120hablando": 6024, "\u0120tuv": 6025, "\u0120gana": 6026, "\u0120prome": 6027, "\u0120hid": 6028, "\u00c3\u012fA": 6029, "\u0120compa\u00c3\u00b1\u00c3\u0143as": 6030, "emas": 6031, "Cre": 6032, "inaria": 6033, "\u0120establecido": 6034, "enerife": 6035, "tecas": 6036, "\u0120Empleo": 6037, "\u0120operaciones": 6038, "\u0120Historia": 6039, "26": 6040, "\u0120So": 6041, "\u0120convierte": 6042, "\u0120vender": 6043, "28": 6044, "rir": 6045, "\u00c3\u00b3gico": 6046, "\u0120acredi": 6047, "\u0120expresi\u00c3\u00b3n": 6048, "\u0120visitas": 6049, "\u0120habitantes": 6050, "Nuestro": 6051, "\u0120cristi": 6052, "\u0120asociaciones": 6053, "\u0120Jul": 6054, "\u0120aguas": 6055, "\u00c3\u00basica": 6056, "\u0120est\u00c3\u00a9n": 6057, "izaje": 6058, "\u0120humor": 6059, "\u0120tasa": 6060, "\u00c3\u00b1ar": 6061, "\u0120comenzar": 6062, "tistas": 6063, "CIONES": 6064, "\u0120actuales": 6065, "\u0120clara": 6066, "\u0120leyes": 6067, "\u0120privacidad": 6068, "\u0120bi": 6069, "\u0120refer\u00c3\u00a9ndum": 6070, "\u0120Mel": 6071, "tieron": 6072, "gr\u00c3\u00a1fica": 6073, "\u0120Comunicaci\u00c3\u00b3n": 6074, "centa": 6075, "\u0120aun": 6076, "\u0120aprobado": 6077, "\u0120plantas": 6078, "\u0120dispositivo": 6079, "indo": 6080, "\u0120almacen": 6081, "\u0120especie": 6082, "\u0120publicada": 6083, "\u0120arriba": 6084, "\u0120nombres": 6085, "Os": 6086, "ude": 6087, "\u0120edificios": 6088, "\u00c3\u00a9u": 6089, "\u0120espect\u00c3\u00a1culo": 6090, "porta": 6091, "\u0120acepta": 6092, "\u0120Valenciana": 6093, "\u0120canci\u00c3\u00b3n": 6094, "\u0120cuidado": 6095, "lectual": 6096, "egas": 6097, "\u0120ocurre": 6098, "\u0120dirigido": 6099, "\u0120terreno": 6100, "\u0120experiencias": 6101, "pecial": 6102, "\u0120Felipe": 6103, "\u0120Sus": 6104, "\u0120Protecci\u00c3\u00b3n": 6105, "\u0120emerg": 6106, "\u0120superar": 6107, "TOS": 6108, "\u0120llev\u00c3\u00b3": 6109, "\u0120rueda": 6110, "\u0120ten\u00c3\u0143an": 6111, "ld": 6112, "\u0120decre": 6113, "\u0120Men": 6114, "\u00c3\u00a7a": 6115, "\u0120Orden": 6116, "inario": 6117, "\u0120enter": 6118, "\u0120hacerse": 6119, "\u0120perfecto": 6120, "\u0120conexi\u00c3\u00b3n": 6121, "\u0120Lav": 6122, "zz": 6123, "\u0120liter": 6124, "\u0120EEUU": 6125, "endario": 6126, "\u0120gustar\u00c3\u0143a": 6127, "RAN": 6128, "\u0120sup": 6129, "\u0120ilus": 6130, "\u0120Am\u00c3\u00a9rica": 6131, "Somos": 6132, "\u0120sel": 6133, "dr": 6134, "\u0120reconoce": 6135, "istido": 6136, "\u0120alternativa": 6137, "\u0120escolar": 6138, "\u0120trabaja": 6139, "\u0120condici\u00c3\u00b3n": 6140, "venir": 6141, "mes": 6142, "\u0120veo": 6143, "sar": 6144, "\u0120tantos": 6145, "\u0120Espa": 6146, "Pe": 6147, "\u0120enviar": 6148, "untamientos": 6149, "\u0120ano": 6150, "\u0120lectores": 6151, "\u0120Canaria": 6152, "\u0120relev": 6153, "alta": 6154, "\u0120particulares": 6155, "\u0120documentaci\u00c3\u00b3n": 6156, "\u0120diputado": 6157, "\u0120desen": 6158, "\u0120abra": 6159, "habil": 6160, "\u0120retras": 6161, "alici\u00c3\u00b3n": 6162, "\u0120Superior": 6163, "ucci\u00c3\u00b3n": 6164, "\u0120qued\u00c3\u00b3": 6165, "\u0120dro": 6166, "up": 6167, "\u0120contes": 6168, "\u0120Semana": 6169, "\u0120micro": 6170, "\u0120Gab": 6171, "\u0120s\u00c3\u0143n": 6172, "\u0120preci": 6173, "\u0120Fiscal\u00c3\u0143a": 6174, "\u0120huelga": 6175, "sin": 6176, "Direc": 6177, "\u0120Sebasti\u00c3\u00a1n": 6178, "\u0120investigadores": 6179, "\u0120permiten": 6180, "2019": 6181, "\u0120convenio": 6182, "\u0120participa": 6183, "\u0120propone": 6184, "\u0120oportunidades": 6185, "\u0120sue\u00c3\u00b1o": 6186, "\u0120Ambiente": 6187, "\u0120aj": 6188, "\u0120recuerdo": 6189, "ionales": 6190, "\u0120v\u00c3\u0143deos": 6191, "\u0120amplio": 6192, "\u0120Euskadi": 6193, "icano": 6194, "\u0120vuelto": 6195, "\u0120rep": 6196, "lesc": 6197, "\u0120dispuesto": 6198, "crim": 6199, "\u0120Hol": 6200, "\u0120practic": 6201, "\u0120transpar": 6202, "\u0120plena": 6203, "\u0120Cuen": 6204, "\u0120G\u00c3\u00b3mez": 6205, "ZA": 6206, "\u0120Camp": 6207, "frica": 6208, "MO": 6209, "usos": 6210, "\u00c3\u0143ri": 6211, "\u0120Def": 6212, "\u0120cubr": 6213, "\u0120rese": 6214, "ejas": 6215, "\u0120Provincial": 6216, "\u0120recordado": 6217, "ham": 6218, "tizaci\u00c3\u00b3n": 6219, "\u0120instituci\u00c3\u00b3n": 6220, "cra": 6221, "\u0120consta": 6222, "\u0120ejecuci\u00c3\u00b3n": 6223, "m\u00c3\u00a1ticas": 6224, "\u0120Sierra": 6225, "\u0120Comercio": 6226, "\u0120IU": 6227, "\u0120legis": 6228, "\u0120elegido": 6229, "\u0120duraci\u00c3\u00b3n": 6230, "\u0120carr": 6231, "ificaciones": 6232, "\u0120Mundo": 6233, "\u0120perspec": 6234, "Siempre": 6235, "cionamiento": 6236, "\u0120armas": 6237, "\u0120aniversario": 6238, "\u0120debajo": 6239, "\u0120equilib": 6240, "\u0120conoce": 6241, "\u0120acuerdos": 6242, "oya": 6243, "\u0120\u00cc\u0123": 6244, "45": 6245, "\u0120delan": 6246, "ol\u00c3\u00b3gicos": 6247, "\u0120ni\u00c3\u00b1a": 6248, "\u0120Rep\u00c3\u00bablica": 6249, "otos": 6250, "lica": 6251, "80": 6252, "Solo": 6253, "Ni": 6254, "\u0120d\u00c3\u00a9cadas": 6255, "quen": 6256, "\u0120coti": 6257, "\u0120quer\u00c3\u0143a": 6258, "\u0120clim": 6259, "\u0120culturales": 6260, "Prim": 6261, "\u0120notificaciones": 6262, "\u0120porcenta": 6263, "letas": 6264, "\u0120revel": 6265, "\u0120imper": 6266, "gus": 6267, "\u0120producido": 6268, "\u0120ETA": 6269, "**": 6270, "\u0120cargos": 6271, "teria": 6272, "\u0120\u00e2\u0124\u00ac": 6273, "\u0120listas": 6274, "\u0120cau": 6275, "\u0120sangre": 6276, "\u0120propietario": 6277, "\u0120imprescind": 6278, "\u0120Do": 6279, "\u0120Costa": 6280, "\u0120m\u00c3\u00balti": 6281, "\u0120Bale": 6282, "\u00c3\u00a1mica": 6283, "\u012045": 6284, "dicionado": 6285, "teo": 6286, "\u0120apunta": 6287, "Hemos": 6288, "\u0120tr\u00c3\u00a1": 6289, "\u0120perfectamente": 6290, "\u0120refor": 6291, "\u0120ves": 6292, "IX": 6293, "alia": 6294, "\u0120reducci\u00c3\u00b3n": 6295, "\u0120celebrar": 6296, "\u0120protagonistas": 6297, "gano": 6298, "\u0120Person": 6299, "Reg": 6300, "\u0120Jer": 6301, "\u0120escritor": 6302, "ore": 6303, "ky": 6304, "\u0120aleg": 6305, "\u0120incu": 6306, "empl": 6307, "\u0120sirve": 6308, "\u0120saben": 6309, "oras": 6310, "GU": 6311, "rano": 6312, "\u0120har": 6313, "\u0120prove": 6314, "\u0120importe": 6315, "\u0120mam": 6316, "\u0120cabal": 6317, "\u0120tradici\u00c3\u00b3n": 6318, "rup": 6319, "gr\u00c3\u0143a": 6320, "ate": 6321, "\u0120manifies": 6322, "\u0120exam": 6323, "esos": 6324, "\u0120candidatos": 6325, "TRA": 6326, "ezuela": 6327, "\u0120Administra": 6328, "\u0120aceite": 6329, "\u0120requer": 6330, ":'": 6331, "ERO": 6332, "\u0120juntos": 6333, "gamos": 6334, "Jos\u00c3\u00a9": 6335, "rada": 6336, "\u0120celebrado": 6337, "\u00c3\u0143sima": 6338, "\u0120presupuestos": 6339, "tellano": 6340, "\u0120Serg": 6341, "\u0120menti": 6342, "\u0120elector": 6343, "\u0120completamente": 6344, "\u0120inven": 6345, "cuen": 6346, "\u0120econ\u00c3\u00b3micos": 6347, "\u0120surg": 6348, "\u0120tiendas": 6349, "\u0120portal": 6350, "gr\u00c3\u00a1fico": 6351, "\u0120producir": 6352, "iamente": 6353, "hu": 6354, "\u0120Vox": 6355, "...)": 6356, "\u0120tej": 6357, "l\u00c3\u00a9tico": 6358, "\u0120due": 6359, "\u0120gusto": 6360, "\u0120dismin": 6361, "\u0120ing": 6362, "genda": 6363, "enses": 6364, "\u0120peque\u00c3\u00b1as": 6365, "\u0120Toledo": 6366, "\u0120parecer": 6367, "\u0120sober": 6368, "\u0120conciertos": 6369, "\u0120delitos": 6370, "\u0120mostrado": 6371, "\u0120epis": 6372, "\u0120lidera": 6373, "tella": 6374, "\u012032": 6375, "\u0120Bus": 6376, "est": 6377, "mm": 6378, "todos": 6379, "ALES": 6380, "\u0120catalana": 6381, "\u0120excelente": 6382, "\u0120desarrollado": 6383, "\u0120prestig": 6384, "icales": 6385, "izaciones": 6386, "\u0120mecan": 6387, "olv": 6388, "\u0120estaci\u00c3\u00b3n": 6389, "\u0120escena": 6390, "\u0120estad": 6391, "\u0120partida": 6392, "\u0120estudiar": 6393, "\u0120Mil": 6394, "\u0120iniciar": 6395, "\u0120periodistas": 6396, "\u0120escon": 6397, "Tiene": 6398, "\u0120Tenerife": 6399, "\u0120legislatura": 6400, "\u0120manifiesta": 6401, "\u0120+]": 6402, "\u0120bru": 6403, "\u0120da\u00c3\u00b1os": 6404, "S\u00c3\u00b3lo": 6405, "caso": 6406, "\u0120dedicado": 6407, "\u0120Tierra": 6408, "viso": 6409, "\u0120clima": 6410, "\u0120Pi": 6411, "gnacio": 6412, "omento": 6413, "\u0120contexto": 6414, "Ciudad": 6415, "gunda": 6416, "\u0120Mir": 6417, "\u0120tarjeta": 6418, "\u0120AR": 6419, "\u0120llegan": 6420, "\u0120contribu": 6421, "ash": 6422, "\u0120UP": 6423, "cultad": 6424, "\u0120instan": 6425, "zgo": 6426, "\u0120criterios": 6427, "\u0120prol": 6428, "\u0120desper": 6429, "\u0120trayec": 6430, "\u0120requisitos": 6431, "\u00c3\u00a9rcito": 6432, "Segu": 6433, "\u0120volumen": 6434, "\u0120directora": 6435, "\u0120animal": 6436, "\u0120ic": 6437, "\u0120goles": 6438, "\u0120competencias": 6439, "ood": 6440, "\u0120Isabel": 6441, "\u0120refiere": 6442, "Toda": 6443, "\u0120Diario": 6444, "\u0120segundos": 6445, "\u0120bil": 6446, "\u0120absoluta": 6447, "\u0120P\u00c3\u00bablica": 6448, "\u0120posterior": 6449, "viamente": 6450, "\u0120orgul": 6451, "\u0120tendencia": 6452, "\u0120cr\u00c3\u00a9dito": 6453, "tn": 6454, "\u0120estrellas": 6455, "cib": 6456, "icen": 6457, "\u0120ran": 6458, "\u0120estrella": 6459, "tano": 6460, "rito": 6461, "\u0120Gra": 6462, "\u0120Vicente": 6463, "\u0120l\u00c3\u0143deres": 6464, "tar\u00c3\u00a1n": 6465, "\u0120apell": 6466, "\u0120pr\u00c3\u00a1cticamente": 6467, "\u0120citada": 6468, "36": 6469, "\u0120transform": 6470, "olucion": 6471, "\u0120desplaz": 6472, "\u0120expul": 6473, "\u0120piso": 6474, "\u0120d\u00c3\u00a9cada": 6475, "TM": 6476, "\u0120ordenador": 6477, "\u0120competici\u00c3\u00b3n": 6478, "Servicio": 6479, "\u0120funciona": 6480, "\u0120feliz": 6481, "c\u00c3\u00b3": 6482, "\u0120margen": 6483, "\u0120Se\u00c3\u00b1": 6484, "terna": 6485, "\u0120deseo": 6486, "amor": 6487, "\u0120subida": 6488, "venida": 6489, "nar": 6490, "\u0120descubrir": 6491, "\u0120Fe": 6492, "\u0120Tom": 6493, "\u0120empieza": 6494, "\u0120reconocer": 6495, "\u0120catalanes": 6496, "\u0120a\u00c3\u00b1adir": 6497, "\u0120ocup": 6498, "\u0120afectados": 6499, "fi": 6500, "ecreto": 6501, "\u0120bancos": 6502, "\u0120fotograf\u00c3\u0143a": 6503, "ley": 6504, "\u0120televis": 6505, "\u0120acumul": 6506, "\u0120unidades": 6507, "\u0120sencillo": 6508, "\":": 6509, "Tenemos": 6510, "\u0120cercan": 6511, "use": 6512, "comun": 6513, "\u0120rival": 6514, "m\u00c3\u00a1tico": 6515, "Na": 6516, "dia": 6517, "\u0120comienzo": 6518, "\u0120Oficial": 6519, "\u0120meta": 6520, "\u0120darle": 6521, "\u0120pocas": 6522, "\u0120f\u00c3\u0143sica": 6523, "\u0120enfermedades": 6524, "\u0120fechas": 6525, "\u0120relacionadas": 6526, "\u0120programaci\u00c3\u00b3n": 6527, "Podemos": 6528, "\u0120sitios": 6529, "\u0120banco": 6530, "\u0120Castell": 6531, "\u0120tales": 6532, "\u0120Mes": 6533, "NV": 6534, "\u0120Asamblea": 6535, "\u0120destacar": 6536, "\u0120ech": 6537, "Antes": 6538, "t\u00c3\u00ba": 6539, "\u0120v\u00c3\u00a1l": 6540, "\u0120infl": 6541, "\u0120corte": 6542, "\u0120reconocido": 6543, "\u0120Bre": 6544, "\u0120Ed": 6545, "cales": 6546, "\u0120Jim": 6547, "pla": 6548, "\u0120talleres": 6549, "andro": 6550, "\u0120encontramos": 6551, "\u0120causas": 6552, "\u0120desemp": 6553, "\u0120humana": 6554, "\u0120Investigaci\u00c3\u00b3n": 6555, "\u0120anual": 6556, "\u0120errores": 6557, "\u0120documental": 6558, "\u0120III": 6559, "\u0120permitir\u00c3\u00a1": 6560, "\u0120t\u00c3\u0143tulos": 6561, "\u0120alco": 6562, "\u0120alcaldesa": 6563, "\u0120deber\u00c3\u00a1n": 6564, "\u0120voc": 6565, "int": 6566, "t\u00c3\u0143as": 6567, "\u0120contrataci\u00c3\u00b3n": 6568, "acion": 6569, "\u00c3\u0143ritu": 6570, "\u0120software": 6571, "\u0120robo": 6572, "\u0120pista": 6573, "\u0120Interior": 6574, "\u0120pensiones": 6575, "\u0120americ": 6576, "\u0120actitud": 6577, "\u0120mane": 6578, "\u0120Ge": 6579, "\u0120riesgos": 6580, "tones": 6581, "\u0120afecta": 6582, "\u0120inaugur": 6583, "Mo": 6584, "\u0120pr\u00c3\u00b3ximas": 6585, "\u0120discapacidad": 6586, "\u0120privada": 6587, "Cop": 6588, "\u0120T\u00c3\u00a9cnico": 6589, "\u0120caer": 6590, ",'": 6591, "rasil": 6592, "\u0120Central": 6593, "\u0120John": 6594, "enciales": 6595, "\u0120rendimiento": 6596, "\u0120elecci\u00c3\u00b3n": 6597, "\u0120cerrar": 6598, "\u0120Presidente": 6599, "\u0120propon": 6600, "\u0120equip": 6601, "entarios": 6602, "\u0120sensaci\u00c3\u00b3n": 6603, "Pas": 6604, "\u0120hoteles": 6605, "\u0120iniciativas": 6606, "\u0120hist\u00c3\u00b3rica": 6607, "\u0120lech": 6608, "\u0120sosp": 6609, "\u0120belleza": 6610, "35": 6611, "teral": 6612, "\u0120establece": 6613, "\u0120afirmado": 6614, "\u00c3\u00a9ndo": 6615, "ave": 6616, "\u0120permanente": 6617, "\u0120adolesc": 6618, "\u0120licencia": 6619, "\u0120Ger": 6620, "\u0120cifras": 6621, "\u0120Domin": 6622, "\u0120sindicatos": 6623, "\u0120Mac": 6624, "cete": 6625, "\u0120luch": 6626, "\u0120concej": 6627, "ideos": 6628, "clo": 6629, "\u0120decidir": 6630, "\u0120torn": 6631, "\u0120efectu": 6632, "Ese": 6633, "\u00c3\u00bamenes": 6634, "\u0120ventajas": 6635, "\u0120pec": 6636, "ienta": 6637, "\u0120comprobar": 6638, "\u0120dec\u00c3\u0143a": 6639, "\u0120flu": 6640, "\u0120numerosos": 6641, "\u0120abajo": 6642, "\u0120experim": 6643, "\u0120capaces": 6644, "\u0120actriz": 6645, "dice": 6646, "\u0120AP": 6647, "The": 6648, "mu": 6649, "\u0120laborales": 6650, "\u0120galard": 6651, "\u0120--": 6652, "hol": 6653, "\u0120hacemos": 6654, "duce": 6655, "r\u00c3\u00b3": 6656, "\u0120conocida": 6657, "\u0120Acad": 6658, "iller": 6659, "\u0120dispositivos": 6660, "\u0120Santo": 6661, "\u0120Pos": 6662, "\u0120Pan": 6663, "\u0120puerto": 6664, "\u0120Argentina": 6665, "\u00c3\u0143mp": 6666, "\u0120Luc": 6667, "\u0120principalmente": 6668, "\u0120Log": 6669, "\u0120Enrique": 6670, "\u0120convertirse": 6671, "ean": 6672, "Vis": 6673, "\u0120subir": 6674, "\u0120factores": 6675, "Muchas": 6676, "\u0120consultar": 6677, "Sab": 6678, "Fran": 6679, "\u0120Corpor": 6680, "\u0120socio": 6681, "\u0120fen\u00c3\u00b3m": 6682, "cionalidad": 6683, "\u0120incendio": 6684, "NO": 6685, "\u0120Ruiz": 6686, "\u0120movimientos": 6687, "\u0120incluido": 6688, "tocol": 6689, "\u0120evidente": 6690, "\u0120responder": 6691, "\u0120Sanidad": 6692, "\u0120present": 6693, "\u0120Diego": 6694, "\u0120publica": 6695, "?.": 6696, "\u0120ni\u00c3\u00b1as": 6697, "\u0120inversiones": 6698, "\u00c3\u00b3mico": 6699, "\u0120TODOS": 6700, "\u0120nutr": 6701, "\u0120clic": 6702, "\u0120organismo": 6703, "presi\u00c3\u00b3n": 6704, "\u0120carne": 6705, "\u0120Fil": 6706, "\u0120present\u00c3\u00b3": 6707, "bos": 6708, "\u0120divid": 6709, "ograf": 6710, "\u0120Cultural": 6711, "\u0120Guadal": 6712, "\u0120Ama": 6713, "\u0120adver": 6714, "\u0120m\u00c3\u00b3viles": 6715, "\u0120ra\u00c3\u0143": 6716, "\u0120Agr": 6717, "\u0120enca": 6718, "\u0120inferior": 6719, "\u0120candidatura": 6720, "\u0120vulner": 6721, "\u0120descanso": 6722, "\u0120Rusia": 6723, "\u0120coord": 6724, "\u0120temporal": 6725, "\u0120Rib": 6726, "\u0120muertos": 6727, "\u0120trimestre": 6728, "\u0120participado": 6729, "\u0120piloto": 6730, "FE": 6731, "\u0120acos": 6732, "itud": 6733, "\u0120Son": 6734, "\u0120logrado": 6735, "\u0120sal\u00c3\u00b3n": 6736, "\u0120sorpresa": 6737, "\u0120acercar": 6738, "\u0120breve": 6739, "estas": 6740, "\u0120instant\u00c3\u00a1n": 6741, "\u0120elemento": 6742, "\u0120seguidores": 6743, "real": 6744, "\u0120suelen": 6745, "\u00c3\u00b3logo": 6746, "ilio": 6747, "\u0120hermos": 6748, "\u0120fotograf\u00c3\u0143as": 6749, "ANT": 6750, "\u0120negociaci\u00c3\u00b3n": 6751, "\u0120gar": 6752, "\u0120analizar": 6753, "\u0120emi": 6754, "\u0120regular": 6755, "\u0120ejempl": 6756, "\u0120Feria": 6757, "ader": 6758, "\u0120cierta": 6759, "29": 6760, "\u0120estrat\u00c3\u00a9": 6761, "\u0120Portugal": 6762, "\u0120circunstancias": 6763, "icadas": 6764, "\u0120Ciencias": 6765, "iosos": 6766, "\u00c3\u00a9nez": 6767, "cada": 6768, "Nav": 6769, "\u0120Sam": 6770, "\u0120196": 6771, "ICI": 6772, "ucle": 6773, "\u0120empresarios": 6774, "\u0120gig": 6775, "\u0120beneficio": 6776, "\u0120factura": 6777, "\u0120cuidad": 6778, "\u0120\u00c3\u00batil": 6779, "\u0120cens": 6780, "\u0120necesarias": 6781, "ifer": 6782, "\u0120recientemente": 6783, "\u0120Rober": 6784, "JA": 6785, "\u0120cabe": 6786, "\u0120chica": 6787, ".[": 6788, "\u0120the": 6789, "\u0120modern": 6790, "\u0120Arte": 6791, "\u0120Estud": 6792, "Med": 6793, "ria": 6794, "\u0120Juven": 6795, "\u0120aprue": 6796, "\u0120AD": 6797, "\u0120a\u00c3\u00b1ade": 6798, "let\u00c3\u0143n": 6799, "\u0120gama": 6800, "\u0120experimen": 6801, "misi\u00c3\u00b3n": 6802, "\u0120periodismo": 6803, "\u0120\u00c3\u00banicamente": 6804, "\u0120intento": 6805, "iguraci\u00c3\u00b3n": 6806, "ilares": 6807, "\u0120oficiales": 6808, "27": 6809, "\u0120requiere": 6810, "ERA": 6811, "\u0120permiso": 6812, "\u0120imped": 6813, "irmar": 6814, "\u0120motiv": 6815, "\u0120muestran": 6816, "\u0120Atl\u00c3\u00a9tico": 6817, "\u0120muerto": 6818, "\u0120episod": 6819, "\u0120caja": 6820, "\u0120aeropuerto": 6821, "pens": 6822, "\u0120espero": 6823, "\u0120ge": 6824, "\u0120Hoy": 6825, "\u0120vigil": 6826, "\u0120actuar": 6827, "\u0120maqu": 6828, "\u0120detalle": 6829, "\u0120mach": 6830, "\u0120PR": 6831, "cribir": 6832, "\u0120Comit\u00c3\u00a9": 6833, "zon": 6834, "\u0120aclar": 6835, "\u0120silencio": 6836, "\u0120olvidar": 6837, "Otra": 6838, "\u0120MAR": 6839, "ijo": 6840, "\u0120Salamanca": 6841, "\u0120franqu": 6842, "\u0120colectivos": 6843, "uselas": 6844, "\u0120inicial": 6845, "it\u00c3\u00b3": 6846, "\u0120proteger": 6847, "\u0120AS": 6848, "\u0120Decreto": 6849, "\u0120horario": 6850, "\u0120desea": 6851, "gura": 6852, "\u0120bot\u00c3\u00b3n": 6853, "adajo": 6854, "allorca": 6855, "\u0120zapa": 6856, "trato": 6857, "\u0120consigue": 6858, "\u0120pl\u00c3\u00a1s": 6859, "\u0120rojo": 6860, "icin": 6861, "\u0120h\u00c3\u00a1bi": 6862, "Ante": 6863, "Otro": 6864, "\u0120Trabajo": 6865, "\u0120atender": 6866, "\u0120asesina": 6867, "adajoz": 6868, "\u0120pr\u00c3\u00a9s": 6869, "Algunos": 6870, "ombra": 6871, "\u0120femin": 6872, "\u0120penal": 6873, "\u0120alcance": 6874, "\u0120preten": 6875, "\u0120necesitan": 6876, "\u0120defiend": 6877, "\u0120generar": 6878, "\u0120Cristina": 6879, "\u0120Sociales": 6880, "\u00c3\u00b3rmula": 6881, "\u0120Ste": 6882, "uma": 6883, "UC": 6884, "\u0120defiende": 6885, "r\u00c3\u00a9s": 6886, "\u0120secund": 6887, "\u0120\u00c3\u00a1rbol": 6888, "\u00c3\u00b1ez": 6889, "\u0120gr\u00c3\u00a1f": 6890, "\u0120oficina": 6891, "aqu": 6892, "\u0120asegur\u00c3\u00b3": 6893, "\u0120CD": 6894, "\u0120Virgen": 6895, "\u0120pele": 6896, "AP": 6897, "uraci\u00c3\u00b3n": 6898, "\u0120filos": 6899, "\u0120exige": 6900, "\u00c2\u00b7": 6901, "\u0120Campo": 6902, "Quer": 6903, "ung": 6904, "\u0120elaboraci\u00c3\u00b3n": 6905, "\u0120hel": 6906, "itarias": 6907, "han": 6908, "cula": 6909, "IOS": 6910, "\u0120Har": 6911, "\u0120Conf": 6912, "oni": 6913, "\u0120flo": 6914, "\u0120considerado": 6915, "\u0120descenso": 6916, "\u0120Para": 6917, "\u0120olvid": 6918, "atos": 6919, "\u01202006": 6920, "\u0120exis": 6921, "\u0120aconte": 6922, "\u0120numerosas": 6923, "\u0120alem\u00c3\u00a1n": 6924, "lav": 6925, "\u0120mili": 6926, "Lle": 6927, "\u0120anuncia": 6928, "\u0120potencial": 6929, "\u0120concentraci\u00c3\u00b3n": 6930, "\u012036": 6931, "\u0120amenaza": 6932, "\u0120positivo": 6933, "\u0120realizada": 6934, "\u0120Lor": 6935, "\u0120gobiernos": 6936, "\u0120Bern": 6937, "\u0120tareas": 6938, "\u0120vio": 6939, "\u0120Franco": 6940, "\u0120mani": 6941, "\u0120europeas": 6942, "\u0120desactiv": 6943, "ume": 6944, "\u0120gala": 6945, "\u0120hermano": 6946, "\u0120cr\u00c3\u0143tica": 6947, "\u0120mera": 6948, "ms": 6949, "onal": 6950, "\u0120construc": 6951, "li": 6952, "Juan": 6953, "\u0120Todos": 6954, "\u0120Colegio": 6955, "\u0120Aut\u00c3\u00b3noma": 6956, "\u0120Ignacio": 6957, "\u0120fuertes": 6958, "\u0120embara": 6959, "\u0120Villar": 6960, "\u0120analiz": 6961, "\u0120desaf": 6962, "ro\u00c3\u00b1o": 6963, "\u0120coalici\u00c3\u00b3n": 6964, "\u0120feria": 6965, "\u0120Pin": 6966, "\u0120ape": 6967, "\u0120terminar": 6968, "39": 6969, "\u0120reper": 6970, "\u0120acusado": 6971, "\u0120enga": 6972, "ol\u00c3\u00b3gicas": 6973, "\u0120viajar": 6974, "\u0120gira": 6975, "\u0120ilusi\u00c3\u00b3n": 6976, "\u0120dificultades": 6977, "\u0120cartel": 6978, "\u0120atre": 6979, "\u0120Rafael": 6980, "\u0120porcentaje": 6981, "onces": 6982, "\u00c3\u00a9ndose": 6983, "\u01202020": 6984, "\u0120Almer\u00c3\u0143a": 6985, "\u0120sostenible": 6986, "\u0120esperanza": 6987, "\u0120conclu": 6988, "ii": 6989, "\u0120potencia": 6990, "ionar": 6991, "camiento": 6992, "\u0120desped": 6993, "\u0120costes": 6994, "\u0120garant\u00c3\u0143a": 6995, "\u0120variedad": 6996, "\u0120reformas": 6997, "\u0120gu\u00c3\u0143a": 6998, "\u0120M\u00c3\u00basica": 6999, "gues": 7000, "\u0120tuvieron": 7001, "\u0120Vald": 7002, "\u0120forman": 7003, "traciones": 7004, "\u0120explic\u00c3\u00b3": 7005, "\u0120Coru\u00c3\u00b1a": 7006, "\u0120dirigida": 7007, "\u0120Reina": 7008, "\u0120asturi": 7009, "38": 7010, "\u0120choc": 7011, "\u0120suces": 7012, "\u0120batalla": 7013, "\u0120ocurrido": 7014, "\u0120expec": 7015, "\u0120pronunci": 7016, "ulos": 7017, "\u0120ingenier": 7018, "elec": 7019, "tara": 7020, "\u0120consejos": 7021, "\u0120Venezuela": 7022, "adero": 7023, "\u0120trayectoria": 7024, "\u0120enfrentar": 7025, "\u0120probar": 7026, "\u0120Departamento": 7027, "idaridad": 7028, "amentos": 7029, "\u0120desconoci": 7030, "zando": 7031, "\u0120fortal": 7032, "\u0120decidi\u00c3\u00b3": 7033, "\u0120rese\u00c3\u00b1as": 7034, "\u0120consiste": 7035, "\u0120terra": 7036, "\u0120comportamiento": 7037, "Pal": 7038, "\u0120invierno": 7039, "tr\u00c3\u00b3": 7040, "truy": 7041, "\u0120esperando": 7042, "\u0120vale": 7043, "\u0120cr\u00c3\u0143ticas": 7044, "\u0120ger": 7045, "arez": 7046, "isas": 7047, "\u0120arras": 7048, "enden": 7049, "\u0120diferencias": 7050, "\u0120movilidad": 7051, "itaciones": 7052, "\u0120veg": 7053, "viedo": 7054, "\u0120Pue": 7055, "\u0120universidad": 7056, "\u0120ponen": 7057, "\u0120viento": 7058, "\u0120ofrecemos": 7059, "\u0120mill\u00c3\u00b3n": 7060, "\u0120viven": 7061, "\u0120reclama": 7062, "\u0120objetos": 7063, "\u0120triunfo": 7064, "RECH": 7065, "\u0120apoyar": 7066, "ceres": 7067, "\u0120Dem": 7068, "\u0120formado": 7069, "\u0120valenci": 7070, "ENTE": 7071, "\u0120enem": 7072, "tive": 7073, "\u0120presentan": 7074, "\u0120difund": 7075, "\u0120vidas": 7076, "NA": 7077, "\u00c3\u00b3mica": 7078, "OO": 7079, "\u0120foro": 7080, "\u0120ubicaci\u00c3\u00b3n": 7081, "\u0120provis": 7082, "r\u00c3\u00a1neo": 7083, "\u0120monum": 7084, "\u0120inmobili": 7085, "\u0120grav": 7086, "idaci\u00c3\u00b3n": 7087, "Am": 7088, "\u0120incon": 7089, "\u0120prevenci\u00c3\u00b3n": 7090, "\u0120portu": 7091, "\u0120tribu": 7092, "\u0120c\u00c3\u00a1l": 7093, "\u0120l\u00c3\u0143mite": 7094, "\u0120Pon": 7095, "cenas": 7096, "\u0120permitido": 7097, "\u0120vos": 7098, "f\u00c3\u00a9": 7099, "\u0120Unidas": 7100, "\u0120Fuer": 7101, "\u0120aspir": 7102, "\u0120ilum": 7103, "Est\u00c3\u00a1s": 7104, "\u0120peri\u00c3\u00b3dico": 7105, "VO": 7106, "\u0120castellano": 7107, "\u0120recibi\u00c3\u00b3": 7108, "\u0120evaluaci\u00c3\u00b3n": 7109, "Col": 7110, "\u0120establecimiento": 7111, "\u0120restos": 7112, "esper": 7113, "\u0120econ\u00c3\u00b3micas": 7114, "\u0120aprendizaje": 7115, "iten": 7116, "\u0120especies": 7117, "\u0120lenguaje": 7118, "\u0120Bar\u00c3\u00a7a": 7119, "opera": 7120, "\u0120deportivo": 7121, "\u0120referente": 7122, "\u0120vasco": 7123, "\u0120habido": 7124, "\u0120cicl": 7125, "\u0120ocio": 7126, "formas": 7127, "\u0120m\u00c3\u00baltiples": 7128, "\u0120t\u00c3\u0143p": 7129, "\u0120re\u00c3\u00ban": 7130, "\u0120graves": 7131, "\u0120rell": 7132, "Nuestra": 7133, "\u0120mate": 7134, "\u0120cl\u00c3\u0143n": 7135, "\u0120llamar": 7136, "\u0120premi": 7137, "diario": 7138, "\u0120usando": 7139, "iada": 7140, "Tal": 7141, "\u0120DERECH": 7142, "\u0120correspondientes": 7143, "\u0120corre": 7144, "\u0120integraci\u00c3\u00b3n": 7145, "\u0120aprobaci\u00c3\u00b3n": 7146, "\u0120Natural": 7147, "\u00c3\u00b1ado": 7148, "\u0120R\u00c3\u0143o": 7149, "\u0120secu": 7150, "\u0120cien": 7151, "\u0120m\u00c3\u00a9dicos": 7152, "\u0120bal\u00c3\u00b3n": 7153, "Clas": 7154, "\u0120incluyen": 7155, "emen": 7156, "\u0120abor": 7157, "\u0120suger": 7158, "\u0120n\u00c3\u00bameros": 7159, "\u0120bicic": 7160, "\u0120narra": 7161, "\u0120bos": 7162, "\u0120clasificaci\u00c3\u00b3n": 7163, "\u0120tradicionales": 7164, "bum": 7165, "cribe": 7166, "\u0120empez\u00c3\u00b3": 7167, "wn": 7168, "\u0120vemos": 7169, "ARIO": 7170, "\u0120vistas": 7171, "\u0120pensando": 7172, "\u0120indis": 7173, "anta": 7174, "\u0120metro": 7175, "\u0120legislaci\u00c3\u00b3n": 7176, "Ter": 7177, "uerta": 7178, "\u0120Digital": 7179, "\u0120encontraba": 7180, ".)": 7181, "\u0120aceptas": 7182, "\u0120dejando": 7183, "\u0120viendo": 7184, "\u0120privi": 7185, "\u00c3\u00a1nico": 7186, "amora": 7187, "rad": 7188, "PSOE": 7189, "muy": 7190, "\u0120Salv": 7191, "\u0120Princip": 7192, "\u0120calendario": 7193, "nal": 7194, "\u0120Artes": 7195, "\u0120Torres": 7196, "\u0120dul": 7197, "\u0120magistr": 7198, "inta": 7199, "eler": 7200, "\u0120Esp": 7201, "guen": 7202, "g\u00c3\u00b3": 7203, "\u0120integral": 7204, "\u0120compa\u00c3\u00b1ero": 7205, "\u0120quiera": 7206, "vila": 7207, "\u0120altas": 7208, "terra": 7209, "\u0120merece": 7210, "Copyright": 7211, "\u0120Palma": 7212, "\u0120finalidad": 7213, "tega": 7214, "\u0120Lin": 7215, "\u0120lujo": 7216, "\u0120Viv": 7217, "\u0120actores": 7218, "CON": 7219, "\u0120Presu": 7220, "\u0120Vigo": 7221, "\u0120comunes": 7222, "\u0120pintura": 7223, "cionada": 7224, "\u0120aparecen": 7225, "\u0120ced": 7226, "\u0120Bu": 7227, "\u0120similares": 7228, "\u0120promover": 7229, "\u0120var": 7230, "\u0120culpa": 7231, "\u0120subvenciones": 7232, "\u0120temperatura": 7233, "\u0120\u00c3\u00b3rgano": 7234, "\u0120SU": 7235, "\u0120sencilla": 7236, "\u0120ingles": 7237, "\u0120turistas": 7238, "\u0120dar\u00c3\u00a1": 7239, "\u0120Brasil": 7240, "Introdu": 7241, "\u0120espos": 7242, "\u0120recomendamos": 7243, "\u0120desf": 7244, "\u0120rein": 7245, "\u0120ESPA": 7246, "\u0120reales": 7247, "\u0120implica": 7248, "icha": 7249, "\u0120manifestaci\u00c3\u00b3n": 7250, "\u0120sonido": 7251, "\u0120poli": 7252, "\u0120v\u00c3\u0143as": 7253, "\u0120ministra": 7254, "\u0120cuarta": 7255, "\u0120LE": 7256, "\u0120Air": 7257, "ajara": 7258, "icana": 7259, "\u0120amis": 7260, "\u0120AB": 7261, "\u0120oficinas": 7262, "Nuestros": 7263, "\u0120estar\u00c3\u00a1n": 7264, "\u0120incom": 7265, "brica": 7266, "\u0120maravillos": 7267, "\u00c3\u00b3stico": 7268, "\u0120Bos": 7269, "trol": 7270, "\u0120Blanco": 7271, "bit": 7272, "\u0120tendr\u00c3\u0143a": 7273, "nav": 7274, "iod": 7275, "\u0120configuraci\u00c3\u00b3n": 7276, "\u0120tarif": 7277, "\u0120ayuntamiento": 7278, "\u0120ayuntamientos": 7279, "\u00c3\u0143odo": 7280, "ajaj": 7281, "paracion": 7282, "\u0120repas": 7283, "\u0120restaurantes": 7284, "\u0120siglos": 7285, "\u0120impuesto": 7286, "metros": 7287, "\u0120eficaz": 7288, "Recibe": 7289, "izados": 7290, "\u0120tambien": 7291, "\u0120cambiado": 7292, "j\u00c3\u00b3n": 7293, "cr\u00c3\u0143": 7294, "\u0120cay": 7295, "odom": 7296, "\u0120Campe": 7297, "\u0120Sub": 7298, "\u0120Enc": 7299, "\u0120hermanos": 7300, "\u0120pared": 7301, "\u0120Mayor": 7302, "\u0120ventaja": 7303, "\u0120a\u00c3\u00a9": 7304, "\u0120dominio": 7305, "\u0120fundamentales": 7306, "Estoy": 7307, "gico": 7308, "Viv": 7309, "\u0120Derechos": 7310, "\u0120controlar": 7311, "\u0120despa": 7312, "\u0120pies": 7313, "\u0120heridos": 7314, "\u0120Usu": 7315, "novaci\u00c3\u00b3n": 7316, "\u0120contribuy": 7317, "Cal": 7318, "\u0120f\u00c3\u0143sico": 7319, "Cur": 7320, "\u0120ocupa": 7321, "\u0120vienen": 7322, "\u0120difusi\u00c3\u00b3n": 7323, "\u0120150": 7324, "\u0120mente": 7325, "\u0120condena": 7326, "Ho": 7327, "ualmente": 7328, "bia": 7329, "\u0120firmado": 7330, "cientes": 7331, "\u0120ecol": 7332, "\u0120agre": 7333, "\u0120procl": 7334, "\u0120trabajan": 7335, "\u0120anunci\u00c3\u00b3": 7336, "\u0120oscu": 7337, "\u0120Programa": 7338, "\u0120declarado": 7339, "\u0120tarea": 7340, "ariamente": 7341, "\u0120PNV": 7342, "\u0120400": 7343, "\u0120Sant": 7344, "\u0120Rosa": 7345, "\u0120Ofici": 7346, "tamen": 7347, "\u0120confirmado": 7348, "\u0120claves": 7349, "\u0120solamente": 7350, "TAS": 7351, "\u0120discipl": 7352, "\u0120Moreno": 7353, "\u0120corresponde": 7354, "\u0120Roc": 7355, "\u0120archivo": 7356, "\u0120contrase\u00c3\u00b1a": 7357, "umbre": 7358, "\u0120utilizando": 7359, "\u0120toca": 7360, "?,": 7361, "ider": 7362, "\u0120indirectamente": 7363, "cierto": 7364, "\u0120Mallorca": 7365, "\u0120Hern\u00c3\u00a1ndez": 7366, "pra": 7367, "\u0120prev\u00c3\u00a9": 7368, "\u0120conductor": 7369, "ing\u00c3\u00bc": 7370, "\u0120realizan": 7371, "\u0120tur\u00c3\u0143stico": 7372, "\u0120paciente": 7373, "lamen": 7374, "\u0120ais": 7375, "\u012075": 7376, "his": 7377, "r\u00c3\u00b3n": 7378, "udas": 7379, "90": 7380, "Inter": 7381, "\u0120mental": 7382, "\u0120urbano": 7383, "\u0120bienestar": 7384, "\u0120gratuito": 7385, "ezca": 7386, "\u0120Camino": 7387, "\u0120despe": 7388, "\u0120nar": 7389, "\u0120Alfonso": 7390, "cambio": 7391, "\u0120Flor": 7392, "\u0120italiano": 7393, "Era": 7394, "\u0120cient\u00c3\u0143ficos": 7395, "osos": 7396, "\u0120vigor": 7397, "\u0120interesa": 7398, "\u0120alimentaci\u00c3\u00b3n": 7399, "mart": 7400, "\u0120salido": 7401, "\u0120lleno": 7402, "indows": 7403, "Muy": 7404, "iona": 7405, "\u0120Sergio": 7406, "UD": 7407, "\u00c3\u0143fico": 7408, "\u0120piedra": 7409, "\u0120abogado": 7410, "\u0120administr": 7411, "\u0120responsab": 7412, "\u0120piscina": 7413, "\u0120Formaci\u00c3\u00b3n": 7414, "\u0120matrimonio": 7415, "hi": 7416, "\u0120realizadas": 7417, "\u0120adquis": 7418, "\u0120publici": 7419, "\u0120quiz\u00c3\u00a1s": 7420, "\u0120obligaci\u00c3\u00b3n": 7421, "\u0120seguros": 7422, "\u0120infraestructuras": 7423, "\u0120Li": 7424, "\u0120acudir": 7425, "\u0120Austr": 7426, "\u0120Div": 7427, "usiones": 7428, "\u0120repetir": 7429, "itorio": 7430, "\u0120adecuado": 7431, "\u0120per\u00c3\u0143odo": 7432, "\u0120da\u00c3\u00b1o": 7433, "\u0120triste": 7434, "utas": 7435, "\u0120Julio": 7436, "\u0120Senado": 7437, "\u0120institucional": 7438, "es\u00c3\u0143a": 7439, "identa": 7440, "\u0120chicas": 7441, "\u0120Cel": 7442, "\u0120bajas": 7443, "\u0120biblio": 7444, "\u0120sabes": 7445, "\u0120incluir": 7446, "\u0120mira": 7447, "\u0120marketing": 7448, "ionado": 7449, "\u0120departamento": 7450, "\u0120Bea": 7451, "\u0120responde": 7452, "\u0120econom": 7453, "gadas": 7454, "\u0120asistentes": 7455, "\u0120camis": 7456, "\u0120contiene": 7457, "\u0120electrodom": 7458, "QUIER": 7459, "\u0120ausencia": 7460, "\u0120PER": 7461, "on\u00c3\u0143a": 7462, "ubil": 7463, "\u0120Mc": 7464, "\u0120m\u00c3\u00a9todo": 7465, "\u0120dr": 7466, "\u0120Segunda": 7467, "IE": 7468, "\u0120aconse": 7469, "ombia": 7470, "\u0120convivencia": 7471, "\u0120\u00e2": 7472, "\u0120razon": 7473, "\u0120agencia": 7474, "\u0120ign": 7475, "\u0120seguido": 7476, "\u0120activos": 7477, "p\u00c3\u00b3": 7478, "\u0120conciencia": 7479, "\u0120inmigrantes": 7480, "\u0120espal": 7481, "ames": 7482, "\u0120lucra": 7483, "\u0120perros": 7484, "ube": 7485, "\u0120misi\u00c3\u00b3n": 7486, "\u0120restr": 7487, "emente": 7488, "Finalmente": 7489, "\u0120l\u00c3\u0143mites": 7490, "aste": 7491, "inados": 7492, "\u0120delegado": 7493, "\u0120asuntos": 7494, "\u0120educativo": 7495, "\u0120Foro": 7496, "ganos": 7497, "\u0120Que": 7498, "ciles": 7499, "\u0120moto": 7500, "\u0120irreg": 7501, "ux": 7502, "\u0120public\u00c3\u00b3": 7503, "\u0120Industria": 7504, "OC": 7505, "bierto": 7506, "\u0120aquello": 7507, "\u0120Oro": 7508, "\u0120legales": 7509, "\u0120madru": 7510, "nado": 7511, "enz": 7512, "\u0120Burgos": 7513, "\u0120brit\u00c3\u00a1nico": 7514, "\u0120Hor": 7515, "\u0120lanzamiento": 7516, "\u0120ense\u00c3\u00b1anza": 7517, "\u0120cruz": 7518, "\u0120Sab": 7519, "Mon": 7520, "\u0120seguimiento": 7521, "\u0120avances": 7522, "\u0120carb": 7523, "risa": 7524, "ariales": 7525, "\u0120Gesti\u00c3\u00b3n": 7526, "\u0120entregar": 7527, "\u0120textos": 7528, "\u0120monta\u00c3\u00b1a": 7529, "portes": 7530, "\u0120mirada": 7531, "pio": 7532, "\u0120mapa": 7533, "\u0120P\u00c3\u00bablico": 7534, "\u0120moderna": 7535, "ions": 7536, "jada": 7537, "erse": 7538, "tela": 7539, "icol": 7540, "\u0120acompa\u00c3\u00b1ado": 7541, "\u0120Pilar": 7542, "\u0120esp\u00c3\u0143ritu": 7543, "\u0120inscripci\u00c3\u00b3n": 7544, "\u0120leche": 7545, "\u0120exclusiva": 7546, "\u0120acad\u00c3\u00a9m": 7547, "\u0120receta": 7548, "jandro": 7549, "\u0120compras": 7550, "rente": 7551, "mentado": 7552, "\u0120atend": 7553, "\u0120posteriormente": 7554, "\u0120tier": 7555, "\u0120tantas": 7556, "\u0120cielo": 7557, "\u0120militares": 7558, "37": 7559, "bio": 7560, "wa": 7561, "\u0120utilizado": 7562, "\u0120env\u00c3\u0143o": 7563, "\u0120nave": 7564, "\u0120ejercer": 7565, "\u0120cuesta": 7566, "\u0120Plata": 7567, "\u0120aparici\u00c3\u00b3n": 7568, "\u0120Constitu": 7569, "\u0120volvi\u00c3\u00b3": 7570, "\u0120ciudadano": 7571, "art": 7572, "lia": 7573, "\u0120moci\u00c3\u00b3n": 7574, "\u0120c\u00c3\u00a1": 7575, "\u0120imprescindible": 7576, "\u0120llena": 7577, "avier": 7578, "\u0120administraciones": 7579, "\u0120Sch": 7580, "ERV": 7581, "tegr": 7582, "\u0120cho": 7583, "\u0120sufrir": 7584, "\u0120mand": 7585, "\u0120Cristo": 7586, "\u0120derrota": 7587, "\u0120funcionarios": 7588, "\u0120rique": 7589, "\u0120Media": 7590, "\u0120res\u00c3\u00bamenes": 7591, "tori": 7592, "\u0120solid": 7593, "\u0120doctor": 7594, "\u0120descuento": 7595, "\u0120hier": 7596, "\u0120repi": 7597, "\u0120naran": 7598, "\u0120detenidos": 7599, "\u0120confirma": 7600, "\u0120aficionados": 7601, "\u0120garantiz": 7602, "maras": 7603, "\u0120reuniones": 7604, "orro": 7605, "\u0120asigna": 7606, "\u0120EX": 7607, "izan": 7608, "\u0120Jorn": 7609, "l\u00c3\u00b3": 7610, "\u0120tribunal": 7611, "Vamos": 7612, "Esa": 7613, "\u0120Cre": 7614, "\u0120depende": 7615, "\u0120dedicada": 7616, "\u0120US": 7617, "\u0120\u00c3\u00a1l": 7618, "\u0120pierd": 7619, "\u0120individual": 7620, "\u0120exhib": 7621, "\u0120apla": 7622, "diciones": 7623, "\u0120aver\u00c3\u0143a": 7624, "\u0120ampliar": 7625, "\u0120pierde": 7626, "\u0120consumidores": 7627, "\u0120perjud": 7628, "\u0120ataques": 7629, "\u0120japon": 7630, "\u0120Mag": 7631, "\u0120injus": 7632, "\u0120sufrido": 7633, "\u0120inspir": 7634, "\u0120quiz\u00c3\u00a1": 7635, "cuerdo": 7636, "\u0120habitaci\u00c3\u00b3n": 7637, "\u0120arre": 7638, "LAS": 7639, "\u0120navegaci\u00c3\u00b3n": 7640, "\u0120puntu": 7641, "\u0120series": 7642, "ualidad": 7643, "ibil": 7644, "\u0120museo": 7645, "alizadas": 7646, "\u0120Gol": 7647, "\u0120panor": 7648, "Ra": 7649, "\u0120parecen": 7650, "\u0120servir": 7651, "\u0120flex": 7652, "alizaciones": 7653, "\u0120Monte": 7654, "ap\u00c3\u00b3n": 7655, "\u0120vay": 7656, "\u0120complejo": 7657, "\u0120cientos": 7658, "\u0120sit\u00c3\u00baa": 7659, "\u0120campe\u00c3\u00b3n": 7660, "ket": 7661, "\u0120rele": 7662, "\u0120contar\u00c3\u00a1": 7663, "uesca": 7664, "\u0120serio": 7665, "\u0120comarca": 7666, "\u0120descargar": 7667, "tesis": 7668, "\u0120UR": 7669, "vern": 7670, "\u0120recogida": 7671, "\u0120resistencia": 7672, "\u0120pieza": 7673, "\u0120doce": 7674, "\u0120financiera": 7675, "\u0120Datos": 7676, "\u0120Fomento": 7677, "\u0120mercan": 7678, "\u0120manifiesto": 7679, "\u00c3\u00a1rez": 7680, "\u00c3\u0143na": 7681, "\u0120Ja\u00c3\u00a9n": 7682, "\u0120torneo": 7683, "\u0120atribu": 7684, "\u0120sali\u00c3\u00b3": 7685, "\u0120luchar": 7686, "\u0120XIX": 7687, "\u0120soporte": 7688, "tolog\u00c3\u0143a": 7689, "mica": 7690, "\u0120r\u00c3\u00a1pidamente": 7691, "tagram": 7692, "\u0120Bruselas": 7693, "\u0120)": 7694, "lados": 7695, "quie": 7696, "COM": 7697, "\u0120retro": 7698, "\u0120altos": 7699, "\u0120meter": 7700, "lin": 7701, "rero": 7702, "ragon": 7703, "\u00c3\u00bacar": 7704, "media": 7705, "\u0120influencia": 7706, "ulaci\u00c3\u00b3n": 7707, "\u0120dieron": 7708, "\u0120tin": 7709, "\u0120vigente": 7710, "\u0120alar": 7711, "\u0120tradu": 7712, "trado": 7713, "blog": 7714, "Pol": 7715, "\u0120Castro": 7716, "\u0120demostrado": 7717, "\u0120perro": 7718, "\u0120complicado": 7719, "\u0120francesa": 7720, "\u0120Cs": 7721, "\u0120AM": 7722, "\u0120ganador": 7723, "\u0120c\u00c3\u00b3m": 7724, "\u0120inmediato": 7725, "\u0120fomentar": 7726, "\u0120acab\u00c3\u00b3": 7727, "\u0120representante": 7728, "igraci\u00c3\u00b3n": 7729, "\u00c3\u00a1z": 7730, "\u0120continua": 7731, "\u0120volv": 7732, "\u0120nerv": 7733, "46": 7734, "\u0120paseo": 7735, "\u0120farma": 7736, "\u0120reci\u00c3\u00a9n": 7737, "\u0120Vie": 7738, "\u0120terrorismo": 7739, "\u0120electr\u00c3\u00b3nica": 7740, "Quiz": 7741, "\u0120haz": 7742, "\u0120MA": 7743, "\u0120republ": 7744, "\u0120intelectual": 7745, "ONA": 7746, "\u0120Iz": 7747, "\u0120esencial": 7748, "\u0120Zapatero": 7749, "econ": 7750, "\u0120activa": 7751, "\u0120respectivamente": 7752, "hora": 7753, "\u0120activo": 7754, "\u0120originales": 7755, "\u0120aceptar": 7756, "\u0120verdadero": 7757, "\u0120cu\u00c3\u00a1n": 7758, "\u0120bandera": 7759, "habilitaci\u00c3\u00b3n": 7760, "iero": 7761, "grad": 7762, "\u0120visu": 7763, "\u0120extin": 7764, "Barcelona": 7765, "\u0120pred": 7766, "%)": 7767, "\u00c3\u00b3nico": 7768, "\u0120recoger": 7769, "\u0120dirigentes": 7770, "\u0120Jordi": 7771, "\u0120Biblioteca": 7772, "\u0120Igu": 7773, "igas": 7774, "\u0120hubi": 7775, "\u0120cl\u00c3\u00a1sico": 7776, "\u0120Director": 7777, "amo": 7778, "\u0120escul": 7779, "\u0120rin": 7780, "cismo": 7781, "ites": 7782, "\u0120refugiados": 7783, "UES": 7784, "\u0120ERC": 7785, "tinos": 7786, "\u0120explic": 7787, "\u0120libres": 7788, "Consulta": 7789, "\u0120sumar": 7790, "\u0120vosotros": 7791, "\u0120pasan": 7792, "\u0120interesantes": 7793, "sula": 7794, "Bueno": 7795, "2018": 7796, "\u0120desn": 7797, "\u0120dejan": 7798, "\u0120colegios": 7799, "trans": 7800, "\u0120once": 7801, "\u0120beb\u00c3\u00a9": 7802, "\u0120asistir": 7803, "istorio": 7804, "\u012033": 7805, "\u0120gan\u00c3\u00b3": 7806, "\u012065": 7807, "lament": 7808, "\u0120electorales": 7809, "\u0120Organizaci\u00c3\u00b3n": 7810, "\u0120Palmas": 7811, "\u0120sabor": 7812, "\u0120importa": 7813, "\u0120clim\u00c3\u00a1tico": 7814, "\u0120financiero": 7815, "\u0120malos": 7816, "\u0120Auto": 7817, "terr": 7818, "\u0120arquitectura": 7819, "\u0120hablamos": 7820, "\u0120Innovaci\u00c3\u00b3n": 7821, "\u0120amp": 7822, "\u0120felici": 7823, "\u0120constitucional": 7824, "\u0120cerrado": 7825, "\u0120alerta": 7826, "\u0120alcohol": 7827, "\u0120exclusivamente": 7828, "\u0120demuestra": 7829, "\u0120sing": 7830, "\u0120---": 7831, "\u0120independentistas": 7832, "\u0120archivos": 7833, "amas": 7834, "\u0120impulsar": 7835, "\u0120probablemente": 7836, "\u0120consideran": 7837, "guna": 7838, "\u0120respuestas": 7839, "\u0120ahorro": 7840, "ficit": 7841, "\u012034": 7842, "\u0120Rob": 7843, "tibles": 7844, "\u0120espiri": 7845, "Otros": 7846, "\u0120feder": 7847, "ear": 7848, "pil": 7849, "\u0120Vitoria": 7850, "ionante": 7851, "tacto": 7852, "\u0120je": 7853, "Bo": 7854, "\u0120explos": 7855, "uevos": 7856, "\u0120naci\u00c3\u00b3": 7857, "\u0120perspectiva": 7858, "\u0120Sir": 7859, "PS": 7860, "\u0120Mediter": 7861, "unas": 7862, "\u0120Cir": 7863, "\u0120bonito": 7864, "\u0120avi\u00c3\u00b3n": 7865, ".....": 7866, "pa\u00c3\u00b1as": 7867, "bu": 7868, "ecas": 7869, "\u0120estabilidad": 7870, "\u0120aparecer": 7871, "tedral": 7872, "ey": 7873, "\u0120siento": 7874, "\u0120Huelva": 7875, "gando": 7876, "2017": 7877, "cidental": 7878, "\u0120encab": 7879, "by": 7880, "\u0120Edu": 7881, "\u0120moral": 7882, "\u0120conversaci\u00c3\u00b3n": 7883, "\u0120contactar": 7884, "tificaci\u00c3\u00b3n": 7885, "tente": 7886, "\u0120estuv": 7887, "\u0120tanta": 7888, "\u0120adultos": 7889, "\u0120fr\u00c3\u0143o": 7890, "Tanto": 7891, "\u0120buscan": 7892, "\u0120rap": 7893, "\u0120tocar": 7894, "\u0120gras": 7895, "\u0120cober": 7896, "\u0120nacimiento": 7897, "\u0120mex": 7898, "\u0120frase": 7899, "\u0120cuadro": 7900, "\u0120parec\u00c3\u0143a": 7901, "\u01202000": 7902, "\u0120conservaci\u00c3\u00b3n": 7903, "\u0120equiv": 7904, "\u0120regalo": 7905, "\u0120Arch": 7906, "\u0120asis": 7907, "05": 7908, "\u0120pol\u00c3\u00a9mica": 7909, "ebro": 7910, "\u0120Ira": 7911, "xo": 7912, "\u01202005": 7913, "\u0120cancel": 7914, "\u0120valoraci\u00c3\u00b3n": 7915, "fin": 7916, "eramente": 7917, "\u0120medioamb": 7918, "\u0120afrontar": 7919, "\u0120CUAL": 7920, "\u0120secreto": 7921, "iciones": 7922, "tenido": 7923, "\u0120War": 7924, "\u00c3\u00a1mico": 7925, "\u0120aportar": 7926, "\u0120piden": 7927, "\u0120residencia": 7928, "IZ": 7929, "\u0120Roma": 7930, "\u0120modificar": 7931, "\u0120prepara": 7932, "\u0120cuestion": 7933, "\u0120blogs": 7934, "\u0120votaci\u00c3\u00b3n": 7935, "lla": 7936, "\u0120Mesa": 7937, "\u0120l\u00c3\u00a1": 7938, "\u0120pudiera": 7939, "ME": 7940, "\u0120logr\u00c3\u00b3": 7941, "\u0120privados": 7942, "\u0120flor": 7943, "\u0120siguiendo": 7944, "\u0120Vol": 7945, "\u0120Ingenier": 7946, "\u0120discrim": 7947, "t\u00c3\u00a1logo": 7948, "\u012048": 7949, "09": 7950, "\u0120seguir\u00c3\u00a1": 7951, "\u0120provincial": 7952, "govia": 7953, "\u0120plantea": 7954, "gros": 7955, "\u0120aprovechar": 7956, "\u0120pobreza": 7957, "\u0120reflexi\u00c3\u00b3n": 7958, "\u0120Ce": 7959, "\u0120cu\u00c3\u00a1l": 7960, "\u0120aviso": 7961, "\u0120situada": 7962, "\u0120entiende": 7963, "\u0120aventura": 7964, "\u0120Daniel": 7965, "piraci\u00c3\u00b3n": 7966, "\u0120DERECHOS": 7967, "\u0120marido": 7968, "arme": 7969, "\u0120basado": 7970, "\u0120consejo": 7971, "\u0120elig": 7972, "icantes": 7973, "ORA": 7974, "\u0120sociedades": 7975, "\u0120puente": 7976, "\u0120marcar": 7977, "\u0120explotaci\u00c3\u00b3n": 7978, "\u0120dor": 7979, "\u0120Pad": 7980, "\u0120creen": 7981, "\u0120sesiones": 7982, "\u0120DES": 7983, "fra": 7984, "\u0120esperan": 7985, "\u0120ord": 7986, "\u0120pasaj": 7987, "\u0120\u00c3\u0123lvarez": 7988, "\u0120sindic": 7989, "ieg": 7990, "cidas": 7991, "Sol": 7992, "\u0120Andr\u00c3\u00a9s": 7993, "\u0120reparto": 7994, "\u0120placer": 7995, "\u0120m\u00c3\u0143nima": 7996, "\u0120lector": 7997, "\u0120quitar": 7998, "\u0120subs": 7999, "\u0120ambiental": 8000, "\u0120=": 8001, "\u0120recaud": 8002, "uevas": 8003, "ney": 8004, "\u0120Cerv": 8005, "\u0120cama": 8006, "\u0120Primera": 8007, "\u0120Juegos": 8008, "\u0120talento": 8009, "\u0120Juz": 8010, "\u0120modificaci\u00c3\u00b3n": 8011, "\u0120arque": 8012, "\u0120realiz\u00c3\u00b3": 8013, "\u0120cerv": 8014, "\u0120adquirir": 8015, "\u0120ponerse": 8016, "\u0120platos": 8017, "\u0120especialistas": 8018, "\u0120demostrar": 8019, "\u0120incumpl": 8020, "\u0120jam\u00c3\u00a1s": 8021, "Descu": 8022, "Pla": 8023, "\u0120dejo": 8024, "\u0120residuos": 8025, "\u0120leyendo": 8026, "\u0120dil": 8027, "\u0120temperaturas": 8028, "\u0120mete": 8029, "zados": 8030, "empo": 8031, "eco": 8032, "ANA": 8033, "34": 8034, "\u0120Vo": 8035, "\u0120echar": 8036, "\u0120dato": 8037, "\u0120pensamiento": 8038, "\u0120Energ": 8039, "\u0120lucrativos": 8040, "\u0120Hen": 8041, "mbol": 8042, "\u0120peg": 8043, "\u0120liqu": 8044, "\u0120cotidi": 8045, "\u0120considerar": 8046, "\u012037": 8047, "\u0120transformaci\u00c3\u00b3n": 8048, "g\u00c3\u00a1nica": 8049, "Neces": 8050, "\u0120exter": 8051, "\u0120asegurar": 8052, "\u0120Ti": 8053, "lack": 8054, "\u0120Oc": 8055, "\u0120patro": 8056, "\u0120exces": 8057, "\u0120constituy": 8058, "\u0120conta": 8059, "\u0120ago": 8060, "\u0120bancar": 8061, "\u0120poca": 8062, "\u0120deportiva": 8063, "Pr": 8064, "\u0120riqueza": 8065, "\u0120Regi\u00c3\u00b3n": 8066, "Sigue": 8067, "jeron": 8068, "\u0120cooperaci\u00c3\u00b3n": 8069, "\u0120curios": 8070, "\u0120Oviedo": 8071, "\u0120marcado": 8072, "oluciones": 8073, "\u0120sorteo": 8074, "\u0120char": 8075, "itadas": 8076, "QUE": 8077, "\u0120sole": 8078, "\u0120adecuada": 8079, "ij\u00c3\u00b3n": 8080, "\u0120solar": 8081, "\u0120universidades": 8082, "\u0120contin\u00c3\u00ba": 8083, "\u0120agenda": 8084, "\u0120andaluz": 8085, "\u0120ninguno": 8086, "\u0120log": 8087, "\u00c3\u00b3cra": 8088, "unci\u00c3\u00b3n": 8089, "lave": 8090, "\u0120Una": 8091, "ologia": 8092, "\u0120rock": 8093, "\u0120Ortega": 8094, "\u0120aproximadamente": 8095, "\u0120medie": 8096, "\u0120acoge": 8097, "\u0120provincias": 8098, "Soy": 8099, "\u0120blanca": 8100, "\u0120Cook": 8101, "\u0120conferencia": 8102, "\u0120desempe": 8103, "\u0120CUALQUIER": 8104, "\u0120categor\u00c3\u0143as": 8105, "\u0120CASO": 8106, "\u0120inteligencia": 8107, "\u0120deber\u00c3\u0143an": 8108, "\u0120desarrolla": 8109, "poco": 8110, "\u0120extranjero": 8111, "ambre": 8112, "\u0120avance": 8113, "cipe": 8114, "temp": 8115, "\u0120aval": 8116, "inada": 8117, "\u00c3\u00a9cord": 8118, "tativas": 8119, "Igu": 8120, "\u0120contado": 8121, "\u0120Jim\u00c3\u00a9nez": 8122, "\u0120quis": 8123, "\u0120expediente": 8124, "\u0120seres": 8125, "\u0120agru": 8126, "\u0120factor": 8127, "\u0120fiscales": 8128, "\u00c3\u00a9sticos": 8129, "zcan": 8130, "ierta": 8131, "\u0120fantas": 8132, "\u0120Casado": 8133, "JD": 8134, "\u0120intenta": 8135, "\u0120Parlament": 8136, "\u0120PAR": 8137, "ure": 8138, "\u0120hol": 8139, "ministro": 8140, "\u0120Dele": 8141, "\u0120vinos": 8142, "\u0120ronda": 8143, "\u0120ilegal": 8144, "\u0120negociaciones": 8145, "zadas": 8146, "\u0120Venta": 8147, "\u0120Logro\u00c3\u00b1o": 8148, "\u0120plato": 8149, "\u0120existentes": 8150, "\u0120Baleares": 8151, "\u0120enlaces": 8152, "\u0120colabora": 8153, "\u0120teor\u00c3\u0143a": 8154, "\u0120vicepresidente": 8155, "\u0120desigu": 8156, "\u0120preparado": 8157, "anea": 8158, "\u0120produjo": 8159, "riel": 8160, "\u0120interac": 8161, "uelve": 8162, "\u0120Dol": 8163, "\u0120consigui\u00c3\u00b3": 8164, "\u0120rode": 8165, "\u0120presupues": 8166, "All": 8167, "Imp": 8168, "\u00c3\u00a1les": 8169, "gla": 8170, "\u0120informes": 8171, "\u0120nucle": 8172, "oft": 8173, "\u0120Inform": 8174, "oncesto": 8175, "\u0120portada": 8176, "irre": 8177, "\u0120virtual": 8178, "BRE": 8179, "\u0120p\u00c3\u00a1r": 8180, "\u0120toque": 8181, "\u0120rebel": 8182, "\u0120BB": 8183, "\u0120correctamente": 8184, "\u0120terap": 8185, "illan": 8186, "\u0120comis": 8187, "\u0120New": 8188, "\u0120d\u00c3\u00a9ficit": 8189, "ombi": 8190, "\u0120civiles": 8191, "\u0120malo": 8192, "\u0120parecido": 8193, "\u0120llevar\u00c3\u00a1": 8194, "\u0120fallecido": 8195, "\u0120paque": 8196, "\u0120Consell": 8197, "\u0120renovaci\u00c3\u00b3n": 8198, "\u0120alumno": 8199, "irona": 8200, "\u0120estup": 8201, "gui": 8202, "\u0120gestionar": 8203, "\u0120renunci": 8204, "\u0120encargado": 8205, "orld": 8206, "\u0120poderos": 8207, "\u0120piensa": 8208, "toriales": 8209, "iver": 8210, "\u0120mirar": 8211, "top": 8212, "\u0120RESERV": 8213, "CU": 8214, "BL": 8215, "\u0120Dom": 8216, "\u0120solicitudes": 8217, "\u0120Blanca": 8218, "\u0120\u00c3\u00a1lbum": 8219, "\u0120design": 8220, "fu": 8221, "\u0120destacan": 8222, "\u0120incre\u00c3\u0143": 8223, "JO": 8224, "\u0120madrugada": 8225, "IDA": 8226, "\u0120escala": 8227, "\u0120Marta": 8228, "\u0120crim": 8229, "\u0120plataformas": 8230, "\u0120famoso": 8231, "COO": 8232, "\u0120se\u00c3\u00b1al\u00c3\u00b3": 8233, "','": 8234, "\u0120especif": 8235, "\u0120Pleno": 8236, "\u0120multitud": 8237, "\u0120reiter": 8238, "\u00c3\u00a1zquez": 8239, "\u0120fen\u00c3\u00b3meno": 8240, "\u0120recal": 8241, "\u0120\u00c3\u00a1nimo": 8242, "\u0120inspec": 8243, "\u0120tramo": 8244, "08": 8245, "\u0120Aran": 8246, "\u0120brill": 8247, "\u0120consideramos": 8248, "\u0120Deporte": 8249, "\u0120apa": 8250, "\u0120lamenta": 8251, "\u0120creer": 8252, "ieren": 8253, "lamos": 8254, "\u0120Locales": 8255, "Luego": 8256, "\u0120fues": 8257, "\u0120Cortes": 8258, "\u0120elaborado": 8259, "\u0120mezcla": 8260, "\u0120recre": 8261, "\u0120eficiencia": 8262, "Han": 8263, "Trab": 8264, "\u0120grados": 8265, "\u0120pantal": 8266, "\u0120discre": 8267, "\u0120guer": 8268, "\u0120alegr\u00c3\u0143a": 8269, "guardia": 8270, "az": 8271, "\u0120\u00c3\u0123frica": 8272, "grado": 8273, "istente": 8274, "\u0120crecer": 8275, "\u0120interpretaci\u00c3\u00b3n": 8276, "ientales": 8277, "\u0120Cuenca": 8278, "\u0120Famil": 8279, "\u0120tensi\u00c3\u00b3n": 8280, "\u0120valle": 8281, "ith": 8282, "Ser": 8283, "\u0120incluidos": 8284, "\u0120copi": 8285, "\u0120lluvia": 8286, "\u0120permita": 8287, "\u0120guste": 8288, "AV": 8289, "\u0120pisos": 8290, "oros": 8291, "\u0120Jap\u00c3\u00b3n": 8292, "\u0120canales": 8293, "\u0120cap\u00c3\u0143tulo": 8294, "\u0120conversaciones": 8295, "\u0120hagan": 8296, "\u0120claramente": 8297, "\u0120mascul": 8298, "\u0120redac": 8299, "\u0120Bueno": 8300, "Actualmente": 8301, "ION": 8302, "\u0120menudo": 8303, "\u0120Presidencia": 8304, "\u0120el\u00c3\u00a9ctrica": 8305, "gor": 8306, "\u0120vecino": 8307, "\u0120Ci": 8308, "\u0120estancia": 8309, "\u0120esca\u00c3\u00b1os": 8310, "MI": 8311, "\u0120perfecta": 8312, "\u0120Academia": 8313, "roid": 8314, "\u0120delantero": 8315, "\u0120Badajoz": 8316, "esto": 8317, "\u0120solidaridad": 8318, "\u0120veter": 8319, "\u0120\u00e2\u0122\u00a2": 8320, "\u0120Noticias": 8321, "ibar": 8322, "\u0120RESERVADOS": 8323, "\u0120pendientes": 8324, "\u0120cristal": 8325, "toras": 8326, "\u0120Defensa": 8327, "\u0120perju": 8328, "\u0120MU": 8329, "\u0120estatal": 8330, "\u0120guitar": 8331, "\u0120firme": 8332, "\u0120Mod": 8333, "\u00c3\u00a1bamos": 8334, "\u0120protocol": 8335, "BI": 8336, "\u0120preced": 8337, "\u0120instruc": 8338, "Au": 8339, "enza": 8340, "\u0120geo": 8341, "l\u00c3\u0143n": 8342, "\u00c3\u012fS": 8343, "orra": 8344, "gona": 8345, "\u0120ME": 8346, "cita": 8347, "\u0120extranjeros": 8348, "\u0120digitales": 8349, "ierten": 8350, "01": 8351, "\u0120\u00c3\u00b3p": 8352, "\u0120Patrimonio": 8353, "\u0120aceler": 8354, "\u0120daba": 8355, "ograf\u00c3\u0143a": 8356, "\u0120videoj": 8357, "\u0120seleccion": 8358, "\u0120preocupaci\u00c3\u00b3n": 8359, "tornos": 8360, "\u0120bater\u00c3\u0143a": 8361, "\u0120dirige": 8362, "\u0120convirti\u00c3\u00b3": 8363, "\u0120remon": 8364, "hat": 8365, "\u0120Corporaci\u00c3\u00b3n": 8366, "\u0120ejemplos": 8367, "\u012038": 8368, "\u0120bras": 8369, "vos": 8370, "eamente": 8371, "\u0120jurado": 8372, "manes": 8373, "\u0120pasi\u00c3\u00b3n": 8374, "\u0120siente": 8375, "tanas": 8376, "\u0120Deportes": 8377, "\u0120videos": 8378, "\u0120encuesta": 8379, "Cs": 8380, "atorios": 8381, "ter\u00c3\u0143as": 8382, "\u0120vital": 8383, "\u0120qu\u00c3\u0143m": 8384, "\u0120retos": 8385, "\u0120procedentes": 8386, "\u0120hablado": 8387, "\u0120Colombia": 8388, "\u0120ampliaci\u00c3\u00b3n": 8389, "Pedro": 8390, "cidentes": 8391, "\u0120alternativas": 8392, "\u0120Cr": 8393, "\u0120patrocin": 8394, "\u0120cuel": 8395, "\u0120r\u00c3\u00a9cord": 8396, "ENCIA": 8397, "\u0120introducir": 8398, "\u0120identificar": 8399, "\u0120pendiente": 8400, "\u0120Govern": 8401, "\u0120Generales": 8402, "\u0120manifestado": 8403, "\u0120abon": 8404, "\u0120Word": 8405, "\u0120emisiones": 8406, "\u0120realizando": 8407, "unales": 8408, "fal": 8409, "\u0120cerebro": 8410, "don": 8411, "\u0120utilizan": 8412, "\u0120inser": 8413, "vedra": 8414, "\u0120Caja": 8415, "\u0120Windows": 8416, "\u0120componentes": 8417, "\u0120Estudios": 8418, "\u0120preparaci\u00c3\u00b3n": 8419, "vio": 8420, "\u0120\u00c3\u0135": 8421, "\u0120garantiza": 8422, "\u0120diagn": 8423, "cioso": 8424, "\u0120Albert": 8425, "\u0120contactos": 8426, "\u0120frecuencia": 8427, "icho": 8428, "Muchos": 8429, "\u0120conocidos": 8430, "to\u00c3\u00b1o": 8431, "\u0120juega": 8432, "07": 8433, "\u0120s\u00c3\u0143mbol": 8434, "ampions": 8435, "\u0120Rural": 8436, "\u0120bl": 8437, "egr": 8438, "\u0120apas": 8439, "\u01202004": 8440, "\u0120tem": 8441, "vie": 8442, "\u0120superiores": 8443, "\u0120You": 8444, "\u0120jubil": 8445, "\u0120inquie": 8446, "\u0120Alc": 8447, "\u0120cuento": 8448, "\u0120tela": 8449, "\u0120vuelo": 8450, "\u0120interesados": 8451, "\u0120irregular": 8452, "\u0120estreno": 8453, "\u0120Arm": 8454, "\u0120relato": 8455, "orios": 8456, "\u0120ensayo": 8457, "\u0120procedimientos": 8458, "\u0120tecnico": 8459, "\u0120revisi\u00c3\u00b3n": 8460, "amar": 8461, "tualmente": 8462, "\u0120b\u00c3\u00a1sicos": 8463, "@@@@": 8464, "Ser\u00c3\u00a1": 8465, "\u0120establecimientos": 8466, "\u0120le\u00c3\u0143do": 8467, "pue": 8468, "\u0120masa": 8469, "\u0120recortes": 8470, "\u0120circuito": 8471, "\u0120producen": 8472, "\u0120ascenso": 8473, "\u0120autoridad": 8474, "\u0120corriente": 8475, "\u0120Apple": 8476, "ires": 8477, "199": 8478, "\u0120Isla": 8479, "\u0120balance": 8480, "\u0120plano": 8481, "\u0120bolsa": 8482, "\u0120prote": 8483, "quinas": 8484, "\u0120cercano": 8485, "\u0120especializada": 8486, "orcio": 8487, "loj": 8488, "\u0120empresario": 8489, "ortun": 8490, "\u0120extrema": 8491, "\u0120totalidad": 8492, "Incluye": 8493, "06": 8494, "\u0120genial": 8495, "\u0120polic": 8496, "\u0120cubrir": 8497, "\u0120Doc": 8498, "dencias": 8499, "\u0120romper": 8500, "\u00c3\u00bac": 8501, "ej": 8502, "\u0120participan": 8503, "ags": 8504, "\u0120Blog": 8505, "orge": 8506, "POR": 8507, "\u0120medic": 8508, "\u0120venir": 8509, "orar": 8510, "\u0120concesi\u00c3\u00b3n": 8511, "\u0120esfuerzos": 8512, "\u0120fes": 8513, "\u0120primavera": 8514, "\u0120Dr": 8515, "\u0120tercero": 8516, "\u0120Bildu": 8517, "\u0120trabajador": 8518, "\u0120especializados": 8519, "\u0120diferenci": 8520, "Parece": 8521, "\u0120mandato": 8522, "ensiones": 8523, "ami": 8524, "\u0120afirm\u00c3\u00b3": 8525, "\u0120sexuales": 8526, "\u0120estren": 8527, "\u0120llegue": 8528, "\u0120mezcl": 8529, "\u0120campa\u00c3\u00b1as": 8530, "\u0120apartam": 8531, "\u0120cero": 8532, "LOS": 8533, "\u0120Cad": 8534, "\u0120preparar": 8535, "\u0120Cristi": 8536, "\u0120electricidad": 8537, "\u0120IV": 8538, "\u0120ocurr": 8539, "\u0120CS": 8540, "\u00c3\u00a1ticas": 8541, "\u0120localidades": 8542, "Espero": 8543, "\u0120ocupar": 8544, "\u0120proporcion": 8545, "],": 8546, "tarias": 8547, "urales": 8548, "\u0120idioma": 8549, "timon": 8550, "udos": 8551, "\u0120Presupuestos": 8552, "Qui\u00c3\u00a9n": 8553, "\u0120alojamiento": 8554, "\u0120expresidente": 8555, "A\u00c3\u00ban": 8556, "\u0120cient\u00c3\u0143fico": 8557, "\u0120contemporanea": 8558, "\u0120decreto": 8559, "\u0120diciendo": 8560, "\u0120felicidad": 8561, "vistas": 8562, "\u0120Susana": 8563, "Entonces": 8564, "\u0120titulares": 8565, "tedes": 8566, "Clasificados": 8567, "\u0120diversidad": 8568, "portar": 8569, "\u0120Ciencia": 8570, "ser": 8571, "\u0120posiciones": 8572, "\u0120veinte": 8573, "cedes": 8574, "\u0120contempor\u00c3\u00a1n": 8575, "ontevedra": 8576, "\u0120mover": 8577, "endaciones": 8578, "\u0120trato": 8579, "cones": 8580, "\u0120letras": 8581, "\u0120Bra": 8582, "m\u00c3\u00a1ticos": 8583, "\u0120Va": 8584, "\u0120extremo": 8585, "\u0120Joaqu": 8586, "eis": 8587, "\u0120fij": 8588, "\u0120Sar": 8589, "\u0120estrategias": 8590, "ment": 8591, "emn": 8592, "48": 8593, "\u0120hin": 8594, "\u0120el\u00c3\u00a9ctrico": 8595, "thle": 8596, "MS": 8597, "\u0120195": 8598, "\u00c3\u0143dos": 8599, "avaj": 8600, "\u0120Sistema": 8601, "uo": 8602, "\u0120porno": 8603, "\u0120expon": 8604, "\u0120Vis": 8605, "\u0120gustan": 8606, "tagena": 8607, "\u0120norteameric": 8608, "\u0120Mario": 8609, "\u0120estatu": 8610, "\u0120playas": 8611, "\u0120transparencia": 8612, "\u0120hue": 8613, "\u0120marcados": 8614, "\u0120Su\u00c3\u00a1rez": 8615, "33": 8616, "\u0120pose": 8617, "\u0120posee": 8618, "\u0120prestaciones": 8619, "\u0120presidencia": 8620, "enzo": 8621, "\u0120evi": 8622, "\u0120CN": 8623, "\u0120F\u00c3\u00batbol": 8624, "\u0120autonom\u00c3\u0143a": 8625, "\u0120apellido": 8626, "omba": 8627, "\u0120Mol": 8628, "\u0120recin": 8629, "\u0120Vega": 8630, "mis": 8631, "\u0120tomado": 8632, "ow": 8633, "\u0120Teresa": 8634, "\u0120Albacete": 8635, "\u0120dieta": 8636, "arragona": 8637, "gar\u00c3\u00a1": 8638, "\u0120escuelas": 8639, "sta": 8640, "\u0120materias": 8641, "\u0120tiro": 8642, "cripciones": 8643, "\u0120mando": 8644, "\u0120votantes": 8645, "\u0120cuadrados": 8646, "didas": 8647, "alquier": 8648, "\u0120aporta": 8649, "\u0120S\u00c3\u00a1": 8650, "\u0120Editorial": 8651, "pot": 8652, "\u0120comunicaciones": 8653, "\u0120versiones": 8654, "\u0120privileg": 8655, "\u0120Domingo": 8656, "\u0120antiguos": 8657, "\u0120infec": 8658, "\u0120frontera": 8659, "\u0120dipl": 8660, "Publicaci\u00c3\u00b3n": 8661, "\u0120profesi\u00c3\u00b3n": 8662, "Cono": 8663, "\u0120Liber": 8664, "\u0120Jur": 8665, "uelta": 8666, "fera": 8667, "\u0120testimon": 8668, "mal": 8669, "\u0120emergencia": 8670, "\u0120sien": 8671, "________": 8672, "\u0120policial": 8673, "\u0120cient\u00c3\u0143fica": 8674, "\u0120servidor": 8675, "\u0120acondicionado": 8676, "\u0120\u00c3\u00a1mbitos": 8677, "\u0120turno": 8678, "TAN": 8679, "EB": 8680, "\u0120atentado": 8681, "\u0120realizar\u00c3\u00a1": 8682, "m\u00c3\u00b3vil": 8683, "\u0120divul": 8684, "\u0120basada": 8685, "\u0120Israel": 8686, "/...": 8687, "\u0120exactamente": 8688, "idal": 8689, "A\u00c3\u00b1": 8690, "\u0120complementar": 8691, "\u0120sanidad": 8692, "\u0120tono": 8693, "\u0120chicos": 8694, "\u0120combus": 8695, "\u0120fruto": 8696, "\u0120defec": 8697, "\u0120llevaba": 8698, "\u0120Legal": 8699, "TV": 8700, "\u0120Guadalajara": 8701, "ington": 8702, "\u0120experto": 8703, "titudes": 8704, "chado": 8705, "plica": 8706, "\u0120cobertura": 8707, "\u0120propietarios": 8708, "\u00c3\u0143ctor": 8709, "Tres": 8710, "\u0120adaptaci\u00c3\u00b3n": 8711, "\u0120Cuer": 8712, "Ab": 8713, "\u0120colum": 8714, "\u0120cuyos": 8715, "Bien": 8716, "\u0120alcanzado": 8717, "\u0120Hu": 8718, "\u0120gastronom\u00c3\u0143a": 8719, "\u0120f\u00c3\u00a1cilmente": 8720, "\u00c3\u0133A": 8721, "thletic": 8722, "\u0120labores": 8723, "\u0120pidi\u00c3\u00b3": 8724, "icciones": 8725, "\u0120irre": 8726, "EZ": 8727, "\u0120conforme": 8728, "Pon": 8729, "omina": 8730, "\u0120preocupa": 8731, "\u0120tendencias": 8732, "\u0120propa": 8733, "\u0120ONG": 8734, "\u0120Il": 8735, "\u0120asc": 8736, "cro": 8737, "\u0120juzgado": 8738, "\u0120Izquier": 8739, "\u0120obtenido": 8740, "\u0120instrumentos": 8741, "\u00c3\u00b1oz": 8742, "aller": 8743, "\u0120Estatu": 8744, "\u0120XXI": 8745, "cista": 8746, "\u0120inc": 8747, "\u0120\u00c3\u00b3rganos": 8748, "\u0120logra": 8749, "\u0120deportivas": 8750, "\u00c3\u00a9ro": 8751, "\u0120fach": 8752, "\u0120quieran": 8753, "it\u00c3\u00a1n": 8754, "\u0120ferro": 8755, "\u0120asumir": 8756, "\u0120Chile": 8757, "iadas": 8758, "\u0120lanza": 8759, "\u0120imple": 8760, "\u0120hago": 8761, "\u0120celebr\u00c3\u00b3": 8762, "\u0120Medios": 8763, "\u0120venido": 8764, "\u00c3\u00a1ndole": 8765, "\u0120Igualdad": 8766, "\u0120Unidad": 8767, "\u0120Yo": 8768, "\u0120impon": 8769, "antiles": 8770, "31": 8771, "\u0120insul": 8772, "\u0120resal": 8773, "utu": 8774, "ild": 8775, "\u0120madrile\u00c3\u00b1o": 8776, "\u0120encuestas": 8777, "ibuye": 8778, "arle": 8779, "\u0120alber": 8780, "\u0120flores": 8781, "Centro": 8782, "\u0120aportaci\u00c3\u00b3n": 8783, "\u0120ficci\u00c3\u00b3n": 8784, "\u0120obligado": 8785, "\u0120sobreviv": 8786, "\u0120s\u00c3\u00b3l": 8787, "\u0120subrayado": 8788, "Tengo": 8789, "xit": 8790, "''": 8791, "\u0120Will": 8792, "dado": 8793, "EE": 8794, "fre": 8795, "resa": 8796, "\u0120rechazo": 8797, "gia": 8798, "\u0120pus": 8799, "\u0120gustado": 8800, "\u0120pala": 8801, "\u0120educativos": 8802, "its": 8803, "\u0120advierte": 8804, "\u0120mejoras": 8805, "\u0120inmediata": 8806, "\u0120adicional": 8807, "ego": 8808, "\u0120querer": 8809, "\u0120viaj": 8810, "glaterra": 8811, "TC": 8812, "\u0120Van": 8813, "\u0120percib": 8814, "\u0120recetas": 8815, "\u0120ciudadana": 8816, "\u0120empu": 8817, "\u0120regulaci\u00c3\u00b3n": 8818, "75": 8819, "rante": 8820, "\u0120Interna": 8821, "\u0120mantienen": 8822, "verd": 8823, "......": 8824, "\u0120horiz": 8825, "critos": 8826, "\u0120completar": 8827, "\u0120perteneci": 8828, "Nosotros": 8829, "\u0120asesinato": 8830, "\u0120llegaron": 8831, "\u0120Empresa": 8832, "\u0120corta": 8833, "\u0120Humanos": 8834, "\u0120Paz": 8835, "\u0120solicitado": 8836, "\u0120s\u00c3\u0143nto": 8837, "itivo": 8838, "hum": 8839, "\u0120naranja": 8840, "\u0120censura": 8841, "\u0120urgente": 8842, "\u0120protec": 8843, "\u0120audiovis": 8844, "\u0120Bro": 8845, "\u0120Jud": 8846, "icanos": 8847, "gentino": 8848, "\u0120n\u00c3\u00bac": 8849, "\u0120Chris": 8850, "\u0120Lan": 8851, "\u0120refuer": 8852, "\u0120Cine": 8853, "tinas": 8854, "\u0120examen": 8855, "\u0120paral": 8856, "\u0120cog": 8857, "ARC": 8858, "\u0120defendido": 8859, "\u0120remi": 8860, "\u0120divisi\u00c3\u00b3n": 8861, "\u0120ciertos": 8862, "\u0120manifesta": 8863, "\u0120Constitucional": 8864, "\u0120operativo": 8865, "quito": 8866, "ets": 8867, "\u0120Calle": 8868, "\u0120musicales": 8869, "\u0120c\u00c3\u00a1maras": 8870, "acu": 8871, "osas": 8872, "yn": 8873, "\u0120acabado": 8874, "\u0120Cla": 8875, "\u0120remate": 8876, "xi": 8877, "\u0120personalidad": 8878, "\u0120600": 8879, "\u0120revoluci\u00c3\u00b3n": 8880, "\u0120alimentar": 8881, "\u0120absolutamente": 8882, "\u0120territorial": 8883, "\u0120\u00f0\u0141": 8884, "\u0120senten": 8885, "\u0120labora": 8886, "\u0120desgra": 8887, "\u0120cruc": 8888, "fas": 8889, "\u0120sindicato": 8890, "\u0120Cap": 8891, "IAS": 8892, "trar": 8893, "rosoft": 8894, "\u0120infancia": 8895, "b\u00c3\u00bas": 8896, "\u0120SAN": 8897, "\u0120probable": 8898, "\u0120viejo": 8899, "\u00c3\u00a8n": 8900, "iese": 8901, "Ba": 8902, "\u0120vuelos": 8903, "\u0120tratamientos": 8904, "f\u00c3\u00b3nica": 8905, "\u0120nieve": 8906, "\u0120une": 8907, "\u0120negra": 8908, "\u0120ama": 8909, "\u0120organismos": 8910, "\u0120Sim": 8911, "\u0120Castillo": 8912, "\u0120mantenido": 8913, "\u0120tur\u00c3\u0143stica": 8914, "\u0120firmas": 8915, "\u0120Hab": 8916, "\u0120CA": 8917, "\u0120intercambio": 8918, "\u0120cuerpos": 8919, "avajillas": 8920, "\u0120ces": 8921, "\u0120asign": 8922, "tund": 8923, "\u00c3\u0143ticas": 8924, "\u0120cuota": 8925, "\u0120Ka": 8926, "Red": 8927, "\u0120podremos": 8928, "\u0120profundidad": 8929, "\u0120publicaciones": 8930, "\u0120abandonar": 8931, "Ti": 8932, "iguras": 8933, "Mas": 8934, "\u0120audiencia": 8935, "\u0120terminado": 8936, "pias": 8937, "\u0120beso": 8938, "Us": 8939, "\u0120femenino": 8940, "osten": 8941, "\u0120Alejandro": 8942, "\u0120indemn": 8943, "efin": 8944, "\u0120igualmente": 8945, "\u0120encuentros": 8946, "\u0120determinar": 8947, "\u0120Mediterr\u00c3\u00a1neo": 8948, "\u0120afili": 8949, "\u0120segura": 8950, "Nunca": 8951, "\u0120colectiva": 8952, "\u0120contaminaci\u00c3\u00b3n": 8953, "mend": 8954, "\u0120Champions": 8955, "medio": 8956, "\u0120RSS": 8957, "\u0120deportes": 8958, "\u0120aprueba": 8959, "serv": 8960, "\u0120aumenta": 8961, "\u0120abund": 8962, "\u0120hered": 8963, "\u0120aos": 8964, "\u0120Xunta": 8965, "\u0120supera": 8966, "\u0120prestaci\u00c3\u00b3n": 8967, "\u0120entrenamiento": 8968, "\u0120salen": 8969, "\u0120dise\u00c3\u00b1ado": 8970, "\u0120resumen": 8971, "\u0120comod": 8972, "\u0120Cookies": 8973, "\u0120constituye": 8974, "\u0120IVA": 8975, "\u0120OJD": 8976, "\u0120trama": 8977, "\u0120Navarro": 8978, "\u0120Tar": 8979, "\u0120protesta": 8980, "\u0120h\u00c3\u00a1bitos": 8981, "\u00c3\u00a9ramos": 8982, "\u0120claus": 8983, "\u0120Terri": 8984, "iosas": 8985, "\u0120poniendo": 8986, "\u0120pertenece": 8987, "\u0120Oficina": 8988, "\u0120Registro": 8989, "caba": 8990, "\u0120interesado": 8991, "\u0120bajar": 8992, "\u0120cambia": 8993, "\u0120jur\u00c3\u0143dica": 8994, "\u0120biblioteca": 8995, "\u0120solucionar": 8996, "ries": 8997, "\u0120conceptos": 8998, "\u0120necesitas": 8999, "\u0120paisaje": 9000, "\u0120absoluto": 9001, "\u0120rutas": 9002, "\u0120quede": 9003, "anim": 9004, "04": 9005, ":)": 9006, "\u0120sucede": 9007, "\u0120terrorista": 9008, "\u0120triunf": 9009, "\u0120ra\u00c3\u0143z": 9010, "\u0120aut\u00c3\u00b3nomas": 9011, "\u0120sab\u00c3\u0143a": 9012, "\u0120tierras": 9013, "\u0120invertir": 9014, "\u0120ingred": 9015, "\u0120gir": 9016, "CIO": 9017, "\u00c3\u013cl": 9018, "\u0120Grecia": 9019, "\u0120acostum": 9020, "enn": 9021, "t\u00c3\u00b3graf": 9022, "ixa": 9023, "\u0120caf\u00c3\u00a9": 9024, "\u0120regiones": 9025, "\u0120Alim": 9026, "\u0120usa": 9027, "cript": 9028, "\u0120publicados": 9029, "\u0120Mara": 9030, "\u0120Joan": 9031, "\u0120esposa": 9032, "\u0120liga": 9033, "\u0120verdadera": 9034, "\u0120eficacia": 9035, "CL": 9036, "\u0120cere": 9037, "\u0120dichos": 9038, "entre": 9039, "\u0120llamadas": 9040, "\u0120kilos": 9041, "l\u00c3\u00a1n": 9042, "\u0120pene": 9043, "\u0120CR": 9044, "PD": 9045, "segur": 9046, "\u0120aut\u00c3\u00b3nomos": 9047, "\u0120repercu": 9048, "\u0120cartas": 9049, "+]": 9050, "\u0120desay": 9051, "ruecos": 9052, "TS": 9053, "\u0120retirada": 9054, "\u0120espectadores": 9055, "\u0120carreras": 9056, "\u0120bod": 9057, "\u0120simul": 9058, "\u0120urnas": 9059, "\u0120vivido": 9060, "\u0120Crea": 9061, "\u0120regu": 9062, "ther": 9063, "\u0120sufre": 9064, "\u0120recomendaciones": 9065, "Tampoco": 9066, "\u0120incorporaci\u00c3\u00b3n": 9067, "\u0120salvar": 9068, "\u0120proporcionar": 9069, "\u00c3\u00b3logos": 9070, "\u0120industriales": 9071, "\u00c3\u0143es": 9072, "\u0120reglas": 9073, "soci": 9074, "jante": 9075, "\u0120universal": 9076, "uelto": 9077, "\u0120fallo": 9078, "\u0120siga": 9079, "\u0120pod\u00c3\u00a9is": 9080, "\u0120\u00c3\u012b": 9081, "vol": 9082, "\u0120correcto": 9083, "\u0120ejercicios": 9084, "\u012039": 9085, "\u0120virus": 9086, "quillo": 9087, "\u0120Josep": 9088, "ih": 9089, "Dispon": 9090, "ierto": 9091, "\u0120Caball": 9092, "gin": 9093, "\u0120condenado": 9094, "\u0120viajeros": 9095, "\u0120recientes": 9096, "\u0120observar": 9097, "\u0120intensidad": 9098, "\u0120lesiones": 9099, "\u0120Diputados": 9100, "\u0120compens": 9101, "\u0120Juzgado": 9102, "INA": 9103, "\u0120invitados": 9104, "\u0120analiza": 9105, "orio": 9106, "\u0120respal": 9107, "\u0120izquierdas": 9108, "rafo": 9109, "ike": 9110, "\u0120Profesional": 9111, "\u0120cola": 9112, "\u0120continuidad": 9113, "\u0120carreteras": 9114, "\u0120estima": 9115, "\u0120prolon": 9116, "\u00c3\u0143nsula": 9117, "\u0120CH": 9118, "\u0120jard\u00c3\u0143n": 9119, "65": 9120, "PO": 9121, "\u0120conocemos": 9122, "\u0120Andalu": 9123, "\u0120efectivo": 9124, "untamente": 9125, "\u0120estadio": 9126, "\u0120finalizar": 9127, "gip": 9128, "\u0120Alex": 9129, "\u0120habituales": 9130, "\u0120lum": 9131, "\u0120criterio": 9132, "\u0120hablan": 9133, "\u0120pata": 9134, "\u0120trabajado": 9135, "\u0120fur": 9136, "\u0120Mu\u00c3\u00b1oz": 9137, "\u00c3\u00a9rico": 9138, "quilla": 9139, "\u0120vestido": 9140, "\u01202003": 9141, "\u0120amiga": 9142, "dias": 9143, "bril": 9144, "tren": 9145, "\u0120comenta": 9146, "\u0120Eduardo": 9147, "CR": 9148, "\u0120expectativas": 9149, "\u0120positiva": 9150, "\u0120compuesto": 9151, "how": 9152, "\u0120155": 9153, "\u0120iban": 9154, "\u0120bro": 9155, "\u0120quiso": 9156, "\u0120Ya": 9157, "\u0120rescate": 9158, "\u0120panorama": 9159, "am\u00c3\u00a9rica": 9160, "\u0120anuales": 9161, "\u0120agente": 9162, "\u0120plen": 9163, "\u00c3\u00b3f": 9164, "\u0120presunto": 9165, "Ap": 9166, "\u0120Paco": 9167, "\u0120Aviso": 9168, "verde": 9169, "\u0120brasile": 9170, "\u0120garant\u00c3\u0143as": 9171, "Amb": 9172, "\u0120remo": 9173, "\u0120preocup": 9174, "i\u00c3\u00a9ndose": 9175, "LAN": 9176, "\u0120satisfacci\u00c3\u00b3n": 9177, "\u0120bord": 9178, "\u0120previamente": 9179, "udela": 9180, "parte": 9181, "inosa": 9182, "dol": 9183, "\u0120drogas": 9184, "\u00c3\u00b3nimo": 9185, "\u0120impulso": 9186, "ecidos": 9187, "\u0120tanatorios": 9188, "\u0120afici\u00c3\u00b3n": 9189, "\u0120decoraci\u00c3\u00b3n": 9190, "\u0120cantidades": 9191, "\u0120Jef": 9192, "mina": 9193, "\u0120impresi\u00c3\u00b3n": 9194, "Tags": 9195, "\u0120prevista": 9196, "arre": 9197, "\u0120valorar": 9198, "\u0120Salvador": 9199, "\u0120Nie": 9200, "\u0120cha": 9201, "%),": 9202, "\u0120devolver": 9203, "\u0120Pir": 9204, "idel": 9205, "om\u00c3\u00a9": 9206, "\u0120universo": 9207, "\u0120corred": 9208, "\u0120comenzado": 9209, "\u0120plas": 9210, "\u0120filosof\u00c3\u0143a": 9211, "\u0120barco": 9212, "\u0120aseguran": 9213, "\u0120investigaciones": 9214, "\u0120auton\u00c3\u00b3mico": 9215, "\u0120vel": 9216, "Fel": 9217, "\u0120organizada": 9218, "\u0120informar": 9219, "\u0120favoritos": 9220, "\u0120Star": 9221, "\u0120manipul": 9222, "abuena": 9223, "\u0120Mul": 9224, "\u0120argentino": 9225, "\u0120moderno": 9226, "\u0120obligaciones": 9227, "TML": 9228, "\u0120Fron": 9229, "\u0120equivoc": 9230, "\u0120amistad": 9231, "vante": 9232, "\u0120incrementar": 9233, "press": 9234, "\u0120salas": 9235, "\u0120re\u00c3\u00bane": 9236, "\u0120polic\u00c3\u0143as": 9237, "\u0120UNA": 9238, "ORES": 9239, "\u0120rol": 9240, "\u0120prima": 9241, "Recuer": 9242, "\u0120humanidad": 9243, "geno": 9244, "\u0120pasajeros": 9245, "\u0120Electr": 9246, "\u0120He": 9247, "\u0120congreso": 9248, "\u0120inoc": 9249, "\u0120Gil": 9250, "hay": 9251, "quilidad": 9252, "\u0120instrumento": 9253, "\u0120figuras": 9254, "\u0120Neg": 9255, "\u0120apuntado": 9256, "\u0120desempleo": 9257, "\u0120Ph": 9258, "tici": 9259, "Jo": 9260, "\u0120citado": 9261, "\u0120despl": 9262, "diales": 9263, "ueble": 9264, "\u0120Premios": 9265, "\u0120Tu": 9266, "\u0120estados": 9267, "\u0120Quin": 9268, "\u0120accidentes": 9269, "\u0120ustedes": 9270, "\u0120Inglaterra": 9271, "loria": 9272, "ENA": 9273, "\u0120semif": 9274, "ispo": 9275, "ejo": 9276, "ics": 9277, "\u00c3\u0143timo": 9278, "\u0120CAR": 9279, "\u0120tum": 9280, "\u0120implantaci\u00c3\u00b3n": 9281, "stru": 9282, "\u0120expans": 9283, "ajada": 9284, "\u0120Bl": 9285, "guraci\u00c3\u00b3n": 9286, "Esper": 9287, "\u0120extensi\u00c3\u00b3n": 9288, "\u0120emble": 9289, "ENES": 9290, "\u0120parlamentario": 9291, "\u0120secretaria": 9292, "\u0120cr\u00c3\u00a9ditos": 9293, "tadura": 9294, "\u0120lanzado": 9295, "\u0120Bon": 9296, "teler\u00c3\u0143a": 9297, "\u0120prestar": 9298, "\u0120ubicado": 9299, "\u0120end": 9300, "\u0120oto\u00c3\u00b1o": 9301, "\u0120voces": 9302, "\u0120boda": 9303, "\u0120concejales": 9304, "Informaci\u00c3\u00b3n": 9305, "\u0120P\u00c3\u00bablicas": 9306, "prom": 9307, "\u0120apuestas": 9308, "\u0120determinados": 9309, "tualidad": 9310, "100": 9311, "Is": 9312, "\u0120darse": 9313, "\u0120coordinaci\u00c3\u00b3n": 9314, "\u0120denunciado": 9315, "\u0120provocado": 9316, "Dentro": 9317, "\u0120met\u00c3\u00a1": 9318, "sado": 9319, "Ja": 9320, "\u0120[+]": 9321, "\u0120energ\u00c3\u00a9tica": 9322, "\u0120enrique": 9323, "tito": 9324, "\u0120lesi\u00c3\u00b3n": 9325, "\u0120aprobar": 9326, "\u012055": 9327, "illera": 9328, "pi\u00c3\u00a9": 9329, "\u0120quedarse": 9330, "\u0120ONU": 9331, "rimir": 9332, "\u0120prop\u00c3\u00b3sito": 9333, "\u0120riv": 9334, "\u0120vuestra": 9335, "rol": 9336, "\u0120correcta": 9337, "\u0120avanzar": 9338, "\u0120atro": 9339, "quista": 9340, "\u0120UGT": 9341, "\u0120decide": 9342, "\u0120notas": 9343, "\u0120comprender": 9344, "\u0120ocupaci\u00c3\u00b3n": 9345, "\u0120rato": 9346, "\u0120halla": 9347, "\u0120jueces": 9348, "\u0120termina": 9349, "\u0120sanitarios": 9350, "irman": 9351, "\u0120Anti": 9352, "\u0120Pes": 9353, "oles": 9354, "Pese": 9355, "\u0120Santos": 9356, "\u0120Empresas": 9357, "cloa": 9358, "\u0120bille": 9359, "\u0120enmar": 9360, "ds": 9361, "\u0120IP": 9362, "\u0120cat\u00c3\u00a1logo": 9363, "\u0120ventana": 9364, "IDO": 9365, "aunque": 9366, "\u0120notable": 9367, "\u0120horm": 9368, "\u0120inform\u00c3\u00b3": 9369, "\u0120reacci\u00c3\u00b3n": 9370, "vic": 9371, "\u0120fracaso": 9372, "\u0120centenar": 9373, "\u0120presentar\u00c3\u00a1": 9374, "\u0120Puente": 9375, "Foto": 9376, "\u0120caliente": 9377, "trada": 9378, "\u0120Pac": 9379, "\u0120incendios": 9380, "cinco": 9381, "\u0120Gij\u00c3\u00b3n": 9382, "tenga": 9383, "Cer": 9384, "\u00c3\u0143ncipe": 9385, "\u0120Soria": 9386, "\u0120provoca": 9387, "--------": 9388, "\u0120sanitario": 9389, "\u0120educ": 9390, "03": 9391, "\u0120auditada": 9392, "\u0120Aire": 9393, "\u0120competir": 9394, "\u00c3\u00a9lulas": 9395, "\u0120toros": 9396, "\u00c3\u00a1us": 9397, "\u0120Tal": 9398, "\u0120Vill": 9399, "\u0120gobernar": 9400, "\u0120anteriormente": 9401, "\u0120desigualdad": 9402, "\u0120Acci\u00c3\u00b3n": 9403, "lleer": 9404, ",,": 9405, "Cuenta": 9406, "queras": 9407, "quera": 9408, "oll": 9409, "\u0120march": 9410, "orado": 9411, "\u00c3\u0143cula": 9412, "\u0120m\u00c3\u00a1quina": 9413, "\u0120encabez": 9414, "\u0120barrios": 9415, "\u0120Regional": 9416, "\u0120terraza": 9417, "\u0120Huesca": 9418, "\u0120nacido": 9419, "\u0120apropi": 9420, "fund": 9421, "\u0120combinaci\u00c3\u00b3n": 9422, "\u0120Athletic": 9423, "\u0120verse": 9424, "\u0120Siria": 9425, "\u0120PIB": 9426, "\u0120presos": 9427, "\u0120acusa": 9428, "\u0120regreso": 9429, "\u0120maestro": 9430, "\u0120consciente": 9431, "\u0120detenci\u00c3\u00b3n": 9432, "\u0120Dec": 9433, "\u0120Deportivo": 9434, "OE": 9435, "ecimiento": 9436, "\u0120ciertas": 9437, "\u0120odio": 9438, "itando": 9439, "\u0120candidata": 9440, "\u0120abordar": 9441, "\u0120elevado": 9442, "cera": 9443, "\u0120Usuario": 9444, "FA": 9445, "\u0120hermana": 9446, "ril": 9447, "\u0120democr\u00c3\u00a1tica": 9448, "\u0120om": 9449, "\u0120noches": 9450, "\u0120lanzar": 9451, "\u0120pensado": 9452, "venido": 9453, "\u0120calef": 9454, "iden": 9455, "Incluso": 9456, "\u0120Principado": 9457, "\u0120morir": 9458, "\u0120educativa": 9459, "\u0120combatir": 9460, "\u0120equilibrio": 9461, "cuentro": 9462, "igra": 9463, "terapia": 9464, "\u0120escribi\u00c3\u00b3": 9465, "\u0120fuese": 9466, "\u0120ofens": 9467, "\u0120parar": 9468, "\u0120separa": 9469, "\u0120bols": 9470, "brado": 9471, "\u0120recinto": 9472, "TIC": 9473, "\u0120tea": 9474, "\u0120alf": 9475, "\u0120f\u00c3\u00b3rmula": 9476, "\u0120tabl": 9477, "\u0120Mossos": 9478, "\u00c3\u00b1\u00c3\u00b3n": 9479, "wood": 9480, "\u0120seguramente": 9481, "\u0120recomienda": 9482, "\u0120conflictos": 9483, "\u0120parejas": 9484, "cesa": 9485, "\u0120Rodr": 9486, "\u0120escolares": 9487, "44": 9488, "\u0120fant\u00c3\u00a1s": 9489, "\u0120chico": 9490, "\u0120COR": 9491, "\u0120Iber": 9492, "ish": 9493, "\u0120Instagram": 9494, "\u00c3\u00a9ticos": 9495, "\u0120privadas": 9496, "\u0120Tour": 9497, "\u0120Se\u00c3\u00b1or": 9498, "cura": 9499, "ecida": 9500, "ciado": 9501, "Pablo": 9502, "Compra": 9503, "\u0120asal": 9504, "\u0120fores": 9505, "\u0120fib": 9506, "Tor": 9507, "\u0120peregr": 9508, "tenta": 9509, "Ir": 9510, "\u0120cari\u00c3\u00b1o": 9511, "inio": 9512, "\u0120decis": 9513, "ADR": 9514, "iremos": 9515, "\u0120relacionado": 9516, "mir": 9517, "\u0120Mora": 9518, "\u0120partid": 9519, "\u0120cocin": 9520, "\u0120proporciona": 9521, "\u0120circulaci\u00c3\u00b3n": 9522, "\u0120casco": 9523, "\u0120reducido": 9524, "Her": 9525, "\u00c3\u00b1igo": 9526, "Rajoy": 9527, "\u0120agresi\u00c3\u00b3n": 9528, "oraci\u00c3\u00b3n": 9529, "\u0120excu": 9530, "\u0120financieras": 9531, "\u0120quinto": 9532, "\u0120Castell\u00c3\u00b3n": 9533, "mbres": 9534, "ight": 9535, "\u0120VO": 9536, "All\u00c3\u0143": 9537, "\u0120Facultad": 9538, "\u0120auton\u00c3\u00b3micas": 9539, "\u0120llor": 9540, "garse": 9541, "\u0120PC": 9542, "\u0120mostr\u00c3\u00b3": 9543, "trate": 9544, "\u0120escenarios": 9545, "allas": 9546, "\u0120discur": 9547, "\u0120exposiciones": 9548, "tr\u00c3\u0143a": 9549, "Ciudadanos": 9550, "rados": 9551, "\u0120Administraciones": 9552, "pista": 9553, "leer": 9554, "\u0120alumnado": 9555, "\u0120singular": 9556, "\u0120dedica": 9557, "ipu": 9558, "\u0120consejera": 9559, "\u0120Canal": 9560, "ta\u00c3\u00b1a": 9561, "\u0120islas": 9562, "\u0120excepci\u00c3\u00b3n": 9563, "tuario": 9564, "\u0120alemana": 9565, "32": 9566, "\u0120Atenci\u00c3\u00b3n": 9567, "\u0120revela": 9568, "\u0120destinos": 9569, "t\u00c3\u00b3lica": 9570, "\u0120cumplen": 9571, "ses": 9572, "\u0120lema": 9573, "\u0120Roja": 9574, "\u0120juventud": 9575, "bete": 9576, "\u0120tarjetas": 9577, "TRO": 9578, "\u0120tabla": 9579, "\u0120autob\u00c3\u00bas": 9580, "tamo": 9581, "\u0120abrazo": 9582, "inete": 9583, "\u0120TRA": 9584, "\u0120novedad": 9585, "\u0120ojo": 9586, "tenimiento": 9587, "\u0120drama": 9588, "iblemente": 9589, "\u0120organizar": 9590, "Art": 9591, "\u0120Comunidades": 9592, "plan": 9593, "\u0120aux": 9594, "\u0120enfo": 9595, "TORIA": 9596, "\u0120efectiva": 9597, "\u0120bicicleta": 9598, "\u0120hall": 9599, "\u0120construy": 9600, "\u0120jugue": 9601, "\u0120culp": 9602, "\u0120responsabilidades": 9603, "\u0120dignidad": 9604, "Real": 9605, "\u0120destinado": 9606, "\u0120PRE": 9607, "cieron": 9608, "FOR": 9609, "\u0120musul": 9610, "\u0120adj": 9611, "\u0120ganad": 9612, "\u0120Glo": 9613, "\u0120consultas": 9614, "\u0120enamor": 9615, "tecn": 9616, "\u0120ruido": 9617, "Alber": 9618, "\u00c3\u0143fica": 9619, "\u0120suspensi\u00c3\u00b3n": 9620, "\u0120contrad": 9621, "\u0120hoja": 9622, "\u0120orgullos": 9623, "\u0120conclusiones": 9624, "ionistas": 9625, "\u0120decenas": 9626, "\u0120ladr": 9627, "\u0120salto": 9628, "horabuena": 9629, "ides": 9630, "\u0120haberse": 9631, "\u0120Herman": 9632, "\u0120estar\u00c3\u0143a": 9633, "\u0120gallego": 9634, "\u0120Reglamento": 9635, "\u0120men\u00c3\u00ba": 9636, "\u012042": 9637, "\u0120superviv": 9638, "\u0120Ramos": 9639, "fran": 9640, "\u0120SL": 9641, "illar": 9642, "bano": 9643, "\u0120llegar\u00c3\u00a1": 9644, "\u0120campeonato": 9645, "\u0120madres": 9646, "emato": 9647, "adura": 9648, "Press": 9649, "\u0120impedir": 9650, "paraci\u00c3\u00b3n": 9651, "jano": 9652, "\u0120adquisici\u00c3\u00b3n": 9653, "\u0120expor": 9654, "questa": 9655, "\u0120precip": 9656, "\u0120especialista": 9657, "istemas": 9658, "\u0120evidencia": 9659, "uri": 9660, "tempor": 9661, "\u0120discos": 9662, "t\u00c3\u00baan": 9663, "abell": 9664, "\u0120deterior": 9665, "\u0120cena": 9666, "\u0120Lorenzo": 9667, "\u0120aver\u00c3\u0143as": 9668, "\u0120Lugo": 9669, "neces": 9670, "iesa": 9671, "URL": 9672, "lando": 9673, "\u0120m\u00c3\u00a9todos": 9674, "denes": 9675, "\u0120idiomas": 9676, "\u0120insu": 9677, "\u0120equival": 9678, "\u0120Agricultura": 9679, "\u0120reporta": 9680, "\u0120dirigente": 9681, "\u0120sufri\u00c3\u00b3": 9682, "95": 9683, "\u0120suyo": 9684, "\u0120Nor": 9685, "\u0120desas": 9686, "\u0120confes": 9687, "\u0120realizados": 9688, "pons": 9689, "\u0120certificado": 9690, "TES": 9691, "CIAS": 9692, "\u0120Joaqu\u00c3\u0143n": 9693, "inidad": 9694, "02": 9695, "\u0120espalda": 9696, "\u0120Socialista": 9697, "esas": 9698, "\u0120Segovia": 9699, "\u0120impro": 9700, "iam": 9701, "\u0120matar": 9702, "\u0120CAM": 9703, "\u0120famosa": 9704, "\u0120instalar": 9705, "\u0120te\u00c3\u00b3r": 9706, "\u0120hec": 9707, "\u0120traslado": 9708, "47": 9709, "\u0120invol": 9710, "\u0120necesitamos": 9711, "incl": 9712, "ensor": 9713, "\u0120impac": 9714, "elecci\u00c3\u00b3n": 9715, "certid": 9716, "\u0120Lle": 9717, "\u0120Ej\u00c3\u00a9rcito": 9718, "2011": 9719, "\u0120llen": 9720, "ianos": 9721, "baco": 9722, "\u0120V\u00c3\u0143ctor": 9723, "\u0120Conce": 9724, "\u0120manifestaciones": 9725, "\u0120estructuras": 9726, "\u0120perdi\u00c3\u00b3": 9727, "\u0120Sep": 9728, "\u0120metodo": 9729, "\u0120Personal": 9730, "\u0120Naciones": 9731, "\u0120har\u00c3\u00a1n": 9732, "uncias": 9733, "\u0120judiciales": 9734, "\u0120Martin": 9735, "Tra": 9736, "sh": 9737, "\u0120terroristas": 9738, "mico": 9739, "aso": 9740, "\u0120c\u00c3\u00a9lulas": 9741, "ganda": 9742, "\u0120cierra": 9743, "\u0120postura": 9744, "\u0120enviado": 9745, "\u0120acogida": 9746, "\u0120TE": 9747, "inando": 9748, "ezol": 9749, "\u0120Nuevo": 9750, "\u0120empe": 9751, "onesa": 9752, "\u0120contigo": 9753, "\u0120Android": 9754, "85": 9755, "................": 9756, "\u0120sanitaria": 9757, "\u0120tendr": 9758, "\u0120CUP": 9759, "\u0120propiedades": 9760, "\u0120cr\u00c3\u0143tico": 9761, "\u0120correr": 9762, "\u0120abiertas": 9763, "\u0120reforzar": 9764, "C\u00c3\u00a1": 9765, "\u0120fabricaci\u00c3\u00b3n": 9766, "\u0120negociar": 9767, "\u0120Lim": 9768, "\u0120tendr\u00c3\u00a1s": 9769, "\u0120d\u00c3\u00a9ci": 9770, "\u0120PD": 9771, "\u0120determinado": 9772, "\u0120destac\u00c3\u00b3": 9773, "ILLA": 9774, "\u0120CC": 9775, "\u0120sonrisa": 9776, "\u0120posesi\u00c3\u00b3n": 9777, "\u0120inversores": 9778, "\u0120contratar": 9779, "\u0120aer": 9780, "iz\u00c3\u00b3": 9781, "ciende": 9782, "\u0120Mov": 9783, "\u0120Divisi\u00c3\u00b3n": 9784, "\u0120investiga": 9785, "\u0120habilidades": 9786, "\u0120Carm": 9787, "\u0120regalos": 9788, "tificar": 9789, "DAD": 9790, "\u0120valora": 9791, "\u0120pion": 9792, "\u0120bajos": 9793, "\u0120World": 9794, "Euro": 9795, "\u0120alcanza": 9796, "\u0120jur\u00c3\u0143dico": 9797, "\u0120\u00c3\u012f": 9798, "\u0120preguntar": 9799, "\u0120Grand": 9800, "movil": 9801, "\u0120heridas": 9802, "\u0120flamen": 9803, "\u0120distinto": 9804, "\u0120ruedas": 9805, "\u0120sufren": 9806, "\u0120quince": 9807, "ificada": 9808, "\u0120vuestro": 9809, "\u0120necesitar": 9810, "D\u00c3\u0143a": 9811, "abal": 9812, "cinas": 9813, "lara": 9814, "\u0120tranquilidad": 9815, "\u0120figur": 9816, "\u0120revolucion": 9817, "\u0120comparec": 9818, "iti": 9819, "\u0120trasladado": 9820, "\u0120introd": 9821, "\u0120fija": 9822, "\u0120asesoramiento": 9823, "GRA": 9824, "\u0120ec": 9825, "\u0120manual": 9826, "2016": 9827, "metro": 9828, "\u0120contempla": 9829, "\u0120fraude": 9830, "\u0120permanecer": 9831, "\u0120festiv": 9832, "\u0120Cin": 9833, "\u0120cae": 9834, "\u0120Art": 9835, "\u0120Privacidad": 9836, "\u0120dormir": 9837, "IENTO": 9838, "\u0120treinta": 9839, "uertos": 9840, "Fern": 9841, "\u0120distingu": 9842,
[...]
